{
  "version": "1.0",
  "truncation": null,
  "padding": null,
  "added_tokens": [
    {
      "id": 0,
      "content": "<pad>",
      "single_word": false,
      "lstrip": false,
      "rstrip": false,
      "normalized": false,
      "special": true
    },
    {
      "id": 1,
      "content": "<s>",
      "single_word": false,
      "lstrip": false,
      "rstrip": false,
      "normalized": false,
      "special": true
    },
    {
      "id": 2,
      "content": "</s>",
      "single_word": false,
      "lstrip": false,
      "rstrip": false,
      "normalized": false,
      "special": true
    },
    {
      "id": 3,
      "content": "<unk>",
      "single_word": false,
      "lstrip": false,
      "rstrip": false,
      "normalized": false,
      "special": true
    },
    {
      "id": 4,
      "content": "__ellipsis__",
      "single_word": false,
      "lstrip": false,
      "rstrip": false,
      "normalized": false,
      "special": true
    }
  ],
  "normalizer": null,
  "pre_tokenizer": {
    "type": "Whitespace"
  },
  "post_processor": null,
  "decoder": null,
  "model": {
    "type": "BPE",
    "dropout": null,
    "unk_token": null,
    "continuing_subword_prefix": null,
    "end_of_word_suffix": null,
    "fuse_unk": false,
    "byte_fallback": false,
    "ignore_merges": false,
    "vocab": {
      "<pad>": 0,
      "<s>": 1,
      "</s>": 2,
      "<unk>": 3,
      "__ellipsis__": 4,
      "!": 5,
      "\"": 6,
      "#": 7,
      "$": 8,
      "%": 9,
      "&": 10,
      "'": 11,
      "(": 12,
      ")": 13,
      "*": 14,
      "+": 15,
      ",": 16,
      "-": 17,
      ".": 18,
      "/": 19,
      "0": 20,
      "1": 21,
      "2": 22,
      "3": 23,
      "4": 24,
      "5": 25,
      "6": 26,
      "7": 27,
      "8": 28,
      "9": 29,
      ":": 30,
      ";": 31,
      "<": 32,
      "=": 33,
      ">": 34,
      "?": 35,
      "@": 36,
      "A": 37,
      "B": 38,
      "C": 39,
      "D": 40,
      "E": 41,
      "F": 42,
      "G": 43,
      "H": 44,
      "I": 45,
      "J": 46,
      "K": 47,
      "L": 48,
      "M": 49,
      "N": 50,
      "O": 51,
      "P": 52,
      "Q": 53,
      "R": 54,
      "S": 55,
      "T": 56,
      "U": 57,
      "V": 58,
      "W": 59,
      "X": 60,
      "Y": 61,
      "Z": 62,
      "^": 63,
      "_": 64,
      "`": 65,
      "a": 66,
      "b": 67,
      "c": 68,
      "d": 69,
      "e": 70,
      "f": 71,
      "g": 72,
      "h": 73,
      "i": 74,
      "j": 75,
      "k": 76,
      "l": 77,
      "m": 78,
      "n": 79,
      "o": 80,
      "p": 81,
      "q": 82,
      "r": 83,
      "s": 84,
      "t": 85,
      "u": 86,
      "v": 87,
      "w": 88,
      "x": 89,
      "y": 90,
      "z": 91,
      "{": 92,
      "}": 93,
      "~": 94,
      "": 95,
      "": 96,
      "": 97,
      "£": 98,
      "¨": 99,
      "´": 100,
      "½": 101,
      "Õ": 102,
      "à": 103,
      "è": 104,
      "é": 105,
      "ê": 106,
      "ï": 107,
      "ñ": 108,
      "ó": 109,
      "–": 110,
      "‘": 111,
      "’": 112,
      "“": 113,
      "”": 114,
      "…": 115,
      "th": 116,
      "in": 117,
      "the": 118,
      "an": 119,
      "er": 120,
      "is": 121,
      "re": 122,
      "on": 123,
      "en": 124,
      "at": 125,
      "or": 126,
      "ou": 127,
      "ing": 128,
      "es": 129,
      "as": 130,
      "al": 131,
      "to": 132,
      "it": 133,
      "and": 134,
      "of": 135,
      "ar": 136,
      "ed": 137,
      "st": 138,
      "il": 139,
      "br": 140,
      "ly": 141,
      "he": 142,
      "/>": 143,
      "om": 144,
      "se": 145,
      "le": 146,
      "ch": 147,
      "ct": 148,
      "be": 149,
      "mo": 150,
      "wh": 151,
      "ie": 152,
      "ic": 153,
      "ve": 154,
      "ad": 155,
      "that": 156,
      "ver": 157,
      "ot": 158,
      "ow": 159,
      "ut": 160,
      "ent": 161,
      "for": 162,
      "li": 163,
      "this": 164,
      "ay": 165,
      "gh": 166,
      "ion": 167,
      "me": 168,
      "mov": 169,
      "/><": 170,
      "was": 171,
      "act": 172,
      "ce": 173,
      "id": 174,
      "The": 175,
      "wi": 176,
      "ab": 177,
      "un": 178,
      "oo": 179,
      "ke": 180,
      "fil": 181,
      "movie": 182,
      "ha": 183,
      "film": 184,
      "ld": 185,
      "with": 186,
      "are": 187,
      "ter": 188,
      ".<": 189,
      "one": 190,
      "ir": 191,
      "out": 192,
      "el": 193,
      "his": 194,
      "ge": 195,
      "you": 196,
      "ri": 197,
      "am": 198,
      "su": 199,
      "pe": 200,
      "ro": 201,
      "im": 202,
      "sh": 203,
      "all": 204,
      "her": 205,
      "so": 206,
      "but": 207,
      "com": 208,
      "de": 209,
      "ul": 210,
      "pl": 211,
      "not": 212,
      "ally": 213,
      "ac": 214,
      "ap": 215,
      "fe": 216,
      "sc": 217,
      "ex": 218,
      "ther": 219,
      "..": 220,
      "ill": 221,
      "man": 222,
      "ould": 223,
      "di": 224,
      "ers": 225,
      "ght": 226,
      "tr": 227,
      "ust": 228,
      "ma": 229,
      "ne": 230,
      "ur": 231,
      "lo": 232,
      "ome": 233,
      "have": 234,
      "ess": 235,
      "po": 236,
      "est": 237,
      "who": 238,
      "rom": 239,
      "end": 240,
      "con": 241,
      "do": 242,
      "ant": 243,
      "very": 244,
      "us": 245,
      "ood": 246,
      "by": 247,
      "ain": 248,
      "au": 249,
      "ere": 250,
      "some": 251,
      "they": 252,
      "op": 253,
      "thing": 254,
      "art": 255,
      "ag": 256,
      "no": 257,
      "ies": 258,
      "like": 259,
      "per": 260,
      "ven": 261,
      "nd": 262,
      "see": 263,
      "te": 264,
      "wor": 265,
      "if": 266,
      "It": 267,
      "pre": 268,
      "ate": 269,
      "ous": 270,
      "from": 271,
      "we": 272,
      "ol": 273,
      "ell": 274,
      "ti": 275,
      "ind": 276,
      "up": 277,
      "pro": 278,
      "ation": 279,
      "get": 280,
      "ory": 281,
      "ast": 282,
      "ack": 283,
      "just": 284,
      "ough": 285,
      "about": 286,
      "ist": 287,
      "has": 288,
      "char": 289,
      "atch": 290,
      "can": 291,
      "way": 292,
      "ook": 293,
      "qu": 294,
      "ure": 295,
      "go": 296,
      "other": 297,
      "ive": 298,
      "good": 299,
      "sa": 300,
      "any": 301,
      "ard": 302,
      "my": 303,
      "ine": 304,
      "ong": 305,
      "charact": 306,
      "reat": 307,
      "This": 308,
      "story": 309,
      "ich": 310,
      "more": 311,
      "ig": 312,
      "time": 313,
      "bo": 314,
      "der": 315,
      "um": 316,
      "watch": 317,
      "ll": 318,
      "ite": 319,
      "would": 320,
      "int": 321,
      "what": 322,
      "our": 323,
      "ss": 324,
      "able": 325,
      "over": 326,
      "ink": 327,
      "ck": 328,
      "there": 329,
      "own": 330,
      "ep": 331,
      "ight": 332,
      "when": 333,
      "had": 334,
      "even": 335,
      "ful": 336,
      "ment": 337,
      "most": 338,
      "gr": 339,
      "sp": 340,
      "scen": 341,
      "ity": 342,
      "only": 343,
      "here": 344,
      "ound": 345,
      "pt": 346,
      "were": 347,
      "gu": 348,
      "which": 349,
      "ort": 350,
      "ak": 351,
      "their": 352,
      "bad": 353,
      "ye": 354,
      "Wh": 355,
      "ever": 356,
      "af": 357,
      "ide": 358,
      "she": 359,
      "did": 360,
      "how": 361,
      "its": 362,
      "cau": 363,
      "ars": 364,
      "itt": 365,
      "irst": 366,
      "fa": 367,
      "ple": 368,
      "ence": 369,
      "will": 370,
      "ade": 371,
      "show": 372,
      "ble": 373,
      "ra": 374,
      "dis": 375,
      "him": 376,
      "bl": 377,
      "ore": 378,
      "think": 379,
      "cause": 380,
      "really": 381,
      "look": 382,
      "ty": 383,
      "uch": 384,
      "ish": 385,
      "ious": 386,
      "now": 387,
      "bet": 388,
      "than": 389,
      "play": 390,
      "ople": 391,
      "rect": 392,
      "et": 393,
      "jo": 394,
      "ice": 395,
      "wr": 396,
      "ci": 397,
      "them": 398,
      "off": 399,
      "ors": 400,
      "...": 401,
      "great": 402,
      "pp": 403,
      "into": 404,
      "cl": 405,
      "In": 406,
      "ser": 407,
      "much": 408,
      "too": 409,
      "people": 410,
      "first": 411,
      "ves": 412,
      "does": 413,
      "ick": 414,
      "age": 415,
      "tw": 416,
      "because": 417,
      "mak": 418,
      "ass": 419,
      "ud": 420,
      "been": 421,
      "could": 422,
      "well": 423,
      "thr": 424,
      "direct": 425,
      "Th": 426,
      "sel": 427,
      "ber": 428,
      "ff": 429,
      "every": 430,
      "ving": 431,
      "real": 432,
      "ile": 433,
      "made": 434,
      "pr": 435,
      "don": 436,
      "cr": 437,
      "ated": 438,
      "movies": 439,
      "od": 440,
      "characters": 441,
      "ame": 442,
      "du": 443,
      "where": 444,
      "make": 445,
      "pect": 446,
      "fun": 447,
      "part": 448,
      "say": 449,
      "vie": 450,
      "inter": 451,
      "ng": 452,
      "less": 453,
      "old": 454,
      "fin": 455,
      "But": 456,
      "fect": 457,
      "nt": 458,
      "And": 459,
      "work": 460,
      "cre": 461,
      "ose": 462,
      "lie": 463,
      "then": 464,
      "self": 465,
      "mer": 466,
      "view": 467,
      "ach": 468,
      "fore": 469,
      "gi": 470,
      "know": 471,
      "ason": 472,
      "also": 473,
      "films": 474,
      "min": 475,
      "ily": 476,
      "seen": 477,
      "ical": 478,
      "St": 479,
      "though": 480,
      "ang": 481,
      "ance": 482,
      "two": 483,
      "many": 484,
      "love": 485,
      "ittle": 486,
      "never": 487,
      "back": 488,
      "fl": 489,
      ").": 490,
      "plot": 491,
      "ev": 492,
      "point": 493,
      "He": 494,
      "),": 495,
      "aw": 496,
      "ans": 497,
      "character": 498,
      "after": 499,
      "ved": 500,
      "urn": 501,
      "cent": 502,
      "ps": 503,
      "life": 504,
      "acting": 505,
      "ire": 506,
      "ree": 507,
      "seem": 508,
      "ake": 509,
      "tain": 510,
      "little": 511,
      "should": 512,
      "ace": 513,
      "co": 514,
      "ny": 515,
      "better": 516,
      "your": 517,
      "ru": 518,
      "ces": 519,
      "10": 520,
      "being": 521,
      "ction": 522,
      "19": 523,
      "tru": 524,
      "read": 525,
      "tal": 526,
      "scene": 527,
      "come": 528,
      "ash": 529,
      "av": 530,
      "low": 531,
      "ise": 532,
      "Ch": 533,
      "des": 534,
      "try": 535,
      "hor": 536,
      "ens": 537,
      "ary": 538,
      "best": 539,
      "che": 540,
      "ob": 541,
      "through": 542,
      "ting": 543,
      "ually": 544,
      "stand": 545,
      "action": 546,
      "ef": 547,
      "want": 548,
      "ating": 549,
      "ought": 550,
      "ase": 551,
      "scenes": 552,
      "day": 553,
      "set": 554,
      "perfor": 555,
      "**": 556,
      "won": 557,
      "belie": 558,
      "again": 559,
      "new": 560,
      "ning": 561,
      "iz": 562,
      "!!": 563,
      "peci": 564,
      "cou": 565,
      "gen": 566,
      "ild": 567,
      "such": 568,
      "augh": 569,
      "--": 570,
      "these": 571,
      "There": 572,
      "ably": 573,
      "under": 574,
      "turn": 575,
      "let": 576,
      "az": 577,
      "may": 578,
      "wom": 579,
      "actors": 580,
      "years": 581,
      "find": 582,
      "ry": 583,
      "interest": 584,
      "kill": 585,
      "If": 586,
      "igh": 587,
      "scre": 588,
      "still": 589,
      "while": 590,
      "epis": 591,
      "happ": 592,
      "pret": 593,
      "got": 594,
      "tim": 595,
      "ouse": 596,
      "feel": 597,
      "mis": 598,
      "cast": 599,
      "fam": 600,
      "ste": 601,
      "joy": 602,
      "lot": 603,
      "long": 604,
      "right": 605,
      "ertain": 606,
      "ater": 607,
      "ho": 608,
      "mon": 609,
      "ip": 610,
      "those": 611,
      "sur": 612,
      "same": 613,
      "guy": 614,
      "irl": 615,
      "down": 616,
      "ks": 617,
      "before": 618,
      "ins": 619,
      "Al": 620,
      "dr": 621,
      "imp": 622,
      "vi": 623,
      "ext": 624,
      "performan": 625,
      "start": 626,
      "didn": 627,
      "oc": 628,
      "series": 629,
      "As": 630,
      "fact": 631,
      "vers": 632,
      "doesn": 633,
      "girl": 634,
      "ner": 635,
      "ense": 636,
      "enjoy": 637,
      "ual": 638,
      "ents": 639,
      "riend": 640,
      "illi": 641,
      "going": 642,
      "hu": 643,
      "hel": 644,
      "light": 645,
      "makes": 646,
      "ial": 647,
      "young": 648,
      "watching": 649,
      "son": 650,
      "exce": 651,
      "Jo": 652,
      "ave": 653,
      "mar": 654,
      "tri": 655,
      "few": 656,
      "expect": 657,
      "something": 658,
      "bu": 659,
      "cess": 660,
      "ions": 661,
      "screen": 662,
      "far": 663,
      "ian": 664,
      "effect": 665,
      "book": 666,
      "car": 667,
      "friend": 668,
      "top": 669,
      "pos": 670,
      "aut": 671,
      "les": 672,
      "ph": 673,
      "big": 674,
      "actually": 675,
      "TH": 676,
      "done": 677,
      "give": 678,
      "str": 679,
      "produ": 680,
      "funny": 681,
      "They": 682,
      "ending": 683,
      "director": 684,
      "Se": 685,
      "bit": 686,
      "tell": 687,
      "beg": 688,
      "ways": 689,
      "mind": 690,
      "ince": 691,
      "red": 692,
      "erson": 693,
      "What": 694,
      "ten": 695,
      "tak": 696,
      "thought": 697,
      "minut": 698,
      "mat": 699,
      "ript": 700,
      "comple": 701,
      "things": 702,
      "ffer": 703,
      "em": 704,
      "why": 705,
      "pretty": 706,
      "ia": 707,
      "mem": 708,
      "app": 709,
      "ath": 710,
      "put": 711,
      "saw": 712,
      "must": 713,
      "mus": 714,
      "both": 715,
      "writ": 716,
      "king": 717,
      "might": 718,
      "ward": 719,
      "another": 720,
      "need": 721,
      "med": 722,
      "ror": 723,
      "ically": 724,
      "comes": 725,
      "times": 726,
      "comm": 727,
      "script": 728,
      "hard": 729,
      "call": 730,
      "kind": 731,
      "ted": 732,
      "ms": 733,
      "ese": 734,
      "nothing": 735,
      "ord": 736,
      "ear": 737,
      "inv": 738,
      "fort": 739,
      "comed": 740,
      "Car": 741,
      "vel": 742,
      "appe": 743,
      "cont": 744,
      "world": 745,
      "Amer": 746,
      "high": 747,
      "ool": 748,
      "without": 749,
      "Americ": 750,
      "att": 751,
      "ult": 752,
      "An": 753,
      "ced": 754,
      "ode": 755,
      "audi": 756,
      "line": 757,
      "sm": 758,
      "sing": 759,
      "rel": 760,
      "cond": 761,
      "wonder": 762,
      "You": 763,
      "wood": 764,
      "child": 765,
      "Be": 766,
      "vious": 767,
      "ren": 768,
      "lead": 769,
      "ween": 770,
      "ations": 771,
      "interesting": 772,
      "How": 773,
      "minutes": 774,
      "beaut": 775,
      "press": 776,
      "between": 777,
      "episode": 778,
      "por": 779,
      "res": 780,
      "gets": 781,
      "dy": 782,
      "last": 783,
      "na": 784,
      "ue": 785,
      "alo": 786,
      "season": 787,
      "lear": 788,
      "mot": 789,
      "comp": 790,
      "used": 791,
      "quite": 792,
      "woman": 793,
      "reason": 794,
      "enough": 795,
      "arr": 796,
      "rible": 797,
      "sub": 798,
      "ately": 799,
      "class": 800,
      "ith": 801,
      "ked": 802,
      "ased": 803,
      "expl": 804,
      "cop": 805,
      "cour": 806,
      "laugh": 807,
      "around": 808,
      "role": 809,
      "prob": 810,
      "family": 811,
      "Le": 812,
      "led": 813,
      "ale": 814,
      "ster": 815,
      "least": 816,
      "worth": 817,
      "She": 818,
      "pie": 819,
      "came": 820,
      "fi": 821,
      "kid": 822,
      "making": 823,
      "person": 824,
      "take": 825,
      "vis": 826,
      "ress": 827,
      "always": 828,
      "ames": 829,
      "dec": 830,
      "hn": 831,
      "hand": 832,
      "war": 833,
      "TV": 834,
      "hy": 835,
      "Ne": 836,
      "cut": 837,
      "complete": 838,
      "aster": 839,
      "dialo": 840,
      "pres": 841,
      "believe": 842,
      "away": 843,
      "since": 844,
      "orig": 845,
      "unt": 846,
      "differ": 847,
      "tem": 848,
      "ign": 849,
      "John": 850,
      "probably": 851,
      "bor": 852,
      "era": 853,
      "isn": 854,
      "effects": 855,
      "pi": 856,
      "anic": 857,
      "sure": 858,
      "olly": 859,
      "anything": 860,
      "So": 861,
      "ness": 862,
      "inal": 863,
      "rest": 864,
      "review": 865,
      "ark": 866,
      "second": 867,
      "ional": 868,
      "job": 869,
      "ship": 870,
      "That": 871,
      "Ro": 872,
      "run": 873,
      "sequ": 874,
      "entertain": 875,
      "mean": 876,
      "seems": 877,
      "human": 878,
      "For": 879,
      "sit": 880,
      "almost": 881,
      "true": 882,
      "ER": 883,
      "cover": 884,
      "shot": 885,
      "poor": 886,
      "iful": 887,
      "music": 888,
      "care": 889,
      "mom": 890,
      "oot": 891,
      "vo": 892,
      "wasn": 893,
      "oney": 894,
      "gether": 895,
      "whole": 896,
      "cons": 897,
      "boy": 898,
      "pecial": 899,
      "performance": 900,
      "comedy": 901,
      "use": 902,
      "ings": 903,
      "pecially": 904,
      "found": 905,
      "ible": 906,
      "lack": 907,
      "vent": 908,
      "arg": 909,
      "said": 910,
      "stead": 911,
      "ail": 912,
      "dram": 913,
      "ollywood": 914,
      ".\"": 915,
      "Tit": 916,
      "each": 917,
      "ery": 918,
      "together": 919,
      "happen": 920,
      "\",": 921,
      "20": 922,
      "fr": 923,
      "house": 924,
      "mess": 925,
      "once": 926,
      "arent": 927,
      "sol": 928,
      "ures": 929,
      "year": 930,
      "beautiful": 931,
      "original": 932,
      "All": 933,
      "Br": 934,
      "cam": 935,
      "clo": 936,
      "ost": 937,
      "ond": 938,
      "played": 939,
      "American": 940,
      "audience": 941,
      "bre": 942,
      "col": 943,
      "cine": 944,
      "pu": 945,
      "pow": 946,
      "ative": 947,
      "main": 948,
      "istic": 949,
      "Titanic": 950,
      "No": 951,
      "bly": 952,
      "hal": 953,
      "ane": 954,
      "ons": 955,
      "head": 956,
      "ular": 957,
      "trying": 958,
      "begin": 959,
      "\".": 960,
      "Don": 961,
      "God": 962,
      "Just": 963,
      "cur": 964,
      "val": 965,
      "ange": 966,
      "place": 967,
      "poss": 968,
      "couple": 969,
      "different": 970,
      "DV": 971,
      "Jack": 972,
      "cap": 973,
      "spe": 974,
      "ying": 975,
      "....": 976,
      "perfect": 977,
      "course": 978,
      "ither": 979,
      "sound": 980,
      "special": 981,
      "omb": 982,
      "add": 983,
      "having": 984,
      "sci": 985,
      "antic": 986,
      "ments": 987,
      "When": 988,
      "air": 989,
      "creat": 990,
      "usu": 991,
      "especially": 992,
      "sex": 993,
      "grap": 994,
      "horror": 995,
      "DVD": 996,
      "My": 997,
      "money": 998,
      "ank": 999,
      "actor": 1000,
      "keep": 1001,
      "defin": 1002,
      "worst": 1003,
      "looks": 1004,
      "help": 1005,
      "AN": 1006,
      "De": 1007,
      "gl": 1008,
      "os": 1009,
      "side": 1010,
      "stre": 1011,
      "wife": 1012,
      "amaz": 1013,
      "plays": 1014,
      "understand": 1015,
      "piece": 1016,
      "At": 1017,
      "On": 1018,
      "hum": 1019,
      "kes": 1020,
      "lin": 1021,
      "men": 1022,
      "ute": 1023,
      "log": 1024,
      "obvious": 1025,
      "ey": 1026,
      "ft": 1027,
      "pol": 1028,
      "llent": 1029,
      "fav": 1030,
      "berl": 1031,
      "everything": 1032,
      "One": 1033,
      "fan": 1034,
      "later": 1035,
      "rating": 1036,
      "ider": 1037,
      "ists": 1038,
      "commend": 1039,
      "sha": 1040,
      "tit": 1041,
      "uring": 1042,
      "fol": 1043,
      "sto": 1044,
      "three": 1045,
      "incl": 1046,
      "rele": 1047,
      "heart": 1048,
      "ull": 1049,
      "peri": 1050,
      "anyone": 1051,
      "watched": 1052,
      "pict": 1053,
      "half": 1054,
      "cli": 1055,
      "je": 1056,
      "night": 1057,
      "sy": 1058,
      "rey": 1059,
      "goes": 1060,
      "gue": 1061,
      "imply": 1062,
      "Af": 1063,
      "rent": 1064,
      "ates": 1065,
      "ingly": 1066,
      "ross": 1067,
      "seeing": 1068,
      "fully": 1069,
      "Mor": 1070,
      "cri": 1071,
      "eas": 1072,
      "sense": 1073,
      "eng": 1074,
      "ared": 1075,
      "excellent": 1076,
      "Dav": 1077,
      "Well": 1078,
      "hour": 1079,
      "ike": 1080,
      "form": 1081,
      "lig": 1082,
      "cept": 1083,
      "serious": 1084,
      "IN": 1085,
      "To": 1086,
      "bud": 1087,
      "als": 1088,
      "ited": 1089,
      "someone": 1090,
      "member": 1091,
      "par": 1092,
      "song": 1093,
      "star": 1094,
      "imag": 1095,
      "ST": 1096,
      "Un": 1097,
      "ele": 1098,
      "nice": 1099,
      "uff": 1100,
      "live": 1101,
      "given": 1102,
      "Eng": 1103,
      "simply": 1104,
      "ences": 1105,
      "ief": 1106,
      "idea": 1107,
      "rather": 1108,
      "THE": 1109,
      ",\"": 1110,
      "fall": 1111,
      "mid": 1112,
      "mur": 1113,
      "sort": 1114,
      "vide": 1115,
      "ics": 1116,
      "entire": 1117,
      "ams": 1118,
      "proble": 1119,
      "shows": 1120,
      "surpr": 1121,
      "posed": 1122,
      "boring": 1123,
      "Not": 1124,
      "Some": 1125,
      "We": 1126,
      "cor": 1127,
      "pri": 1128,
      "ris": 1129,
      "instead": 1130,
      "recommend": 1131,
      "iting": 1132,
      "ird": 1133,
      "sup": 1134,
      "itely": 1135,
      "looking": 1136,
      "everyone": 1137,
      "miss": 1138,
      "beginning": 1139,
      "Hollywood": 1140,
      "NO": 1141,
      "Pe": 1142,
      "io": 1143,
      "nat": 1144,
      "along": 1145,
      "left": 1146,
      "liked": 1147,
      "gives": 1148,
      "maybe": 1149,
      "invol": 1150,
      "However": 1151,
      "ca": 1152,
      "either": 1153,
      "fer": 1154,
      "become": 1155,
      "short": 1156,
      "hero": 1157,
      "near": 1158,
      "wrong": 1159,
      "aughter": 1160,
      "women": 1161,
      "production": 1162,
      "called": 1163,
      "tempt": 1164,
      "emot": 1165,
      "lish": 1166,
      "port": 1167,
      "pass": 1168,
      "exc": 1169,
      "loved": 1170,
      "aged": 1171,
      "case": 1172,
      "certain": 1173,
      "daughter": 1174,
      "kn": 1175,
      "ped": 1176,
      "sl": 1177,
      "uck": 1178,
      "ism": 1179,
      "ones": 1180,
      "ality": 1181,
      "meet": 1182,
      "super": 1183,
      "mag": 1184,
      "getting": 1185,
      "guess": 1186,
      "himself": 1187,
      "takes": 1188,
      "power": 1189,
      "cy": 1190,
      "dist": 1191,
      "tray": 1192,
      "ends": 1193,
      "performances": 1194,
      "until": 1195,
      "After": 1196,
      "gg": 1197,
      "ts": 1198,
      "ote": 1199,
      "else": 1200,
      "open": 1201,
      "Why": 1202,
      "present": 1203,
      "solute": 1204,
      "ON": 1205,
      "Ste": 1206,
      "dri": 1207,
      "ned": 1208,
      "dict": 1209,
      "disap": 1210,
      "completely": 1211,
      "Jap": 1212,
      "Sam": 1213,
      "band": 1214,
      "male": 1215,
      "sul": 1216,
      "susp": 1217,
      "loc": 1218,
      "word": 1219,
      "body": 1220,
      "except": 1221,
      "fortun": 1222,
      "follow": 1223,
      "budget": 1224,
      "Japan": 1225,
      "Lu": 1226,
      "fly": 1227,
      "fant": 1228,
      "fight": 1229,
      "ral": 1230,
      "sim": 1231,
      "sty": 1232,
      "itten": 1233,
      "evil": 1234,
      "gener": 1235,
      "children": 1236,
      "favor": 1237,
      "LL": 1238,
      "Sp": 1239,
      "Willi": 1240,
      "gan": 1241,
      "mor": 1242,
      "rid": 1243,
      "attempt": 1244,
      "mother": 1245,
      "supp": 1246,
      "fair": 1247,
      "ject": 1248,
      "With": 1249,
      "cer": 1250,
      "cing": 1251,
      "lan": 1252,
      "land": 1253,
      "wal": 1254,
      "ali": 1255,
      "stars": 1256,
      "adm": 1257,
      "hist": 1258,
      "impress": 1259,
      "apo": 1260,
      "yet": 1261,
      "face": 1262,
      "odes": 1263,
      "flick": 1264,
      "truly": 1265,
      "portray": 1266,
      "includ": 1267,
      "disappoint": 1268,
      "Free": 1269,
      "ael": 1270,
      "fre": 1271,
      "although": 1272,
      "sever": 1273,
      "cho": 1274,
      "terrible": 1275,
      "coming": 1276,
      "black": 1277,
      "Then": 1278,
      "awful": 1279,
      "argate": 1280,
      "definitely": 1281,
      "amazing": 1282,
      "murder": 1283,
      "Bru": 1284,
      "Mich": 1285,
      "OR": 1286,
      "dou": 1287,
      "home": 1288,
      "next": 1289,
      "sil": 1290,
      "orge": 1291,
      "stup": 1292,
      "ilar": 1293,
      "absolute": 1294,
      "suc": 1295,
      "using": 1296,
      "however": 1297,
      "thrill": 1298,
      "coun": 1299,
      "episodes": 1300,
      "drama": 1301,
      "lines": 1302,
      "Michael": 1303,
      "AT": 1304,
      "based": 1305,
      "sch": 1306,
      "stor": 1307,
      "intel": 1308,
      "fail": 1309,
      "Indi": 1310,
      "****": 1311,
      "wonderful": 1312,
      "consider": 1313,
      "AR": 1314,
      "Every": 1315,
      "His": 1316,
      "Mr": 1317,
      "Sun": 1318,
      "fel": 1319,
      "reme": 1320,
      "aring": 1321,
      "ney": 1322,
      "romantic": 1323,
      "umb": 1324,
      "mention": 1325,
      "thinking": 1326,
      "ired": 1327,
      "talent": 1328,
      "against": 1329,
      "small": 1330,
      "dialogue": 1331,
      "break": 1332,
      "possible": 1333,
      "Bruce": 1334,
      "Lind": 1335,
      "War": 1336,
      "ling": 1337,
      "sad": 1338,
      "wish": 1339,
      "ition": 1340,
      "often": 1341,
      "ides": 1342,
      "ham": 1343,
      "pop": 1344,
      "conf": 1345,
      "written": 1346,
      "direction": 1347,
      "Chin": 1348,
      "viol": 1349,
      "extreme": 1350,
      "200": 1351,
      "0s": 1352,
      "Ar": 1353,
      "Bo": 1354,
      "Re": 1355,
      "Tim": 1356,
      "bas": 1357,
      "clear": 1358,
      "ove": 1359,
      "pur": 1360,
      "remember": 1361,
      "itch": 1362,
      "...<": 1363,
      "tech": 1364,
      "others": 1365,
      "ground": 1366,
      "ready": 1367,
      "deser": 1368,
      "version": 1369,
      "strong": 1370,
      "graphy": 1371,
      "video": 1372,
      "known": 1373,
      "several": 1374,
      "den": 1375,
      "during": 1376,
      "ming": 1377,
      "nor": 1378,
      "prom": 1379,
      "vable": 1380,
      "za": 1381,
      "today": 1382,
      "plan": 1383,
      "expected": 1384,
      "kids": 1385,
      "situ": 1386,
      "humor": 1387,
      "support": 1388,
      "Freeman": 1389,
      "felt": 1390,
      "Even": 1391,
      "SG": 1392,
      "fans": 1393,
      "hon": 1394,
      "sn": 1395,
      "uri": 1396,
      "wa": 1397,
      "zomb": 1398,
      "anim": 1399,
      "arch": 1400,
      "brilli": 1401,
      "velo": 1402,
      "experi": 1403,
      "wee": 1404,
      "spir": 1405,
      "blic": 1406,
      "Stargate": 1407,
      "writing": 1408,
      "Carrey": 1409,
      "classic": 1410,
      "camera": 1411,
      "supposed": 1412,
      "stupid": 1413,
      "Ber": 1414,
      "Ge": 1415,
      "Gr": 1416,
      "House": 1417,
      "OK": 1418,
      "cas": 1419,
      "cle": 1420,
      "foot": 1421,
      "pa": 1422,
      "pain": 1423,
      "spo": 1424,
      "slow": 1425,
      "incre": 1426,
      "allow": 1427,
      "feat": 1428,
      "exact": 1429,
      "lock": 1430,
      "doing": 1431,
      "antly": 1432,
      "ured": 1433,
      "realiz": 1434,
      "finally": 1435,
      "Seag": 1436,
      "New": 1437,
      "moments": 1438,
      "gave": 1439,
      "ock": 1440,
      "went": 1441,
      "reg": 1442,
      "waste": 1443,
      "compl": 1444,
      "deal": 1445,
      "ages": 1446,
      "predict": 1447,
      "full": 1448,
      "father": 1449,
      "turned": 1450,
      "Also": 1451,
      "contin": 1452,
      "public": 1453,
      "favorite": 1454,
      "Seagal": 1455,
      "Kapo": 1456,
      "eye": 1457,
      "iness": 1458,
      "ised": 1459,
      "ility": 1460,
      "level": 1461,
      "advent": 1462,
      "ided": 1463,
      "ident": 1464,
      "rodu": 1465,
      "exam": 1466,
      "!!!": 1467,
      "hope": 1468,
      "writer": 1469,
      "entertaining": 1470,
      "Go": 1471,
      "Mc": 1472,
      "Mar": 1473,
      "Now": 1474,
      "fine": 1475,
      "sat": 1476,
      "tally": 1477,
      "ener": 1478,
      "totally": 1479,
      "ities": 1480,
      "ulous": 1481,
      "trans": 1482,
      "lost": 1483,
      "typ": 1484,
      "event": 1485,
      "guys": 1486,
      "close": 1487,
      "style": 1488,
      "Kapoor": 1489,
      ").<": 1490,
      "Con": 1491,
      "Su": 1492,
      "ix": 1493,
      "pite": 1494,
      "ude": 1495,
      "ask": 1496,
      "unk": 1497,
      "roles": 1498,
      "deli": 1499,
      "develo": 1500,
      "worse": 1501,
      "looked": 1502,
      "makers": 1503,
      "friends": 1504,
      "usual": 1505,
      "eyes": 1506,
      "Williams": 1507,
      "Ex": 1508,
      "Sc": 1509,
      "Vi": 1510,
      "jor": 1511,
      "list": 1512,
      "name": 1513,
      "past": 1514,
      "spect": 1515,
      "sign": 1516,
      "ouch": 1517,
      "itself": 1518,
      "omin": 1519,
      "haps": 1520,
      "room": 1521,
      "death": 1522,
      "uses": 1523,
      "ific": 1524,
      "While": 1525,
      "took": 1526,
      "couldn": 1527,
      "crap": 1528,
      "Stre": 1529,
      "days": 1530,
      "berlake": 1531,
      "May": 1532,
      "Sha": 1533,
      "Wood": 1534,
      "bed": 1535,
      "mad": 1536,
      "cred": 1537,
      "seemed": 1538,
      "turns": 1539,
      "matter": 1540,
      "title": 1541,
      "English": 1542,
      "Japanese": 1543,
      "??": 1544,
      "Aust": 1545,
      "Can": 1546,
      "Col": 1547,
      "Jim": 1548,
      "bt": 1549,
      "wise": 1550,
      "alth": 1551,
      "leg": 1552,
      "chance": 1553,
      "change": 1554,
      "beh": 1555,
      "lim": 1556,
      "unch": 1557,
      "shown": 1558,
      "shock": 1559,
      "ended": 1560,
      "cannot": 1561,
      "raw": 1562,
      "selves": 1563,
      "psy": 1564,
      "Chris": 1565,
      "believable": 1566,
      "import": 1567,
      "started": 1568,
      "absolutely": 1569,
      "success": 1570,
      "stories": 1571,
      "Timberlake": 1572,
      "exactly": 1573,
      ".)": 1574,
      "James": 1575,
      "del": 1576,
      "hop": 1577,
      "ues": 1578,
      "vill": 1579,
      "iter": 1580,
      "stru": 1581,
      "uture": 1582,
      "que": 1583,
      "Char": 1584,
      "effort": 1585,
      "cinemat": 1586,
      "speak": 1587,
      "police": 1588,
      "certainly": 1589,
      "Osc": 1590,
      "Rose": 1591,
      "ax": 1592,
      "dle": 1593,
      "ler": 1594,
      "treat": 1595,
      "touch": 1596,
      "atic": 1597,
      "heard": 1598,
      "lect": 1599,
      "actress": 1600,
      "aced": 1601,
      "tra": 1602,
      "ural": 1603,
      "quest": 1604,
      "playing": 1605,
      "crit": 1606,
      "partic": 1607,
      "anger": 1608,
      "horrible": 1609,
      "starts": 1610,
      "girls": 1611,
      "tells": 1612,
      "picture": 1613,
      "behind": 1614,
      "Any": 1615,
      "Cr": 1616,
      "Mo": 1617,
      "Per": 1618,
      "dark": 1619,
      "hus": 1620,
      "hold": 1621,
      "enn": 1622,
      "bey": 1623,
      "lives": 1624,
      "sum": 1625,
      "apart": 1626,
      "obviously": 1627,
      "fortunately": 1628,
      "George": 1629,
      "ding": 1630,
      "gy": 1631,
      "ik": 1632,
      "num": 1633,
      "swe": 1634,
      "ton": 1635,
      "win": 1636,
      "issu": 1637,
      "rif": 1638,
      "ury": 1639,
      "directed": 1640,
      "prof": 1641,
      "enjoyed": 1642,
      "appear": 1643,
      "highly": 1644,
      "capt": 1645,
      "Austral": 1646,
      "husband": 1647,
      "Ed": 1648,
      "Fil": 1649,
      "Oh": 1650,
      "RE": 1651,
      "Sh": 1652,
      "ah": 1653,
      "aul": 1654,
      "cum": 1655,
      "cool": 1656,
      "fig": 1657,
      "parent": 1658,
      "tic": 1659,
      "anno": 1660,
      "ena": 1661,
      "utter": 1662,
      "forget": 1663,
      "acted": 1664,
      "aby": 1665,
      "romance": 1666,
      "introdu": 1667,
      "pleas": 1668,
      "type": 1669,
      "etc": 1670,
      "final": 1671,
      "truth": 1672,
      "enjoyable": 1673,
      "learn": 1674,
      "dialog": 1675,
      "message": 1676,
      "cinema": 1677,
      "Justin": 1678,
      "easily": 1679,
      "suspense": 1680,
      "intellig": 1681,
      "incredi": 1682,
      "Ak": 1683,
      "IS": 1684,
      "Of": 1685,
      "cult": 1686,
      "master": 1687,
      "rad": 1688,
      "inno": 1689,
      "recent": 1690,
      "order": 1691,
      "stuff": 1692,
      "bring": 1693,
      "lea": 1694,
      "chang": 1695,
      "ention": 1696,
      "amer": 1697,
      "shoot": 1698,
      "dead": 1699,
      "appro": 1700,
      "discover": 1701,
      "cial": 1702,
      "parts": 1703,
      "giving": 1704,
      "chees": 1705,
      "throughout": 1706,
      "wants": 1707,
      "genre": 1708,
      "Neill": 1709,
      "street": 1710,
      "involved": 1711,
      "silly": 1712,
      "violence": 1713,
      "Over": 1714,
      "Rob": 1715,
      "Tash": 1716,
      "future": 1717,
      "gal": 1718,
      "gang": 1719,
      "hot": 1720,
      "ier": 1721,
      "rated": 1722,
      "tt": 1723,
      "ys": 1724,
      "atr": 1725,
      "leave": 1726,
      "ctor": 1727,
      "tern": 1728,
      "ried": 1729,
      "roll": 1730,
      "decent": 1731,
      "score": 1732,
      "team": 1733,
      "ards": 1734,
      "itting": 1735,
      "pped": 1736,
      "says": 1737,
      "viewer": 1738,
      "talk": 1739,
      "cheap": 1740,
      "moment": 1741,
      "David": 1742,
      "problem": 1743,
      "doubt": 1744,
      "school": 1745,
      "Tashan": 1746,
      "Ab": 1747,
      "Ah": 1748,
      "Cl": 1749,
      "Di": 1750,
      "Do": 1751,
      "Fr": 1752,
      "IT": 1753,
      "Jaf": 1754,
      "Pol": 1755,
      "Wor": 1756,
      "ball": 1757,
      "ger": 1758,
      "ography": 1759,
      "uro": 1760,
      "zy": 1761,
      "ison": 1762,
      "onic": 1763,
      "hell": 1764,
      "shay": 1765,
      "dies": 1766,
      "train": 1767,
      "ante": 1768,
      "quality": 1769,
      "overall": 1770,
      "bert": 1771,
      "works": 1772,
      "cost": 1773,
      "wanted": 1774,
      "apparent": 1775,
      "Lee": 1776,
      "meaning": 1777,
      "NOT": 1778,
      "history": 1779,
      "situation": 1780,
      "brilliant": 1781,
      "Super": 1782,
      "cheesy": 1783,
      "30": 1784,
      "Bl": 1785,
      "EN": 1786,
      "From": 1787,
      "First": 1788,
      "Me": 1789,
      "aim": 1790,
      "cus": 1791,
      "four": 1792,
      "har": 1793,
      "sk": 1794,
      "sor": 1795,
      "tail": 1796,
      "wer": 1797,
      "already": 1798,
      "ays": 1799,
      "uni": 1800,
      "dep": 1801,
      "novel": 1802,
      "relation": 1803,
      "including": 1804,
      "extremely": 1805,
      "particular": 1806,
      "Her": 1807,
      "Naz": 1808,
      "city": 1809,
      "dest": 1810,
      "fire": 1811,
      "free": 1812,
      "ient": 1813,
      "ime": 1814,
      "tort": 1815,
      "ances": 1816,
      "anks": 1817,
      "remind": 1818,
      "ount": 1819,
      "stick": 1820,
      "ghost": 1821,
      "moving": 1822,
      "soon": 1823,
      "comments": 1824,
      "deep": 1825,
      "urb": 1826,
      "pose": 1827,
      "opin": 1828,
      "ago": 1829,
      "blood": 1830,
      "wrote": 1831,
      "realistic": 1832,
      "giant": 1833,
      "flaw": 1834,
      "194": 1835,
      "199": 1836,
      "sets": 1837,
      "happy": 1838,
      "taken": 1839,
      "wards": 1840,
      "early": 1841,
      "leads": 1842,
      "happened": 1843,
      "usually": 1844,
      "Morgan": 1845,
      "opening": 1846,
      "thriller": 1847,
      "spoil": 1848,
      "example": 1849,
      "Streep": 1850,
      "Akshay": 1851,
      "Bat": 1852,
      "Cham": 1853,
      "Hor": 1854,
      "IM": 1855,
      "Po": 1856,
      "Ra": 1857,
      "Watch": 1858,
      "bot": 1859,
      "mas": 1860,
      "sis": 1861,
      "anza": 1862,
      "resul": 1863,
      "kept": 1864,
      "amed": 1865,
      "comic": 1866,
      "exist": 1867,
      "major": 1868,
      "somewhat": 1869,
      "ished": 1870,
      "events": 1871,
      "happens": 1872,
      "Before": 1873,
      "songs": 1874,
      "middle": 1875,
      "ridic": 1876,
      "admit": 1877,
      "Lindy": 1878,
      "predictable": 1879,
      "Oscar": 1880,
      "Euro": 1881,
      "Yes": 1882,
      "equ": 1883,
      "pick": 1884,
      "tre": 1885,
      "vin": 1886,
      "ya": 1887,
      "ann": 1888,
      "oul": 1889,
      "oup": 1890,
      "alone": 1891,
      "tom": 1892,
      "ley": 1893,
      "becomes": 1894,
      "iety": 1895,
      "areena": 1896,
      "comment": 1897,
      "trad": 1898,
      "save": 1899,
      "themselves": 1900,
      "ized": 1901,
      "voice": 1902,
      "created": 1903,
      "released": 1904,
      "country": 1905,
      "honest": 1906,
      "experience": 1907,
      "villain": 1908,
      "beyond": 1909,
      "number": 1910,
      "ridiculous": 1911,
      "Ad": 1912,
      "Du": 1913,
      "Ger": 1914,
      "Li": 1915,
      "Nor": 1916,
      "OF": 1917,
      "Te": 1918,
      "baby": 1919,
      "cord": 1920,
      "die": 1921,
      "dull": 1922,
      "fast": 1923,
      "ged": 1924,
      "gun": 1925,
      "hol": 1926,
      "late": 1927,
      "non": 1928,
      "nic": 1929,
      "ping": 1930,
      "rise": 1931,
      "slight": 1932,
      "uine": 1933,
      "vir": 1934,
      "incess": 1935,
      "iss": 1936,
      "ising": 1937,
      "tow": 1938,
      "itive": 1939,
      "stra": 1940,
      "brought": 1941,
      "cted": 1942,
      "white": 1943,
      "iel": 1944,
      "iment": 1945,
      "apt": 1946,
      "weak": 1947,
      "astic": 1948,
      "badly": 1949,
      "ffic": 1950,
      "killing": 1951,
      "Although": 1952,
      "huge": 1953,
      "mark": 1954,
      "musical": 1955,
      "seasons": 1956,
      "sequel": 1957,
      "career": 1958,
      "Davis": 1959,
      "important": 1960,
      "Chamberl": 1961,
      "straight": 1962,
      "!<": 1963,
      "Abu": 1964,
      "Dr": 1965,
      "Wr": 1966,
      "foc": 1967,
      "gone": 1968,
      "mal": 1969,
      "sle": 1970,
      "ined": 1971,
      "inst": 1972,
      "ana": 1973,
      "ork": 1974,
      "aspect": 1975,
      "hether": 1976,
      "ket": 1977,
      "arely": 1978,
      "accent": 1979,
      "across": 1980,
      "appre": 1981,
      "teen": 1982,
      "cock": 1983,
      "talking": 1984,
      "standing": 1985,
      "setting": 1986,
      "needs": 1987,
      "appears": 1988,
      "vision": 1989,
      "shots": 1990,
      "fron": 1991,
      "hours": 1992,
      "flying": 1993,
      "footage": 1994,
      "Chamberlain": 1995,
      "Jes": 1996,
      "Night": 1997,
      "Pr": 1998,
      "Tre": 1999,
      "gs": 2000,
      "hit": 2001,
      "hom": 2002,
      "jum": 2003,
      "lar": 2004,
      "narr": 2005,
      "yes": 2006,
      "theme": 2007,
      "told": 2008,
      "stri": 2009,
      "heav": 2010,
      "ield": 2011,
      "ady": 2012,
      "lier": 2013,
      "above": 2014,
      "among": 2015,
      "dev": 2016,
      "acing": 2017,
      "tract": 2018,
      "aging": 2019,
      "perhaps": 2020,
      "prov": 2021,
      "myself": 2022,
      "wouldn": 2023,
      "cru": 2024,
      "crew": 2025,
      "desper": 2026,
      "monster": 2027,
      "respect": 2028,
      "explain": 2029,
      "reviews": 2030,
      "clich": 2031,
      "annoying": 2032,
      "World": 2033,
      "town": 2034,
      "appreci": 2035,
      "Doc": 2036,
      "Ear": 2037,
      "IE": 2038,
      "Je": 2039,
      "King": 2040,
      "Kareena": 2041,
      "Most": 2042,
      "Or": 2043,
      "Sa": 2044,
      "Where": 2045,
      "draw": 2046,
      "law": 2047,
      "mil": 2048,
      "pure": 2049,
      "ric": 2050,
      "rap": 2051,
      "rate": 2052,
      "sent": 2053,
      "tle": 2054,
      "ination": 2055,
      "ref": 2056,
      "ander": 2057,
      "search": 2058,
      "enty": 2059,
      "ters": 2060,
      "eless": 2061,
      "aces": 2062,
      "track": 2063,
      "ura": 2064,
      "docum": 2065,
      "prem": 2066,
      "ational": 2067,
      "quick": 2068,
      "pping": 2069,
      "throw": 2070,
      "worked": 2071,
      "Star": 2072,
      "flash": 2073,
      "count": 2074,
      "feeling": 2075,
      "tries": 2076,
      "taking": 2077,
      "single": 2078,
      "running": 2079,
      "shame": 2080,
      "ING": 2081,
      "problems": 2082,
      "words": 2083,
      "eventually": 2084,
      "parents": 2085,
      "large": 2086,
      "document": 2087,
      "Cap": 2088,
      "Camer": 2089,
      "Gre": 2090,
      "Lanza": 2091,
      "OU": 2092,
      "York": 2093,
      "catch": 2094,
      "dance": 2095,
      "gn": 2096,
      "la": 2097,
      "liter": 2098,
      "ni": 2099,
      "oid": 2100,
      "py": 2101,
      "pay": 2102,
      "stop": 2103,
      "ino": 2104,
      "reve": 2105,
      "ony": 2106,
      "stud": 2107,
      "vern": 2108,
      "living": 2109,
      "ability": 2110,
      "suffer": 2111,
      "accept": 2112,
      "conne": 2113,
      "contain": 2114,
      "ants": 2115,
      "upt": 2116,
      "gore": 2117,
      "myster": 2118,
      "grand": 2119,
      "check": 2120,
      "ize": 2121,
      "expecting": 2122,
      "personal": 2123,
      "decided": 2124,
      "logy": 2125,
      "Space": 2126,
      "walk": 2127,
      "zombie": 2128,
      "adventure": 2129,
      "Maybe": 2130,
      "cinematography": 2131,
      "Ahmad": 2132,
      "Europe": 2133,
      "Cameron": 2134,
      "!\"": 2135,
      "00": 2136,
      "Paul": 2137,
      "Ye": 2138,
      "dre": 2139,
      "dad": 2140,
      "mist": 2141,
      "uso": 2142,
      "third": 2143,
      "repe": 2144,
      "state": 2145,
      "sem": 2146,
      "adv": 2147,
      "adult": 2148,
      "actual": 2149,
      "une": 2150,
      "unlike": 2151,
      "rich": 2152,
      "necess": 2153,
      "box": 2154,
      "mostly": 2155,
      "akes": 2156,
      "Who": 2157,
      "greatest": 2158,
      "odd": 2159,
      "due": 2160,
      "saying": 2161,
      "197": 2162,
      "killed": 2163,
      "occas": 2164,
      "tried": 2165,
      "memor": 2166,
      "media": 2167,
      "Peter": 2168,
      "emotional": 2169,
      "week": 2170,
      "develop": 2171,
      "opinion": 2172,
      "slightly": 2173,
      "Com": 2174,
      "LE": 2175,
      "Like": 2176,
      "MO": 2177,
      "Mi": 2178,
      "bar": 2179,
      "fit": 2180,
      "gay": 2181,
      "kas": 2182,
      "ls": 2183,
      "mater": 2184,
      "pat": 2185,
      "pot": 2186,
      "ered": 2187,
      "move": 2188,
      "model": 2189,
      "ices": 2190,
      "forward": 2191,
      "met": 2192,
      "means": 2193,
      "ung": 2194,
      "oose": 2195,
      "suck": 2196,
      "soc": 2197,
      "ultim": 2198,
      "whose": 2199,
      "convin": 2200,
      "group": 2201,
      "showing": 2202,
      "write": 2203,
      "directors": 2204,
      "These": 2205,
      "reading": 2206,
      "despite": 2207,
      "killer": 2208,
      "famil": 2209,
      "build": 2210,
      "Caruso": 2211,
      "fiction": 2212,
      "sequences": 2213,
      "release": 2214,
      "sym": 2215,
      "local": 2216,
      "Lukas": 2217,
      "fresh": 2218,
      "Chinese": 2219,
      "Overall": 2220,
      "cliché": 2221,
      "material": 2222,
      "12": 2223,
      "Dan": 2224,
      "Des": 2225,
      "Games": 2226,
      "Man": 2227,
      "Ri": 2228,
      "bus": 2229,
      "dro": 2230,
      "five": 2231,
      "gre": 2232,
      "hilar": 2233,
      "ives": 2234,
      "lame": 2235,
      "named": 2236,
      "ses": 2237,
      "ini": 2238,
      "ened": 2239,
      "stay": 2240,
      "beat": 2241,
      "became": 2242,
      "idence": 2243,
      "aren": 2244,
      "pet": 2245,
      "road": 2246,
      "detail": 2247,
      "female": 2248,
      "urther": 2249,
      "concept": 2250,
      "concer": 2251,
      "office": 2252,
      "claim": 2253,
      "tale": 2254,
      "famous": 2255,
      "emb": 2256,
      "earth": 2257,
      "earlier": 2258,
      "poorly": 2259,
      "Brit": 2260,
      "polit": 2261,
      "easy": 2262,
      "magic": 2263,
      "fantastic": 2264,
      "disappointed": 2265,
      "complain": 2266,
      "continu": 2267,
      "Jaffar": 2268,
      "sorry": 2269,
      "',": 2270,
      "Am": 2271,
      "Ale": 2272,
      "Act": 2273,
      "CH": 2274,
      "Dis": 2275,
      "Hell": 2276,
      "II": 2277,
      "Kr": 2278,
      "Kord": 2279,
      "Pl": 2280,
      "bb": 2281,
      "cra": 2282,
      "ecut": 2283,
      "hood": 2284,
      "ib": 2285,
      "iv": 2286,
      "ibly": 2287,
      "ky": 2288,
      "lor": 2289,
      "pul": 2290,
      "wit": 2291,
      "ware": 2292,
      "return": 2293,
      "oty": 2294,
      "ution": 2295,
      "uster": 2296,
      "somehow": 2297,
      "Its": 2298,
      "atever": 2299,
      "spot": 2300,
      "spent": 2301,
      "faith": 2302,
      "jokes": 2303,
      "offic": 2304,
      "flat": 2305,
      "ension": 2306,
      "contro": 2307,
      "attack": 2308,
      "visual": 2309,
      "sequence": 2310,
      "entertainment": 2311,
      "falls": 2312,
      "Steven": 2313,
      "similar": 2314,
      "supporting": 2315,
      "Canad": 2316,
      "Crouse": 2317,
      "rific": 2318,
      "profess": 2319,
      "intelligent": 2320,
      "Robin": 2321,
      "relationship": 2322,
      "Batman": 2323,
      "Earth": 2324,
      "hilarious": 2325,
      "Korda": 2326,
      "Great": 2327,
      "Ha": 2328,
      "Master": 2329,
      "US": 2330,
      "fest": 2331,
      "field": 2332,
      "ially": 2333,
      "jud": 2334,
      "kick": 2335,
      "mors": 2336,
      "ring": 2337,
      "test": 2338,
      "whether": 2339,
      "inc": 2340,
      "anch": 2341,
      "ero": 2342,
      "rece": 2343,
      "resp": 2344,
      "ening": 2345,
      "oud": 2346,
      "asy": 2347,
      "stere": 2348,
      "bro": 2349,
      "ential": 2350,
      "forced": 2351,
      "key": 2352,
      "haven": 2353,
      "within": 2354,
      "suspect": 2355,
      "plane": 2356,
      "execut": 2357,
      "usion": 2358,
      "sometimes": 2359,
      "agon": 2360,
      "proper": 2361,
      "disaster": 2362,
      "yourself": 2363,
      "198": 2364,
      "writers": 2365,
      "leading": 2366,
      "cops": 2367,
      "seriously": 2368,
      "imagine": 2369,
      "mentioned": 2370,
      "satis": 2371,
      "typical": 2372,
      "Scot": 2373,
      "Australian": 2374,
      "figure": 2375,
      "Superman": 2376,
      "destro": 2377,
      "IMD": 2378,
      "Saif": 2379,
      "Alex": 2380,
      "BC": 2381,
      "Best": 2382,
      "Dou": 2383,
      "ET": 2384,
      "Ham": 2385,
      "Hitch": 2386,
      "Mame": 2387,
      "Sus": 2388,
      "VER": 2389,
      "bunch": 2390,
      "dress": 2391,
      "fell": 2392,
      "game": 2393,
      "mix": 2394,
      "none": 2395,
      "vil": 2396,
      "thor": 2397,
      "thetic": 2398,
      "record": 2399,
      "ator": 2400,
      "atmo": 2401,
      "ald": 2402,
      "stun": 2403,
      "abu": 2404,
      "outstanding": 2405,
      "amount": 2406,
      "comb": 2407,
      "diffic": 2408,
      "urt": 2409,
      "dog": 2410,
      "tele": 2411,
      "ifer": 2412,
      "chard": 2413,
      "storyline": 2414,
      "gram": 2415,
      "sphere": 2416,
      "serial": 2417,
      "working": 2418,
      "achie": 2419,
      "background": 2420,
      "!!!!": 2421,
      "buy": 2422,
      "telling": 2423,
      "Jackson": 2424,
      "graph": 2425,
      "surprised": 2426,
      "nature": 2427,
      "China": 2428,
      "animation": 2429,
      "sweet": 2430,
      "premise": 2431,
      "Mamet": 2432,
      "atmosphere": 2433,
      "AD": 2434,
      "Bu": 2435,
      "Bet": 2436,
      "En": 2437,
      "Hay": 2438,
      "Jenn": 2439,
      "Kum": 2440,
      "Mus": 2441,
      "Mery": 2442,
      "Sm": 2443,
      "Sabu": 2444,
      "Wang": 2445,
      "burn": 2446,
      "dden": 2447,
      "hate": 2448,
      "luck": 2449,
      "nical": 2450,
      "pull": 2451,
      "round": 2452,
      "tend": 2453,
      "ug": 2454,
      "wo": 2455,
      "iny": 2456,
      "ines": 2457,
      "reck": 2458,
      "reach": 2459,
      "asc": 2460,
      "aris": 2461,
      "ows": 2462,
      "former": 2463,
      "forgot": 2464,
      "mel": 2465,
      "accur": 2466,
      "scary": 2467,
      "managed": 2468,
      "const": 2469,
      "concl": 2470,
      "teach": 2471,
      "ously": 2472,
      "upon": 2473,
      "serv": 2474,
      "creep": 2475,
      "belief": 2476,
      "hoto": 2477,
      "girlfriend": 2478,
      "carto": 2479,
      "topher": 2480,
      "appy": 2481,
      "needed": 2482,
      "America": 2483,
      "attention": 2484,
      "arring": 2485,
      "arrass": 2486,
      "subject": 2487,
      "copy": 2488,
      "laughs": 2489,
      "sexual": 2490,
      "keeps": 2491,
      "nearly": 2492,
      "Sunrise": 2493,
      "planet": 2494,
      "Berg": 2495,
      "deliver": 2496,
      "psycho": 2497,
      "Christopher": 2498,
      "Film": 2499,
      "apparently": 2500,
      "particularly": 2501,
      "torture": 2502,
      "German": 2503,
      "holes": 2504,
      "Spacey": 2505,
      "Richard": 2506,
      "embarrass": 2507,
      "stereoty": 2508,
      "IMDb": 2509,
      "Hitchcock": 2510,
      "Meryl": 2511,
      "!)": 2512,
      "?<": 2513,
      "AL": 2514,
      "Ben": 2515,
      "Bar": 2516,
      "El": 2517,
      "Good": 2518,
      "Ma": 2519,
      "Mon": 2520,
      "Mat": 2521,
      "TO": 2522,
      "Tom": 2523,
      "ather": 2524,
      "bur": 2525,
      "fli": 2526,
      "gest": 2527,
      "hi": 2528,
      "ied": 2529,
      "ival": 2530,
      "kar": 2531,
      "mm": 2532,
      "mass": 2533,
      "nomin": 2534,
      "path": 2535,
      "rand": 2536,
      "vid": 2537,
      "vol": 2538,
      "wind": 2539,
      "indi": 2540,
      "ises": 2541,
      "ene": 2542,
      "brain": 2543,
      "/>\"": 2544,
      "ionally": 2545,
      "wasted": 2546,
      "unity": 2547,
      "eline": 2548,
      "ribly": 2549,
      "suit": 2550,
      "sudden": 2551,
      "shi": 2552,
      "def": 2553,
      "note": 2554,
      "acc": 2555,
      "aper": 2556,
      "express": 2557,
      "ague": 2558,
      "caught": 2559,
      "create": 2560,
      "viewers": 2561,
      "193": 2562,
      "descri": 2563,
      "finds": 2564,
      "feels": 2565,
      "host": 2566,
      "screenplay": 2567,
      "Anil": 2568,
      "smart": 2569,
      "beauty": 2570,
      "compared": 2571,
      "explo": 2572,
      "natural": 2573,
      "exciting": 2574,
      "superb": 2575,
      "simple": 2576,
      "portrayed": 2577,
      "popular": 2578,
      "basic": 2579,
      "clearly": 2580,
      "techno": 2581,
      "deserves": 2582,
      "pathetic": 2583,
      "credit": 2584,
      "incredibly": 2585,
      "Nazi": 2586,
      "front": 2587,
      "Miike": 2588,
      "society": 2589,
      "Jennifer": 2590,
      "Kumar": 2591,
      "Bergman": 2592,
      "Air": 2593,
      "DO": 2594,
      "Ho": 2595,
      "Jess": 2596,
      "Lo": 2597,
      "SE": 2598,
      "flo": 2599,
      "gar": 2600,
      "jay": 2601,
      "jour": 2602,
      "rupt": 2603,
      "sink": 2604,
      "tch": 2605,
      "insp": 2606,
      "reco": 2607,
      "ats": 2608,
      "oun": 2609,
      "aling": 2610,
      "hear": 2611,
      "sell": 2612,
      "abs": 2613,
      "filmmakers": 2614,
      "trou": 2615,
      "max": 2616,
      "loss": 2617,
      "convers": 2618,
      "uss": 2619,
      "ateur": 2620,
      "tiv": 2621,
      "qual": 2622,
      "board": 2623,
      "bored": 2624,
      "space": 2625,
      "ideas": 2626,
      "dison": 2627,
      "twist": 2628,
      "Thief": 2629,
      "reality": 2630,
      "partner": 2631,
      "points": 2632,
      "196": 2633,
      "news": 2634,
      "lets": 2635,
      "begins": 2636,
      "invest": 2637,
      "rench": 2638,
      "powers": 2639,
      "scient": 2640,
      "disturb": 2641,
      "general": 2642,
      "impressive": 2643,
      "India": 2644,
      "Indian": 2645,
      "Everything": 2646,
      "wait": 2647,
      "innocent": 2648,
      "flashback": 2649,
      "memorable": 2650,
      "difficult": 2651,
      "random": 2652,
      "Black": 2653,
      "Bollywood": 2654,
      "Cor": 2655,
      "Cal": 2656,
      "CBC": 2657,
      "Har": 2658,
      "Here": 2659,
      "Lom": 2660,
      "Sand": 2661,
      "bal": 2662,
      "bers": 2663,
      "cul": 2664,
      "cers": 2665,
      "gain": 2666,
      "ken": 2667,
      "match": 2668,
      "var": 2669,
      "insul": 2670,
      "theater": 2671,
      "outh": 2672,
      "asks": 2673,
      "towards": 2674,
      "itor": 2675,
      "itation": 2676,
      "step": 2677,
      "ilo": 2678,
      "brut": 2679,
      "hey": 2680,
      "ctive": 2681,
      "whatever": 2682,
      "icated": 2683,
      "und": 2684,
      "hair": 2685,
      "opport": 2686,
      "nowhere": 2687,
      "venge": 2688,
      "elling": 2689,
      "anyway": 2690,
      "scenery": 2691,
      "please": 2692,
      "berg": 2693,
      "older": 2694,
      "illion": 2695,
      "effective": 2696,
      "strange": 2697,
      "apped": 2698,
      "medi": 2699,
      "worthy": 2700,
      "dramatic": 2701,
      "Only": 2702,
      "period": 2703,
      "climax": 2704,
      "elements": 2705,
      "surprise": 2706,
      "fantasy": 2707,
      "spirit": 2708,
      "realize": 2709,
      "issues": 2710,
      "Direct": 2711,
      "Tremors": 2712,
      "ultimately": 2713,
      "convincing": 2714,
      "Susan": 2715,
      "recogn": 2716,
      "50": 2717,
      "90": 2718,
      "CK": 2719,
      "Celine": 2720,
      "Edison": 2721,
      "Love": 2722,
      "Other": 2723,
      "aver": 2724,
      "bes": 2725,
      "batt": 2726,
      "barely": 2727,
      "core": 2728,
      "fash": 2729,
      "further": 2730,
      "han": 2731,
      "ior": 2732,
      "ja": 2733,
      "knew": 2734,
      "nud": 2735,
      "pers": 2736,
      "photo": 2737,
      "yn": 2738,
      "yed": 2739,
      "inally": 2740,
      "remark": 2741,
      "atter": 2742,
      "total": 2743,
      "itary": 2744,
      "arri": 2745,
      "bel": 2746,
      "mote": 2747,
      "moder": 2748,
      "otic": 2749,
      "ently": 2750,
      "unted": 2751,
      "unfortunately": 2752,
      "els": 2753,
      "amateur": 2754,
      "sugg": 2755,
      "herself": 2756,
      "common": 2757,
      "delight": 2758,
      "plain": 2759,
      "manner": 2760,
      "tran": 2761,
      "trave": 2762,
      "load": 2763,
      "post": 2764,
      "contri": 2765,
      "anti": 2766,
      "prove": 2767,
      "willing": 2768,
      "prot": 2769,
      "stands": 2770,
      "kills": 2771,
      "stem": 2772,
      "drag": 2773,
      "occur": 2774,
      "biggest": 2775,
      "mighty": 2776,
      "decide": 2777,
      "colle": 2778,
      "perfectly": 2779,
      "science": 2780,
      "logical": 2781,
      "Unfortunately": 2782,
      "involving": 2783,
      "presented": 2784,
      "alien": 2785,
      "failed": 2786,
      "basically": 2787,
      "zombies": 2788,
      "Charlie": 2789,
      "question": 2790,
      "leaves": 2791,
      "Police": 2792,
      "sleep": 2793,
      "Daniel": 2794,
      "crazy": 2795,
      "television": 2796,
      "inspired": 2797,
      "disturbing": 2798,
      "Lommel": 2799,
      "suggest": 2800,
      "?\"": 2801,
      "Ac": 2802,
      "ALL": 2803,
      "Bas": 2804,
      "IG": 2805,
      "Is": 2806,
      "Kev": 2807,
      "LA": 2808,
      "SO": 2809,
      "Sch": 2810,
      "Sad": 2811,
      "Wil": 2812,
      "bother": 2813,
      "bum": 2814,
      "curi": 2815,
      "danger": 2816,
      "eth": 2817,
      "gon": 2818,
      "iar": 2819,
      "ker": 2820,
      "mes": 2821,
      "names": 2822,
      "ox": 2823,
      "pil": 2824,
      "ties": 2825,
      "theat": 2826,
      "ering": 2827,
      "ret": 2828,
      "relig": 2829,
      "refer": 2830,
      "remote": 2831,
      "edu": 2832,
      "brings": 2833,
      "brief": 2834,
      "ctim": 2835,
      "whom": 2836,
      "adapt": 2837,
      "lid": 2838,
      "ceed": 2839,
      "filmed": 2840,
      "terror": 2841,
      "imm": 2842,
      "impossible": 2843,
      "sold": 2844,
      "contem": 2845,
      "doll": 2846,
      "agree": 2847,
      "periment": 2848,
      "previous": 2849,
      "project": 2850,
      "god": 2851,
      "pract": 2852,
      "knows": 2853,
      "genuine": 2854,
      "lette": 2855,
      "lots": 2856,
      "Joe": 2857,
      "Segal": 2858,
      "minute": 2859,
      "ordin": 2860,
      "audiences": 2861,
      "color": 2862,
      "AND": 2863,
      "streng": 2864,
      "ratings": 2865,
      "stock": 2866,
      "powerful": 2867,
      "attempts": 2868,
      "talented": 2869,
      "Anyway": 2870,
      "utterly": 2871,
      "bottom": 2872,
      "equally": 2873,
      "desperate": 2874,
      "appreciate": 2875,
      "military": 2876,
      "Grease": 2877,
      "Yeti": 2878,
      "familiar": 2879,
      "Despite": 2880,
      "business": 2881,
      "Disney": 2882,
      "warehouse": 2883,
      "technology": 2884,
      "fashion": 2885,
      "Kevin": 2886,
      "'.": 2887,
      "18": 2888,
      "?)": 2889,
      "Ang": 2890,
      "Bag": 2891,
      "Cli": 2892,
      "Cool": 2893,
      "Em": 2894,
      "Gener": 2895,
      "Hen": 2896,
      "High": 2897,
      "LO": 2898,
      "La": 2899,
      "Mad": 2900,
      "Ple": 2901,
      "Sn": 2902,
      "Time": 2903,
      "Ve": 2904,
      "WH": 2905,
      "bik": 2906,
      "cross": 2907,
      "fat": 2908,
      "fasc": 2909,
      "ging": 2910,
      "gend": 2911,
      "gna": 2912,
      "kay": 2913,
      "pal": 2914,
      "pace": 2915,
      "six": 2916,
      "tough": 2917,
      "wel": 2918,
      "wild": 2919,
      "wreck": 2920,
      "tha": 2921,
      "ths": 2922,
      "editing": 2923,
      "chall": 2924,
      "icide": 2925,
      "meant": 2926,
      "terms": 2927,
      "ries": 2928,
      "deed": 2929,
      "depict": 2930,
      "ples": 2931,
      "placed": 2932,
      "notice": 2933,
      "neg": 2934,
      "ify": 2935,
      "iston": 2936,
      "inkle": 2937,
      "grace": 2938,
      "spin": 2939,
      "itted": 2940,
      "discus": 2941,
      "thinks": 2942,
      "joke": 2943,
      "lessly": 2944,
      "cret": 2945,
      "Still": 2946,
      "evidence": 2947,
      "answer": 2948,
      "ashing": 2949,
      "actions": 2950,
      "missing": 2951,
      "survi": 2952,
      "victim": 2953,
      "produced": 2954,
      "producers": 2955,
      "complex": 2956,
      "appeared": 2957,
      "Because": 2958,
      "laughter": 2959,
      "consist": 2960,
      "boys": 2961,
      "added": 2962,
      "favour": 2963,
      "crime": 2964,
      "People": 2965,
      "meets": 2966,
      "fails": 2967,
      "credits": 2968,
      "Movie": 2969,
      "recently": 2970,
      "costum": 2971,
      "Princess": 2972,
      "quickly": 2973,
      "documentary": 2974,
      "stunning": 2975,
      "pilot": 2976,
      "Bagdad": 2977,
      "14": 2978,
      "15": 2979,
      "By": 2980,
      "Bel": 2981,
      "French": 2982,
      "IC": 2983,
      "Les": 2984,
      "Mante": 2985,
      "Never": 2986,
      "Pro": 2987,
      "SH": 2988,
      "Sav": 2989,
      "Wal": 2990,
      "abr": 2991,
      "cir": 2992,
      "dam": 2993,
      "date": 2994,
      "ges": 2995,
      "gas": 2996,
      "ju": 2997,
      "rough": 2998,
      "ride": 2999,
      "sion": 3000,
      "squ": 3001,
      "sight": 3002,
      "sens": 3003,
      "tack": 3004,
      "ush": 3005,
      "udi": 3006,
      "uous": 3007,
      "wan": 3008,
      "wed": 3009,
      "water": 3010,
      "thus": 3011,
      "rend": 3012,
      "ench": 3013,
      "ital": 3014,
      "anda": 3015,
      "edge": 3016,
      "belong": 3017,
      "mood": 3018,
      "unexpected": 3019,
      "amp": 3020,
      "social": 3021,
      "comput": 3022,
      "dem": 3023,
      "dete": 3024,
      "manages": 3025,
      "opera": 3026,
      "tears": 3027,
      "prefer": 3028,
      "boat": 3029,
      "bodies": 3030,
      "intri": 3031,
      "guil": 3032,
      "race": 3033,
      "bling": 3034,
      "iously": 3035,
      "thanks": 3036,
      "craf": 3037,
      "Anderson": 3038,
      "viewing": 3039,
      "design": 3040,
      "horse": 3041,
      "ensive": 3042,
      "chemis": 3043,
      "positive": 3044,
      "began": 3045,
      "medio": 3046,
      "hardly": 3047,
      "kinda": 3048,
      "compelling": 3049,
      "decides": 3050,
      "Johnson": 3051,
      "humanity": 3052,
      "humour": 3053,
      "Morvern": 3054,
      "missed": 3055,
      "excuse": 3056,
      "moral": 3057,
      "purpose": 3058,
      "clever": 3059,
      "feature": 3060,
      "lockb": 3061,
      "psych": 3062,
      "successful": 3063,
      "critic": 3064,
      "issue": 3065,
      "introduced": 3066,
      "incredible": 3067,
      "shooting": 3068,
      "approach": 3069,
      "Horror": 3070,
      "result": 3071,
      "urai": 3072,
      "dream": 3073,
      "adults": 3074,
      "necessary": 3075,
      "development": 3076,
      "British": 3077,
      "cartoon": 3078,
      "average": 3079,
      "Cliff": 3080,
      "Mantegna": 3081,
      "chemistry": 3082,
      "\".<": 3083,
      "AG": 3084,
      "Ano": 3085,
      "Cha": 3086,
      "City": 3087,
      "Gu": 3088,
      "Kate": 3089,
      "Look": 3090,
      "Miss": 3091,
      "Om": 3092,
      "PO": 3093,
      "Puri": 3094,
      "Sure": 3095,
      "Tay": 3096,
      "VE": 3097,
      "Way": 3098,
      "WOR": 3099,
      "ded": 3100,
      "dated": 3101,
      "gri": 3102,
      "mere": 3103,
      "million": 3104,
      "ns": 3105,
      "pair": 3106,
      "sick": 3107,
      "tone": 3108,
      "tension": 3109,
      "vot": 3110,
      "zz": 3111,
      "thief": 3112,
      "ina": 3113,
      "inner": 3114,
      "resem": 3115,
      "onto": 3116,
      "enna": 3117,
      "ature": 3118,
      "attract": 3119,
      "itional": 3120,
      "itude": 3121,
      "sees": 3122,
      "ades": 3123,
      "moves": 3124,
      "rock": 3125,
      "immedi": 3126,
      "soci": 3127,
      "solid": 3128,
      "deem": 3129,
      "plic": 3130,
      "extra": 3131,
      "trash": 3132,
      "trail": 3133,
      "lover": 3134,
      "wealth": 3135,
      "provo": 3136,
      "justice": 3137,
      "otherwise": 3138,
      "boss": 3139,
      "sport": 3140,
      "showed": 3141,
      "Instead": 3142,
      "directing": 3143,
      "finish": 3144,
      "views": 3145,
      "pointless": 3146,
      "central": 3147,
      "coher": 3148,
      "100": 3149,
      "***": 3150,
      "younger": 3151,
      "married": 3152,
      "books": 3153,
      "phone": 3154,
      "puts": 3155,
      "Aniston": 3156,
      "laughable": 3157,
      "Leon": 3158,
      "hands": 3159,
      "cute": 3160,
      "presence": 3161,
      "Robert": 3162,
      "possibly": 3163,
      "sounds": 3164,
      "soundtrack": 3165,
      "engaging": 3166,
      "formation": 3167,
      "corrupt": 3168,
      "emotions": 3169,
      "drive": 3170,
      "following": 3171,
      "portrayal": 3172,
      "Lindsay": 3173,
      "clean": 3174,
      "listen": 3175,
      "Collette": 3176,
      "shocking": 3177,
      "changes": 3178,
      "flaws": 3179,
      "Life": 3180,
      "focus": 3181,
      "heavy": 3182,
      "literally": 3183,
      "satisf": 3184,
      "Scott": 3185,
      "accurate": 3186,
      "ships": 3187,
      "scientist": 3188,
      "various": 3189,
      "modern": 3190,
      "protagon": 3191,
      "Another": 3192,
      "Taylor": 3193,
      "\")": 3194,
      "11": 3195,
      "40": 3196,
      "AS": 3197,
      "Bul": 3198,
      "Cas": 3199,
      "Did": 3200,
      "IL": 3201,
      "Ke": 3202,
      "Qu": 3203,
      "San": 3204,
      "Sim": 3205,
      "Since": 3206,
      "Was": 3207,
      "Wins": 3208,
      "bul": 3209,
      "dru": 3210,
      "fare": 3211,
      "khar": 3212,
      "lon": 3213,
      "lady": 3214,
      "loose": 3215,
      "pse": 3216,
      "sw": 3217,
      "uel": 3218,
      "ze": 3219,
      "thy": 3220,
      "inn": 3221,
      "aste": 3222,
      "aside": 3223,
      "aries": 3224,
      "starring": 3225,
      "illy": 3226,
      "separ": 3227,
      "chan": 3228,
      "iet": 3229,
      "force": 3230,
      "lies": 3231,
      "likes": 3232,
      "moved": 3233,
      "acts": 3234,
      "idt": 3235,
      "iding": 3236,
      "filled": 3237,
      "suicide": 3238,
      "deb": 3239,
      "depart": 3240,
      "pless": 3241,
      ".....": 3242,
      "ills": 3243,
      "mach": 3244,
      "lose": 3245,
      "iff": 3246,
      "gold": 3247,
      "watchable": 3248,
      "grow": 3249,
      "spend": 3250,
      "affair": 3251,
      "rape": 3252,
      "blind": 3253,
      "twists": 3254,
      "crow": 3255,
      "foreign": 3256,
      "evol": 3257,
      "shouldn": 3258,
      "genie": 3259,
      "interested": 3260,
      "longer": 3261,
      "surround": 3262,
      "inside": 3263,
      "carry": 3264,
      "phys": 3265,
      "memory": 3266,
      "motion": 3267,
      "explor": 3268,
      "Shekhar": 3269,
      "value": 3270,
      "values": 3271,
      "addition": 3272,
      "gling": 3273,
      "glad": 3274,
      "stretch": 3275,
      "Once": 3276,
      "system": 3277,
      "cape": 3278,
      "fairly": 3279,
      "langu": 3280,
      "histor": 3281,
      "impression": 3282,
      "counter": 3283,
      "considering": 3284,
      "types": 3285,
      "Vienna": 3286,
      "discovered": 3287,
      "Frank": 3288,
      "Jesse": 3289,
      "Jesus": 3290,
      "mystery": 3291,
      "Canadian": 3292,
      "Having": 3293,
      "respons": 3294,
      "conclusion": 3295,
      "creepy": 3296,
      "investig": 3297,
      "nudity": 3298,
      "Veidt": 3299,
      "Savage": 3300,
      "mediocre": 3301,
      "Winslet": 3302,
      "(\"": 3303,
      "13": 3304,
      "Bur": 3305,
      "ED": 3306,
      "Jul": 3307,
      "Kong": 3308,
      "Lam": 3309,
      "Let": 3310,
      "Little": 3311,
      "Ms": 3312,
      "Patr": 3313,
      "RO": 3314,
      "Show": 3315,
      "VIE": 3316,
      "Yash": 3317,
      "Zomb": 3318,
      "base": 3319,
      "dumb": 3320,
      "ga": 3321,
      "gam": 3322,
      "gorge": 3323,
      "hat": 3324,
      "hab": 3325,
      "hang": 3326,
      "ius": 3327,
      "ium": 3328,
      "loud": 3329,
      "nia": 3330,
      "tar": 3331,
      "ining": 3332,
      "init": 3333,
      "isingly": 3334,
      "island": 3335,
      "rew": 3336,
      "revenge": 3337,
      "enced": 3338,
      "estern": 3339,
      "ites": 3340,
      "ican": 3341,
      "ford": 3342,
      "liber": 3343,
      "melo": 3344,
      "cell": 3345,
      "hack": 3346,
      "outside": 3347,
      "rio": 3348,
      "shop": 3349,
      "ula": 3350,
      "plenty": 3351,
      "convent": 3352,
      "door": 3353,
      "oppos": 3354,
      "artist": 3355,
      "prep": 3356,
      "ousand": 3357,
      "process": 3358,
      "anywhere": 3359,
      "orton": 3360,
      "ishing": 3361,
      "maker": 3362,
      "udd": 3363,
      "cry": 3364,
      "finished": 3365,
      "seemingly": 3366,
      "avail": 3367,
      "avoid": 3368,
      "standards": 3369,
      "feelings": 3370,
      "surd": 3371,
      "trip": 3372,
      "lesb": 3373,
      "phant": 3374,
      "THIS": 3375,
      "See": 3376,
      "comedies": 3377,
      "content": 3378,
      "singing": 3379,
      "wondering": 3380,
      "subtle": 3381,
      "ledge": 3382,
      "fied": 3383,
      "humans": 3384,
      "void": 3385,
      "current": 3386,
      "helped": 3387,
      "Atl": 3388,
      "include": 3389,
      "crimin": 3390,
      "images": 3391,
      "falling": 3392,
      "walking": 3393,
      "situations": 3394,
      "features": 3395,
      "realized": 3396,
      "Conrad": 3397,
      "questions": 3398,
      "critics": 3399,
      "pleasant": 3400,
      "changed": 3401,
      "streets": 3402,
      "unique": 3403,
      "depth": 3404,
      "depend": 3405,
      "sister": 3406,
      "traditional": 3407,
      "Jewish": 3408,
      "connection": 3409,
      "contains": 3410,
      "European": 3411,
      "mistake": 3412,
      "political": 3413,
      "Alexander": 3414,
      "fellow": 3415,
      "achieve": 3416,
      "Bette": 3417,
      "vidual": 3418,
      "suddenly": 3419,
      "trouble": 3420,
      "conversation": 3421,
      "opportunity": 3422,
      "General": 3423,
      "costumes": 3424,
      "gorgeous": 3425,
      "Dark": 3426,
      "Devil": 3427,
      "ES": 3428,
      "Eli": 3429,
      "Fred": 3430,
      "Guine": 3431,
      "ION": 3432,
      "June": 3433,
      "Mel": 3434,
      "Mike": 3435,
      "Pig": 3436,
      "Red": 3437,
      "Rom": 3438,
      "Ser": 3439,
      "Tr": 3440,
      "ban": 3441,
      "bid": 3442,
      "bomb": 3443,
      "bird": 3444,
      "cal": 3445,
      "cil": 3446,
      "card": 3447,
      "dim": 3448,
      "dread": 3449,
      "gent": 3450,
      "gory": 3451,
      "gard": 3452,
      "ians": 3453,
      "len": 3454,
      "lad": 3455,
      "mare": 3456,
      "mouth": 3457,
      "pon": 3458,
      "pack": 3459,
      "paced": 3460,
      "rum": 3461,
      "sess": 3462,
      "sitting": 3463,
      "soul": 3464,
      "ta": 3465,
      "zero": 3466,
      "thousand": 3467,
      "redeem": 3468,
      "escape": 3469,
      "alive": 3470,
      "arily": 3471,
      "station": 3472,
      "stage": 3473,
      "cher": 3474,
      "bear": 3475,
      "Their": 3476,
      "haunted": 3477,
      "area": 3478,
      "ama": 3479,
      "roc": 3480,
      "shad": 3481,
      "plant": 3482,
      "acy": 3483,
      "died": 3484,
      "trust": 3485,
      "trick": 3486,
      "neither": 3487,
      "lovers": 3488,
      "contr": 3489,
      "author": 3490,
      "tight": 3491,
      "prop": 3492,
      "saur": 3493,
      "intent": 3494,
      "gry": 3495,
      "grad": 3496,
      "aked": 3497,
      "affect": 3498,
      "fake": 3499,
      "raid": 3500,
      "bland": 3501,
      "players": 3502,
      "offers": 3503,
      "twenty": 3504,
      "princess": 3505,
      "crappy": 3506,
      "ody": 3507,
      "minor": 3508,
      "Chr": 3509,
      "genius": 3510,
      "hoom": 3511,
      "insight": 3512,
      "Almighty": 3513,
      "helps": 3514,
      "expectations": 3515,
      "members": 3516,
      "putting": 3517,
      "smile": 3518,
      "porn": 3519,
      "compar": 3520,
      "reasons": 3521,
      "explan": 3522,
      "Rock": 3523,
      "voy": 3524,
      "push": 3525,
      "understanding": 3526,
      "titles": 3527,
      "entirely": 3528,
      "emotion": 3529,
      "slap": 3530,
      "disappointment": 3531,
      "intellect": 3532,
      "********": 3533,
      "considered": 3534,
      "Arab": 3535,
      "technical": 3536,
      "adventures": 3537,
      "transl": 3538,
      "speaking": 3539,
      "treatment": 3540,
      "Perhaps": 3541,
      "dingo": 3542,
      "appearance": 3543,
      "captured": 3544,
      "Australia": 3545,
      "culture": 3546,
      "radio": 3547,
      "leaving": 3548,
      "skin": 3549,
      "weren": 3550,
      "reminded": 3551,
      "ghosts": 3552,
      "deeply": 3553,
      "existence": 3554,
      "annel": 3555,
      "Norman": 3556,
      "reveal": 3557,
      "potential": 3558,
      "fictional": 3559,
      "control": 3560,
      "constantly": 3561,
      "stereotyp": 3562,
      "accident": 3563,
      "Director": 3564,
      "battle": 3565,
      "Please": 3566,
      "Snaf": 3567,
      "computer": 3568,
      "lockbuster": 3569,
      "Bullock": 3570,
      "Guinea": 3571,
      "Ax": 3572,
      "Az": 3573,
      "Ali": 3574,
      "Ash": 3575,
      "BO": 3576,
      "Back": 3577,
      "Cul": 3578,
      "Der": 3579,
      "Die": 3580,
      "Doo": 3581,
      "Del": 3582,
      "Egon": 3583,
      "Fury": 3584,
      "Fox": 3585,
      "Gold": 3586,
      "Hu": 3587,
      "Jones": 3588,
      "Kar": 3589,
      "MA": 3590,
      "Mart": 3591,
      "More": 3592,
      "Out": 3593,
      "Pow": 3594,
      "Right": 3595,
      "SU": 3596,
      "Ter": 3597,
      "Tru": 3598,
      "YOU": 3599,
      "bits": 3600,
      "bought": 3601,
      "cat": 3602,
      "eight": 3603,
      "fate": 3604,
      "fold": 3605,
      "gut": 3606,
      "lay": 3607,
      "mut": 3608,
      "mine": 3609,
      "nation": 3610,
      "okay": 3611,
      "ran": 3612,
      "rit": 3613,
      "spl": 3614,
      "table": 3615,
      "taste": 3616,
      "uld": 3617,
      "udo": 3618,
      "xual": 3619,
      "inspir": 3620,
      "theless": 3621,
      "resc": 3622,
      "requ": 3623,
      "relie": 3624,
      "repor": 3625,
      "remain": 3626,
      "revol": 3627,
      "oft": 3628,
      "stunt": 3629,
      "brother": 3630,
      "heck": 3631,
      "omed": 3632,
      "seven": 3633,
      "secret": 3634,
      "chas": 3635,
      "chick": 3636,
      "chos": 3637,
      "becoming": 3638,
      "ots": 3639,
      "forth": 3640,
      "lied": 3641,
      "ablan": 3642,
      "unless": 3643,
      "ooby": 3644,
      "termin": 3645,
      "terrific": 3646,
      "amusing": 3647,
      "sole": 3648,
      "debut": 3649,
      "demon": 3650,
      "plus": 3651,
      "places": 3652,
      "achel": 3653,
      "urally": 3654,
      "constru": 3655,
      "doctor": 3656,
      "oper": 3657,
      "ager": 3658,
      "agic": 3659,
      "likely": 3660,
      "tea": 3661,
      "ified": 3662,
      "prec": 3663,
      "atekar": 3664,
      "weight": 3665,
      "weird": 3666,
      "tired": 3667,
      "proved": 3668,
      "asty": 3669,
      "safe": 3670,
      "saving": 3671,
      "grat": 3672,
      "grown": 3673,
      "disbelief": 3674,
      "blame": 3675,
      "themes": 3676,
      "Though": 3677,
      "prison": 3678,
      "finest": 3679,
      "osexual": 3680,
      "gia": 3681,
      "ruined": 3682,
      "ctions": 3683,
      "azz": 3684,
      "finding": 3685,
      "ighter": 3686,
      "casting": 3687,
      "extent": 3688,
      "THAT": 3689,
      "apping": 3690,
      "Carter": 3691,
      "highlight": 3692,
      "Ann": 3693,
      "related": 3694,
      "company": 3695,
      "subst": 3696,
      "pieces": 3697,
      "visit": 3698,
      "warning": 3699,
      "hype": 3700,
      "difference": 3701,
      "resta": 3702,
      "Force": 3703,
      "happening": 3704,
      "camp": 3705,
      "........": 3706,
      "creative": 3707,
      "glas": 3708,
      "store": 3709,
      "stopped": 3710,
      "Engle": 3711,
      "surprisingly": 3712,
      "corn": 3713,
      "recommended": 3714,
      "suppose": 3715,
      "caused": 3716,
      "heroes": 3717,
      "aliens": 3718,
      "Mrs": 3719,
      "breaking": 3720,
      "Warner": 3721,
      "Goa": 3722,
      "developed": 3723,
      "Experiment": 3724,
      "Scooby": 3725,
      "Edward": 3726,
      "intelligence": 3727,
      "masterpiece": 3728,
      "innoc": 3729,
      "bringing": 3730,
      "Meg": 3731,
      "Nazis": 3732,
      "picked": 3733,
      "Dupre": 3734,
      "sentiment": 3735,
      "Captain": 3736,
      "Caprio": 3737,
      "inosaur": 3738,
      "suffering": 3739,
      "MOVIE": 3740,
      "claimed": 3741,
      "bbish": 3742,
      "witness": 3743,
      "officer": 3744,
      "professional": 3745,
      "recei": 3746,
      "Douglas": 3747,
      "forgotten": 3748,
      "individual": 3749,
      "exploitation": 3750,
      "journey": 3751,
      "adaptation": 3752,
      "favourite": 3753,
      "Lester": 3754,
      "intrigu": 3755,
      "coherent": 3756,
      "Casablan": 3757,
      "language": 3758,
      "Julie": 3759,
      "Snafu": 3760,
      "Casablanca": 3761,
      "!).": 3762,
      ".,": 3763,
      "16": 3764,
      "60": 3765,
      ":<": 3766,
      "Aud": 3767,
      "Bad": 3768,
      "Bob": 3769,
      "Dor": 3770,
      "Dhoom": 3771,
      "Fe": 3772,
      "Ire": 3773,
      "ILL": 3774,
      "Jr": 3775,
      "Ju": 3776,
      "Khan": 3777,
      "Lou": 3778,
      "List": 3779,
      "Lady": 3780,
      "Made": 3781,
      "Nana": 3782,
      "OO": 3783,
      "Park": 3784,
      "Patekar": 3785,
      "Rh": 3786,
      "Rex": 3787,
      "Rachel": 3788,
      "Sat": 3789,
      "Ton": 3790,
      "Tal": 3791,
      "Tank": 3792,
      "UM": 3793,
      "Very": 3794,
      "Won": 3795,
      "bac": 3796,
      "bag": 3797,
      "biz": 3798,
      "dom": 3799,
      "domin": 3800,
      "ech": 3801,
      "gin": 3802,
      "gress": 3803,
      "hil": 3804,
      "iest": 3805,
      "kh": 3806,
      "kno": 3807,
      "lu": 3808,
      "lab": 3809,
      "mir": 3810,
      "nal": 3811,
      "nons": 3812,
      "pis": 3813,
      "paper": 3814,
      "row": 3815,
      "rare": 3816,
      "smo": 3817,
      "sam": 3818,
      "site": 3819,
      "ub": 3820,
      "van": 3821,
      "vies": 3822,
      "vate": 3823,
      "wall": 3824,
      "wound": 3825,
      "whel": 3826,
      "thin": 3827,
      "thro": 3828,
      "independ": 3829,
      "anced": 3830,
      "report": 3831,
      "enne": 3832,
      "asure": 3833,
      "altern": 3834,
      "arre": 3835,
      "sters": 3836,
      "iles": 3837,
      "height": 3838,
      "omen": 3839,
      "motiv": 3840,
      "oted": 3841,
      "lik": 3842,
      "lived": 3843,
      "cean": 3844,
      "idi": 3845,
      "ablish": 3846,
      "unusual": 3847,
      "unbelievable": 3848,
      "filming": 3849,
      "rip": 3850,
      "exper": 3851,
      "urch": 3852,
      "loses": 3853,
      "poker": 3854,
      "establish": 3855,
      "anted": 3856,
      "somewhere": 3857,
      "arts": 3858,
      "ousy": 3859,
      "tive": 3860,
      "proves": 3861,
      "provide": 3862,
      "program": 3863,
      "proceed": 3864,
      "charming": 3865,
      "anymore": 3866,
      "igno": 3867,
      "intention": 3868,
      "ours": 3869,
      "grade": 3870,
      "White": 3871,
      "ademy": 3872,
      "ishna": 3873,
      "thank": 3874,
      "Three": 3875,
      "print": 3876,
      "crack": 3877,
      "dub": 3878,
      "lovely": 3879,
      "plots": 3880,
      "pson": 3881,
      "rubbish": 3882,
      "horribly": 3883,
      "performer": 3884,
      "izing": 3885,
      "mond": 3886,
      "drink": 3887,
      "impact": 3888,
      "posing": 3889,
      "appeal": 3890,
      "wooden": 3891,
      "childhood": 3892,
      "nail": 3893,
      "laughed": 3894,
      "surely": 3895,
      "runs": 3896,
      "entertained": 3897,
      "beautifully": 3898,
      "Donner": 3899,
      "spec": 3900,
      "sexy": 3901,
      "Dead": 3902,
      "folks": 3903,
      "pictures": 3904,
      "imagination": 3905,
      "sorts": 3906,
      "correct": 3907,
      "locations": 3908,
      "exception": 3909,
      "fighting": 3910,
      "William": 3911,
      "Without": 3912,
      "includes": 3913,
      "disappointing": 3914,
      "choice": 3915,
      "Bog": 3916,
      "Both": 3917,
      "deserved": 3918,
      "promising": 3919,
      "snake": 3920,
      "waiting": 3921,
      "paid": 3922,
      "painful": 3923,
      "allowed": 3924,
      "regular": 3925,
      "McCl": 3926,
      "delivers": 3927,
      "spectac": 3928,
      "signific": 3929,
      "Jimmy": 3930,
      "cinematic": 3931,
      "Films": 3932,
      "gangster": 3933,
      "rolling": 3934,
      "DiCaprio": 3935,
      "1940": 3936,
      "aspects": 3937,
      "narrative": 3938,
      "heavily": 3939,
      "repeated": 3940,
      "sympathetic": 3941,
      "details": 3942,
      "Hellman": 3943,
      "Krishna": 3944,
      "pulled": 3945,
      "festival": 3946,
      "properly": 3947,
      "VERY": 3948,
      "Hayward": 3949,
      "brutal": 3950,
      "Academy": 3951,
      "religious": 3952,
      "contempor": 3953,
      "strength": 3954,
      "fascin": 3955,
      "negative": 3956,
      "attractive": 3957,
      "immediately": 3958,
      "lesbian": 3959,
      "Dermot": 3960,
      "chosen": 3961,
      "Duprez": 3962,
      "sentimental": 3963,
      "Irene": 3964,
      "knock": 3965,
      "McClure": 3966,
      ")<": 3967,
      "17": 3968,
      "1st": 3969,
      "70s": 3970,
      "80": 3971,
      "Big": 3972,
      "CE": 3973,
      "CR": 3974,
      "Cali": 3975,
      "Dy": 3976,
      "Ele": 3977,
      "Far": 3978,
      "Flight": 3979,
      "Gabr": 3980,
      "Haw": 3981,
      "Ir": 3982,
      "Lord": 3983,
      "Mac": 3984,
      "Many": 3985,
      "Ob": 3986,
      "Oli": 3987,
      "Ori": 3988,
      "Par": 3989,
      "Rol": 3990,
      "Sy": 3991,
      "TR": 3992,
      "Too": 3993,
      "Van": 3994,
      "Wars": 3995,
      "Yet": 3996,
      "aven": 3997,
      "bow": 3998,
      "cow": 3999,
      "cant": 4000,
      "cous": 4001,
      "hook": 4002,
      "hide": 4003,
      "ias": 4004,
      "jer": 4005,
      "kin": 4006,
      "loo": 4007,
      "mary": 4008,
      "nine": 4009,
      "pan": 4010,
      "pun": 4011,
      "rac": 4012,
      "sal": 4013,
      "slo": 4014,
      "sour": 4015,
      "tor": 4016,
      "wide": 4017,
      "zing": 4018,
      "inct": 4019,
      "information": 4020,
      "ision": 4021,
      "research": 4022,
      "ensu": 4023,
      "orious": 4024,
      "esome": 4025,
      "asha": 4026,
      "associ": 4027,
      "andy": 4028,
      "edited": 4029,
      "studi": 4030,
      "ilst": 4031,
      "lying": 4032,
      "held": 4033,
      "seat": 4034,
      "chop": 4035,
      "cture": 4036,
      "beth": 4037,
      "ading": 4038,
      "vert": 4039,
      "utch": 4040,
      "fornia": 4041,
      "absurd": 4042,
      "unting": 4043,
      "irth": 4044,
      "riage": 4045,
      "suff": 4046,
      "shallow": 4047,
      "alling": 4048,
      "commer": 4049,
      "dear": 4050,
      "ulti": 4051,
      "tragic": 4052,
      "net": 4053,
      "neck": 4054,
      "aught": 4055,
      "artistic": 4056,
      "wearing": 4057,
      "olt": 4058,
      "boil": 4059,
      "itement": 4060,
      "overly": 4061,
      "Which": 4062,
      "afraid": 4063,
      "rage": 4064,
      "bles": 4065,
      "bled": 4066,
      "blah": 4067,
      "offer": 4068,
      "Ingram": 4069,
      "udge": 4070,
      "knowing": 4071,
      "Story": 4072,
      "flow": 4073,
      "award": 4074,
      "talks": 4075,
      "aval": 4076,
      "cheese": 4077,
      "azy": 4078,
      "stealth": 4079,
      "Albert": 4080,
      "starting": 4081,
      "Joan": 4082,
      "producer": 4083,
      "Season": 4084,
      "matic": 4085,
      "empt": 4086,
      "viously": 4087,
      "handed": 4088,
      "handled": 4089,
      "presents": 4090,
      "reviewer": 4091,
      "reviewers": 4092,
      ".\"<": 4093,
      "messages": 4094,
      "mainly": 4095,
      "Nothing": 4096,
      "speech": 4097,
      "share": 4098,
      "hearted": 4099,
      "priest": 4100,
      "mission": 4101,
      "naturally": 4102,
      "passeng": 4103,
      "excitement": 4104,
      "cynic": 4105,
      "ONE": 4106,
      "fortunate": 4107,
      "followed": 4108,
      "double": 4109,
      "Everyone": 4110,
      "violent": 4111,
      "honor": 4112,
      "snuff": 4113,
      "brilliantly": 4114,
      "Vijay": 4115,
      "???": 4116,
      "limited": 4117,
      "hopeless": 4118,
      "Movies": 4119,
      "holds": 4120,
      "summer": 4121,
      "winning": 4122,
      "capture": 4123,
      "pleasure": 4124,
      "appropri": 4125,
      "discovers": 4126,
      "bloody": 4127,
      "spoilers": 4128,
      "masks": 4129,
      "Teal": 4130,
      "Tech": 4131,
      "Wrinkle": 4132,
      "males": 4133,
      "instance": 4134,
      "teenage": 4135,
      "homosexual": 4136,
      "lawy": 4137,
      "niest": 4138,
      "statement": 4139,
      "patient": 4140,
      "building": 4141,
      "grew": 4142,
      "Masters": 4143,
      "dressed": 4144,
      "IGH": 4145,
      "Sadly": 4146,
      "ordinary": 4147,
      "Henry": 4148,
      "bikini": 4149,
      "depicted": 4150,
      "detective": 4151,
      "psychi": 4152,
      "provoking": 4153,
      "Patrick": 4154,
      "Zombie": 4155,
      "opposite": 4156,
      "dimens": 4157,
      "dreadful": 4158,
      "voyage": 4159,
      "intellectual": 4160,
      "Axel": 4161,
      "innocence": 4162,
      "Audrey": 4163,
      "Wonder": 4164,
      "likable": 4165,
      "Dermott": 4166,
      "California": 4167,
      "Dylan": 4168,
      "Gabriel": 4169,
      "45": 4170,
      "70": 4171,
      "Ama": 4172,
      "BE": 4173,
      "Ba": 4174,
      "Bro": 4175,
      "Billy": 4176,
      "Coul": 4177,
      "DE": 4178,
      "Day": 4179,
      "Dick": 4180,
      "Duck": 4181,
      "Es": 4182,
      "Friend": 4183,
      "Give": 4184,
      "Ghost": 4185,
      "Kirst": 4186,
      "Kath": 4187,
      "MU": 4188,
      "Mary": 4189,
      "Marg": 4190,
      "Masks": 4191,
      "Nand": 4192,
      "Spo": 4193,
      "Two": 4194,
      "UR": 4195,
      "West": 4196,
      "ai": 4197,
      "ahead": 4198,
      "bound": 4199,
      "birth": 4200,
      "dir": 4201,
      "ders": 4202,
      "dry": 4203,
      "dinosaur": 4204,
      "eper": 4205,
      "fac": 4206,
      "fra": 4207,
      "flight": 4208,
      "fool": 4209,
      "fighter": 4210,
      "gust": 4211,
      "gross": 4212,
      "glim": 4213,
      "iors": 4214,
      "ké": 4215,
      "lum": 4216,
      "lord": 4217,
      "latter": 4218,
      "lousy": 4219,
      "mild": 4220,
      "multi": 4221,
      "native": 4222,
      "national": 4223,
      "nasty": 4224,
      "oh": 4225,
      "pen": 4226,
      "pra": 4227,
      "rout": 4228,
      "sun": 4229,
      "sac": 4230,
      "spre": 4231,
      "sinc": 4232,
      "va": 4233,
      "zed": 4234,
      "inch": 4235,
      "ano": 4236,
      "anwhile": 4237,
      "antha": 4238,
      "oned": 4239,
      "atory": 4240,
      "organ": 4241,
      "escap": 4242,
      "alright": 4243,
      "tobac": 4244,
      "ita": 4245,
      "itous": 4246,
      "ara": 4247,
      "aria": 4248,
      "edy": 4249,
      "lyn": 4250,
      "health": 4251,
      "cha": 4252,
      "chase": 4253,
      "channel": 4254,
      "church": 4255,
      "mob": 4256,
      "ica": 4257,
      "thats": 4258,
      "entious": 4259,
      "entially": 4260,
      "ids": 4261,
      "unrealistic": 4262,
      "unfold": 4263,
      "unfortunate": 4264,
      "fill": 4265,
      "filmmaker": 4266,
      "aret": 4267,
      "terribly": 4268,
      "outing": 4269,
      "youth": 4270,
      "aming": 4271,
      "shar": 4272,
      "soph": 4273,
      "compre": 4274,
      "comfort": 4275,
      "aps": 4276,
      "feet": 4277,
      "scr": 4278,
      "traged": 4279,
      "mail": 4280,
      "oodoo": 4281,
      "aint": 4282,
      "agger": 4283,
      "aganda": 4284,
      "tear": 4285,
      "indu": 4286,
      "indust": 4287,
      "oughly": 4288,
      "charm": 4289,
      "quiet": 4290,
      "govern": 4291,
      "umph": 4292,
      "ouris": 4293,
      "spider": 4294,
      "guar": 4295,
      "sheer": 4296,
      "blow": 4297,
      "blue": 4298,
      "ets": 4299,
      "civil": 4300,
      "greater": 4301,
      "tood": 4302,
      "twice": 4303,
      "thrown": 4304,
      "price": 4305,
      "prote": 4306,
      "funniest": 4307,
      "party": 4308,
      "minis": 4309,
      "angle": 4310,
      "flu": 4311,
      "awesome": 4312,
      "characteristic": 4313,
      "century": 4314,
      "rush": 4315,
      "obsess": 4316,
      "standard": 4317,
      "sett": 4318,
      "underground": 4319,
      "Almost": 4320,
      "marvel": 4321,
      "marriage": 4322,
      "carpet": 4323,
      "friendly": 4324,
      "phen": 4325,
      "thoughts": 4326,
      "relative": 4327,
      "court": 4328,
      "warm": 4329,
      "Johnny": 4330,
      "sitcom": 4331,
      "ERS": 4332,
      "lacks": 4333,
      "Allen": 4334,
      "capable": 4335,
      "anticip": 4336,
      "Dean": 4337,
      "glass": 4338,
      "osity": 4339,
      "amazed": 4340,
      "United": 4341,
      "magn": 4342,
      "distant": 4343,
      "ggie": 4344,
      "driving": 4345,
      "Samurai": 4346,
      "Samantha": 4347,
      "generally": 4348,
      "impressed": 4349,
      "flicks": 4350,
      "Sunday": 4351,
      "umbs": 4352,
      "umbers": 4353,
      "confli": 4354,
      "confused": 4355,
      "zabeth": 4356,
      "animated": 4357,
      "weeks": 4358,
      "regard": 4359,
      "continue": 4360,
      "McDermott": 4361,
      "energy": 4362,
      "Victor": 4363,
      "shocked": 4364,
      "Christi": 4365,
      "hoping": 4366,
      "hopes": 4367,
      "Charles": 4368,
      "efforts": 4369,
      "touching": 4370,
      "actresses": 4371,
      "sumably": 4372,
      "apartment": 4373,
      "forgettable": 4374,
      "cultural": 4375,
      "Doggie": 4376,
      "Meanwhile": 4377,
      "Poké": 4378,
      "Raj": 4379,
      "results": 4380,
      "virt": 4381,
      "device": 4382,
      "provided": 4383,
      "Mostel": 4384,
      "drawn": 4385,
      "student": 4386,
      "unlikely": 4387,
      "occasionally": 4388,
      "models": 4389,
      "continuity": 4390,
      "ivity": 4391,
      "faithful": 4392,
      "destroyed": 4393,
      "tender": 4394,
      "Major": 4395,
      "Airport": 4396,
      "floor": 4397,
      "sinking": 4398,
      "Sandra": 4399,
      "ilogy": 4400,
      "remarkable": 4401,
      "theatre": 4402,
      "genuinely": 4403,
      "satisfying": 4404,
      "protagonist": 4405,
      "historical": 4406,
      "prepared": 4407,
      "available": 4408,
      "Elizabeth": 4409,
      "shadow": 4410,
      "propaganda": 4411,
      "Christ": 4412,
      "explanation": 4413,
      "Azaria": 4414,
      "relief": 4415,
      "reporter": 4416,
      "Rhine": 4417,
      "bizarre": 4418,
      "labor": 4419,
      "independent": 4420,
      "psychiatr": 4421,
      "dimensional": 4422,
      "Coulouris": 4423,
      "Friends": 4424,
      "Spoil": 4425,
      "sincere": 4426,
      "compreh": 4427,
      "government": 4428,
      ".'": 4429,
      "50s": 4430,
      "?!": 4431,
      "AB": 4432,
      "AP": 4433,
      "App": 4434,
      "Avoid": 4435,
      "Bor": 4436,
      "Bax": 4437,
      "Chey": 4438,
      "Da": 4439,
      "Fi": 4440,
      "FOR": 4441,
      "Gen": 4442,
      "Karis": 4443,
      "Lon": 4444,
      "Last": 4445,
      "Link": 4446,
      "Mur": 4447,
      "Matt": 4448,
      "MAN": 4449,
      "Max": 4450,
      "Ni": 4451,
      "Pri": 4452,
      "RF": 4453,
      "Ru": 4454,
      "Rick": 4455,
      "Str": 4456,
      "SPO": 4457,
      "Tat": 4458,
      "Tar": 4459,
      "Tri": 4460,
      "Tra": 4461,
      "Taut": 4462,
      "Tapping": 4463,
      "UN": 4464,
      "UT": 4465,
      "Wall": 4466,
      "bage": 4467,
      "bio": 4468,
      "cs": 4469,
      "cate": 4470,
      "cup": 4471,
      "dan": 4472,
      "fle": 4473,
      "fif": 4474,
      "fits": 4475,
      "hint": 4476,
      "iy": 4477,
      "kti": 4478,
      "leng": 4479,
      "mally": 4480,
      "nically": 4481,
      "ology": 4482,
      "punch": 4483,
      "pacing": 4484,
      "rain": 4485,
      "rhy": 4486,
      "rarely": 4487,
      "sme": 4488,
      "size": 4489,
      "sedu": 4490,
      "tun": 4491,
      "vit": 4492,
      "vote": 4493,
      "voodoo": 4494,
      "wing": 4495,
      "zo": 4496,
      "iner": 4497,
      "indeed": 4498,
      "thes": 4499,
      "ani": 4500,
      "anime": 4501,
      "remake": 4502,
      "refresh": 4503,
      "reminis": 4504,
      "enc": 4505,
      "enge": 4506,
      "ency": 4507,
      "enthus": 4508,
      "encounter": 4509,
      "orient": 4510,
      "assu": 4511,
      "asked": 4512,
      "toler": 4513,
      "ardo": 4514,
      "arrest": 4515,
      "stal": 4516,
      "heir": 4517,
      "sey": 4518,
      "lebr": 4519,
      "iced": 4520,
      "adap": 4521,
      "verse": 4522,
      "forms": 4523,
      "lia": 4524,
      "wash": 4525,
      "celebr": 4526,
      "idge": 4527,
      "abulous": 4528,
      "onel": 4529,
      "outs": 4530,
      "peace": 4531,
      "shir": 4532,
      "soap": 4533,
      "comics": 4534,
      "compet": 4535,
      "dece": 4536,
      "accompl": 4537,
      "scared": 4538,
      "thern": 4539,
      "manage": 4540,
      "trilogy": 4541,
      "math": 4542,
      "loves": 4543,
      "loving": 4544,
      "poster": 4545,
      "user": 4546,
      "ause": 4547,
      "nox": 4548,
      "iffer": 4549,
      "presumably": 4550,
      "asts": 4551,
      "charis": 4552,
      "saved": 4553,
      "anybody": 4554,
      "overwhel": 4555,
      "grab": 4556,
      "grain": 4557,
      "gues": 4558,
      "arson": 4559,
      "disgust": 4560,
      "offensive": 4561,
      "serve": 4562,
      "served": 4563,
      "Thom": 4564,
      "Those": 4565,
      "function": 4566,
      "lesser": 4567,
      "lesson": 4568,
      "finale": 4569,
      "knowledge": 4570,
      "States": 4571,
      "Hey": 4572,
      "center": 4573,
      "centric": 4574,
      "beings": 4575,
      "ashes": 4576,
      "ashed": 4577,
      "desire": 4578,
      "genres": 4579,
      "pretend": 4580,
      "pretentious": 4581,
      "miser": 4582,
      "hole": 4583,
      "drunk": 4584,
      "marry": 4585,
      "marks": 4586,
      "trial": 4587,
      "Second": 4588,
      "emp": 4589,
      "calls": 4590,
      "invent": 4591,
      "comedic": 4592,
      "appearing": 4593,
      "Being": 4594,
      "compan": 4595,
      "fix": 4596,
      "personality": 4597,
      "warned": 4598,
      "Ross": 4599,
      "voices": 4600,
      "lacking": 4601,
      "solution": 4602,
      "breath": 4603,
      "puzz": 4604,
      "valu": 4605,
      "creates": 4606,
      "Death": 4607,
      "stolen": 4608,
      "Afgh": 4609,
      "rented": 4610,
      "element": 4611,
      "nicely": 4612,
      "murders": 4613,
      "location": 4614,
      "included": 4615,
      "freak": 4616,
      "breaks": 4617,
      "sadly": 4618,
      "2004": 4619,
      "promise": 4620,
      "experiences": 4621,
      "Grand": 4622,
      "slowly": 4623,
      "dealt": 4624,
      "levels": 4625,
      "Shah": 4626,
      "Shakti": 4627,
      "Woody": 4628,
      "legend": 4629,
      "treated": 4630,
      "touches": 4631,
      "touched": 4632,
      "introduction": 4633,
      "learns": 4634,
      "Blue": 4635,
      "relationships": 4636,
      "1943": 4637,
      "bottle": 4638,
      "honestly": 4639,
      "Advent": 4640,
      "guns": 4641,
      "sequels": 4642,
      "narration": 4643,
      "rapists": 4644,
      "reflect": 4645,
      "connected": 4646,
      "000": 4647,
      "drop": 4648,
      "green": 4649,
      "Acting": 4650,
      "ibility": 4651,
      "controvers": 4652,
      "Canada": 4653,
      "anchor": 4654,
      "broad": 4655,
      "executed": 4656,
      "Doug": 4657,
      "thoroughly": 4658,
      "Smith": 4659,
      "lucky": 4660,
      "psychological": 4661,
      "embarrassing": 4662,
      "nominated": 4663,
      "enemy": 4664,
      "describe": 4665,
      "Hope": 4666,
      "Jessie": 4667,
      "garbage": 4668,
      "insult": 4669,
      "photography": 4670,
      "contrived": 4671,
      "curious": 4672,
      "ethnic": 4673,
      "practically": 4674,
      "Angel": 4675,
      "gender": 4676,
      "challeng": 4677,
      "discussion": 4678,
      "wanna": 4679,
      "demand": 4680,
      "Wayne": 4681,
      "merely": 4682,
      "Leonardo": 4683,
      "Sanjay": 4684,
      "Simpson": 4685,
      "redeeming": 4686,
      "Arabian": 4687,
      "Delpy": 4688,
      "Martin": 4689,
      "rescue": 4690,
      "demonstr": 4691,
      "Bobby": 4692,
      "Listener": 4693,
      "Toni": 4694,
      "Bogart": 4695,
      "contemporary": 4696,
      "Hawke": 4697,
      "Obviously": 4698,
      "cousin": 4699,
      "commercial": 4700,
      "empty": 4701,
      "IGHT": 4702,
      "Margaret": 4703,
      "Nandini": 4704,
      "dinosaurs": 4705,
      "routine": 4706,
      "tragedy": 4707,
      "conflict": 4708,
      "psychiatrist": 4709,
      "Baxter": 4710,
      "Cheyenne": 4711,
      "Karisma": 4712,
      "London": 4713,
      "SPOIL": 4714,
      "Tautou": 4715,
      "Are": 4716,
      "Achar": 4717,
      "Afr": 4718,
      "Auss": 4719,
      "Bud": 4720,
      "Bach": 4721,
      "DON": 4722,
      "Ethan": 4723,
      "Fest": 4724,
      "Frid": 4725,
      "Finally": 4726,
      "Gi": 4727,
      "Garson": 4728,
      "HA": 4729,
      "ID": 4730,
      "Ken": 4731,
      "Kids": 4732,
      "LD": 4733,
      "LY": 4734,
      "Line": 4735,
      "Mal": 4736,
      "Much": 4737,
      "Monic": 4738,
      "Morton": 4739,
      "Nat": 4740,
      "Oper": 4741,
      "Pat": 4742,
      "Part": 4743,
      "Paris": 4744,
      "RD": 4745,
      "Ry": 4746,
      "Ram": 4747,
      "S2": 4748,
      "Sol": 4749,
      "Sci": 4750,
      "Sche": 4751,
      "Soc": 4752,
      "Special": 4753,
      "Ted": 4754,
      "Tow": 4755,
      "UE": 4756,
      "Ver": 4757,
      "Val": 4758,
      "WW": 4759,
      "Will": 4760,
      "ba": 4761,
      "bs": 4762,
      "bble": 4763,
      "bond": 4764,
      "da": 4765,
      "dum": 4766,
      "fal": 4767,
      "ggling": 4768,
      "hill": 4769,
      "hire": 4770,
      "hurt": 4771,
      "larg": 4772,
      "mart": 4773,
      "mum": 4774,
      "nut": 4775,
      "oy": 4776,
      "othy": 4777,
      "pin": 4778,
      "pup": 4779,
      "rab": 4780,
      "rant": 4781,
      "sar": 4782,
      "slaughter": 4783,
      "ube": 4784,
      "vive": 4785,
      "vague": 4786,
      "ws": 4787,
      "wart": 4788,
      "yal": 4789,
      "threat": 4790,
      "inci": 4791,
      "theory": 4792,
      "anc": 4793,
      "angry": 4794,
      "isms": 4795,
      "redi": 4796,
      "rema": 4797,
      "reaction": 4798,
      "represent": 4799,
      "reactions": 4800,
      "onte": 4801,
      "ators": 4802,
      "ingredi": 4803,
      "asp": 4804,
      "alian": 4805,
      "toward": 4806,
      "itz": 4807,
      "arms": 4808,
      "stuck": 4809,
      "stays": 4810,
      "bright": 4811,
      "/>-": 4812,
      "section": 4813,
      "leine": 4814,
      "chair": 4815,
      "beha": 4816,
      "icle": 4817,
      "icate": 4818,
      "vey": 4819,
      "aded": 4820,
      "enter": 4821,
      "forces": 4822,
      "formed": 4823,
      "lif": 4824,
      "mechan": 4825,
      "iders": 4826,
      "unknown": 4827,
      "unnecessary": 4828,
      "outrage": 4829,
      "soever": 4830,
      "plans": 4831,
      "sco": 4832,
      "exp": 4833,
      "extr": 4834,
      "excess": 4835,
      "mathem": 4836,
      "los": 4837,
      "logue": 4838,
      "essential": 4839,
      "conce": 4840,
      "doz": 4841,
      "aud": 4842,
      "auto": 4843,
      "opens": 4844,
      "agent": 4845,
      "ifies": 4846,
      "wear": 4847,
      "weap": 4848,
      "olor": 4849,
      "indul": 4850,
      "istan": 4851,
      "istically": 4852,
      "hasn": 4853,
      "inept": 4854,
      "whatsoever": 4855,
      "thered": 4856,
      "hadn": 4857,
      "spaper": 4858,
      "aker": 4859,
      "aking": 4860,
      "afonte": 4861,
      "itty": 4862,
      "distr": 4863,
      "disco": 4864,
      "blown": 4865,
      "player": 4866,
      "iceberg": 4867,
      "clunk": 4868,
      "Inter": 4869,
      "prince": 4870,
      "interview": 4871,
      "finitely": 4872,
      "credi": 4873,
      "forever": 4874,
      "awards": 4875,
      "desc": 4876,
      "destru": 4877,
      "horrific": 4878,
      "perform": 4879,
      "gotten": 4880,
      "steal": 4881,
      "survive": 4882,
      "downright": 4883,
      "insane": 4884,
      "ocative": 4885,
      "versions": 4886,
      "helm": 4887,
      "lighting": 4888,
      "buying": 4889,
      "screening": 4890,
      "poses": 4891,
      "producing": 4892,
      "scripts": 4893,
      "calling": 4894,
      "resort": 4895,
      "dying": 4896,
      "learned": 4897,
      "compare": 4898,
      "laughing": 4899,
      "League": 4900,
      "cameo": 4901,
      "kidn": 4902,
      "personally": 4903,
      "warming": 4904,
      "cuts": 4905,
      "seconds": 4906,
      "arently": 4907,
      "clothes": 4908,
      "colors": 4909,
      "collect": 4910,
      "Donna": 4911,
      "Donald": 4912,
      "possess": 4913,
      "sounded": 4914,
      "creating": 4915,
      "ANT": 4916,
      "kespe": 4917,
      "eyed": 4918,
      "renting": 4919,
      "rental": 4920,
      "formula": 4921,
      "imagin": 4922,
      "Unless": 4923,
      "England": 4924,
      "midt": 4925,
      "prime": 4926,
      "NOW": 4927,
      "Pete": 4928,
      "causes": 4929,
      "passed": 4930,
      "excited": 4931,
      "magical": 4932,
      "cynical": 4933,
      "Steve": 4934,
      "driven": 4935,
      "suspend": 4936,
      "freed": 4937,
      "choices": 4938,
      "Sundance": 4939,
      "popcorn": 4940,
      "2006": 4941,
      "Boss": 4942,
      "remembered": 4943,
      "SG1": 4944,
      "snakes": 4945,
      "animals": 4946,
      "continues": 4947,
      "delivery": 4948,
      "Shakespe": 4949,
      "speaks": 4950,
      "rifying": 4951,
      "profound": 4952,
      "captures": 4953,
      "Shanks": 4954,
      "Abby": 4955,
      "meaningful": 4956,
      "ENT": 4957,
      "urban": 4958,
      "sisters": 4959,
      "tradition": 4960,
      "nicolor": 4961,
      "vira": 4962,
      "focuses": 4963,
      "instantly": 4964,
      "purely": 4965,
      "throwing": 4966,
      "Green": 4967,
      "reveals": 4968,
      "study": 4969,
      "students": 4970,
      "mysterious": 4971,
      "1976": 4972,
      "sucks": 4973,
      "clichés": 4974,
      "concerned": 4975,
      "complaint": 4976,
      "visuals": 4977,
      "anchise": 4978,
      "receive": 4979,
      "execution": 4980,
      "destroy": 4981,
      "graphic": 4982,
      "Muslim": 4983,
      "pulls": 4984,
      "teacher": 4985,
      "delivered": 4986,
      "Elvira": 4987,
      "hito": 4988,
      "massive": 4989,
      "accused": 4990,
      "expressions": 4991,
      "described": 4992,
      "journal": 4993,
      "flashbacks": 4994,
      "ilosoph": 4995,
      "perspect": 4996,
      "delightful": 4997,
      "transport": 4998,
      "Basically": 4999,
      "Schmidt": 5000,
      "curiosity": 5001,
      "dangerous": 5002,
      "dollars": 5003,
      "Emily": 5004,
      "Highly": 5005,
      "Laura": 5006,
      "challenge": 5007,
      "surviv": 5008,
      "Belafonte": 5009,
      "damn": 5010,
      "guilty": 5011,
      "craft": 5012,
      "WORST": 5013,
      "Lifetime": 5014,
      "bullets": 5015,
      "crowd": 5016,
      "physically": 5017,
      "habit": 5018,
      "target": 5019,
      "liberal": 5020,
      "ladies": 5021,
      "plantation": 5022,
      "comparison": 5023,
      "Culkin": 5024,
      "gratu": 5025,
      "received": 5026,
      "Dorothy": 5027,
      "Madeleine": 5028,
      "fascinating": 5029,
      "Elephant": 5030,
      "studio": 5031,
      "passengers": 5032,
      "lawyer": 5033,
      "Amazing": 5034,
      "dirty": 5035,
      "tobacco": 5036,
      "comfortable": 5037,
      "inducing": 5038,
      "industry": 5039,
      "guarante": 5040,
      "Pokémon": 5041,
      "Apparently": 5042,
      "Linklater": 5043,
      "Wallace": 5044,
      "reminiscent": 5045,
      "Afghan": 5046,
      "Acharya": 5047,
      "Friday": 5048,
      "Monica": 5049,
      "Opera": 5050,
      "Society": 5051,
      "mechanical": 5052,
      "24": 5053,
      "3r": 5054,
      "77": 5055,
      "Ay": 5056,
      "Aish": 5057,
      "Again": 5058,
      "Bha": 5059,
      "Bri": 5060,
      "Broad": 5061,
      "CT": 5062,
      "Cine": 5063,
      "Cry": 5064,
      "Caul": 5065,
      "Dam": 5066,
      "End": 5067,
      "East": 5068,
      "EVER": 5069,
      "FE": 5070,
      "Ford": 5071,
      "GM": 5072,
      "Hon": 5073,
      "Has": 5074,
      "Hit": 5075,
      "Hard": 5076,
      "Hong": 5077,
      "Knox": 5078,
      "Lau": 5079,
      "Law": 5080,
      "Lost": 5081,
      "Mer": 5082,
      "Mic": 5083,
      "Mex": 5084,
      "Mau": 5085,
      "Met": 5086,
      "Make": 5087,
      "Mik": 5088,
      "Malone": 5089,
      "Nation": 5090,
      "Next": 5091,
      "Pre": 5092,
      "Plot": 5093,
      "Produ": 5094,
      "Ron": 5095,
      "Such": 5096,
      "Spie": 5097,
      "Tw": 5098,
      "WA": 5099,
      "Wow": 5100,
      "Western": 5101,
      "ape": 5102,
      "bi": 5103,
      "bon": 5104,
      "bing": 5105,
      "cab": 5106,
      "cro": 5107,
      "ccentric": 5108,
      "dut": 5109,
      "dome": 5110,
      "emer": 5111,
      "eccentric": 5112,
      "fing": 5113,
      "fir": 5114,
      "hes": 5115,
      "hun": 5116,
      "hur": 5117,
      "hound": 5118,
      "hits": 5119,
      "hated": 5120,
      "iers": 5121,
      "ji": 5122,
      "ka": 5123,
      "luster": 5124,
      "lberg": 5125,
      "mount": 5126,
      "ners": 5127,
      "nav": 5128,
      "oil": 5129,
      "olog": 5130,
      "rul": 5131,
      "range": 5132,
      "sunk": 5133,
      "tent": 5134,
      "tour": 5135,
      "text": 5136,
      "tank": 5137,
      "tune": 5138,
      "vyn": 5139,
      "witch": 5140,
      "yle": 5141,
      "zsa": 5142,
      "zard": 5143,
      "inf": 5144,
      "theatr": 5145,
      "erous": 5146,
      "isher": 5147,
      "rep": 5148,
      "rell": 5149,
      "redu": 5150,
      "recover": 5151,
      "replaced": 5152,
      "orm": 5153,
      "asking": 5154,
      "iture": 5155,
      "itute": 5156,
      "army": 5157,
      "stat": 5158,
      "stance": 5159,
      "iling": 5160,
      "ille": 5161,
      "hem": 5162,
      "hears": 5163,
      "oms": 5164,
      "chose": 5165,
      "whilst": 5166,
      "ico": 5167,
      "iche": 5168,
      "ication": 5169,
      "icable": 5170,
      "ado": 5171,
      "adop": 5172,
      "advert": 5173,
      "oting": 5174,
      "lims": 5175,
      "active": 5176,
      "cel": 5177,
      "idents": 5178,
      "abuse": 5179,
      "unable": 5180,
      "uninteresting": 5181,
      "ooper": 5182,
      "terior": 5183,
      "ironic": 5184,
      "ripped": 5185,
      "ambit": 5186,
      "suhito": 5187,
      "alled": 5188,
      "buted": 5189,
      "decl": 5190,
      "depress": 5191,
      "depi": 5192,
      "deeper": 5193,
      "ulate": 5194,
      "plin": 5195,
      "noted": 5196,
      "sche": 5197,
      "scious": 5198,
      "illing": 5199,
      "illust": 5200,
      "maid": 5201,
      "urse": 5202,
      "losing": 5203,
      "essentially": 5204,
      "estate": 5205,
      "convi": 5206,
      "ained": 5207,
      "agers": 5208,
      "nostal": 5209,
      "Italian": 5210,
      "prejud": 5211,
      "ups": 5212,
      "upper": 5213,
      "progress": 5214,
      "goof": 5215,
      "goers": 5216,
      "intense": 5217,
      "therefore": 5218,
      "owner": 5219,
      "epic": 5220,
      "mented": 5221,
      "spare": 5222,
      "spell": 5223,
      "shower": 5224,
      "raj": 5225,
      "displays": 5226,
      "offered": 5227,
      "....<": 5228,
      "seless": 5229,
      "princi": 5230,
      "crabs": 5231,
      "finan": 5232,
      "achy": 5233,
      "Heart": 5234,
      "aware": 5235,
      "ruin": 5236,
      "chell": 5237,
      "believed": 5238,
      "newspaper": 5239,
      "ization": 5240,
      "turning": 5241,
      "letting": 5242,
      "screw": 5243,
      "miscast": 5244,
      "stein": 5245,
      "mono": 5246,
      "month": 5247,
      "via": 5248,
      "vivid": 5249,
      "factor": 5250,
      "illian": 5251,
      "market": 5252,
      "buff": 5253,
      "carried": 5254,
      "phants": 5255,
      "philosoph": 5256,
      "bigger": 5257,
      "bitter": 5258,
      "empl": 5259,
      "appalling": 5260,
      "command": 5261,
      "Americans": 5262,
      "attitude": 5263,
      "wondered": 5264,
      "resto": 5265,
      "motor": 5266,
      "explore": 5267,
      "hyster": 5268,
      "originally": 5269,
      "Rozsa": 5270,
      "careful": 5271,
      "boyfriend": 5272,
      "lackluster": 5273,
      "dramas": 5274,
      "frust": 5275,
      "Brook": 5276,
      "campy": 5277,
      "shake": 5278,
      "relev": 5279,
      "nightmare": 5280,
      "syn": 5281,
      "Morris": 5282,
      "engage": 5283,
      "parody": 5284,
      "STAR": 5285,
      "elect": 5286,
      "elephants": 5287,
      "follows": 5288,
      "Luc": 5289,
      "admir": 5290,
      "portrays": 5291,
      "murdered": 5292,
      "ATCH": 5293,
      "Sunset": 5294,
      "confusing": 5295,
      "deserve": 5296,
      "normal": 5297,
      "experienced": 5298,
      "spirits": 5299,
      "Bern": 5300,
      "paint": 5301,
      "painfully": 5302,
      "allows": 5303,
      "featuring": 5304,
      "realizes": 5305,
      "regret": 5306,
      "transfer": 5307,
      "Except": 5308,
      "listening": 5309,
      "Colonel": 5310,
      "successfully": 5311,
      ".)<": 5312,
      "village": 5313,
      "Oscars": 5314,
      "axy": 5315,
      "winner": 5316,
      "REAT": 5317,
      "changing": 5318,
      "About": 5319,
      "Abbey": 5320,
      "reminds": 5321,
      "spoiler": 5322,
      "treasure": 5323,
      "yaji": 5324,
      "Adam": 5325,
      "cording": 5326,
      "Wrong": 5327,
      "Chamberlains": 5328,
      "Nights": 5329,
      "jumped": 5330,
      "strict": 5331,
      "provides": 5332,
      "largely": 5333,
      "OUT": 5334,
      "suffered": 5335,
      "advice": 5336,
      "necessarily": 5337,
      "occasional": 5338,
      "pati": 5339,
      "sucked": 5340,
      "Plus": 5341,
      "suspects": 5342,
      "Muslims": 5343,
      "constant": 5344,
      "service": 5345,
      "sexuality": 5346,
      "psycholog": 5347,
      "embarrassed": 5348,
      "pathy": 5349,
      "1930s": 5350,
      "ounce": 5351,
      "besides": 5352,
      "remarkably": 5353,
      "amateurish": 5354,
      "travel": 5355,
      "collection": 5356,
      "Wilhelm": 5357,
      "theaters": 5358,
      "reference": 5359,
      "remotely": 5360,
      "soldiers": 5361,
      "welcome": 5362,
      "Walk": 5363,
      "Chaplin": 5364,
      "trailer": 5365,
      "drug": 5366,
      "responsible": 5367,
      "Lamas": 5368,
      "gambl": 5369,
      "initial": 5370,
      "melodrama": 5371,
      "hackney": 5372,
      "Atlant": 5373,
      "Roman": 5374,
      "revealed": 5375,
      "guts": 5376,
      "constructed": 5377,
      "precious": 5378,
      "lux": 5379,
      "nonsense": 5380,
      "pisi": 5381,
      "expert": 5382,
      "dubbed": 5383,
      "specific": 5384,
      "spectacular": 5385,
      "suffers": 5386,
      "appropriate": 5387,
      "Technicolor": 5388,
      "Kirsten": 5389,
      "frame": 5390,
      "chaos": 5391,
      "sharp": 5392,
      "marvelous": 5393,
      "relatively": 5394,
      "magnific": 5395,
      "Tatsuhito": 5396,
      "iyyaji": 5397,
      "valuable": 5398,
      "Aussie": 5399,
      "Festival": 5400,
      "Schepisi": 5401,
      "false": 5402,
      "remains": 5403,
      "destruction": 5404,
      "perspective": 5405,
      "gratuitous": 5406,
      "Afghanistan": 5407,
      "3rd": 5408,
      "Broadway": 5409,
      "Caulfield": 5410,
      "Miklos": 5411,
      "Spielberg": 5412,
      "!),": 5413,
      "\"?": 5414,
      "Amy": 5415,
      "Apr": 5416,
      "Award": 5417,
      "Apop": 5418,
      "Bes": 5419,
      "Bac": 5420,
      "Brom": 5421,
      "Bell": 5422,
      "Burn": 5423,
      "Blockbuster": 5424,
      "Bolt": 5425,
      "Cy": 5426,
      "Call": 5427,
      "Could": 5428,
      "Cass": 5429,
      "Cey": 5430,
      "Cresta": 5431,
      "Cooper": 5432,
      "Daw": 5433,
      "Evil": 5434,
      "Eva": 5435,
      "Four": 5436,
      "Further": 5437,
      "Father": 5438,
      "GO": 5439,
      "Gri": 5440,
      "Gra": 5441,
      "Gross": 5442,
      "GREAT": 5443,
      "HU": 5444,
      "Happ": 5445,
      "Harr": 5446,
      "Hindi": 5447,
      "Im": 5448,
      "Judge": 5449,
      "Kel": 5450,
      "Kend": 5451,
      "Kane": 5452,
      "Kurt": 5453,
      "LI": 5454,
      "Laz": 5455,
      "Lillian": 5456,
      "MS": 5457,
      "MY": 5458,
      "Mit": 5459,
      "Med": 5460,
      "Molly": 5461,
      "Ocean": 5462,
      "Pi": 5463,
      "Pand": 5464,
      "Person": 5465,
      "Que": 5466,
      "Rory": 5467,
      "SF": 5468,
      "Screw": 5469,
      "South": 5470,
      "Scrappy": 5471,
      "Turn": 5472,
      "UK": 5473,
      "Vir": 5474,
      "Wat": 5475,
      "Whether": 5476,
      "YET": 5477,
      "aves": 5478,
      "ben": 5479,
      "bat": 5480,
      "bay": 5481,
      "bby": 5482,
      "bind": 5483,
      "bber": 5484,
      "bath": 5485,
      "blockbuster": 5486,
      "cars": 5487,
      "een": 5488,
      "fu": 5489,
      "fic": 5490,
      "furn": 5491,
      "fright": 5492,
      "fond": 5493,
      "faced": 5494,
      "gap": 5495,
      "gag": 5496,
      "gig": 5497,
      "hid": 5498,
      "hors": 5499,
      "jors": 5500,
      "junk": 5501,
      "ku": 5502,
      "lap": 5503,
      "lest": 5504,
      "mill": 5505,
      "nu": 5506,
      "nip": 5507,
      "naked": 5508,
      "oes": 5509,
      "oples": 5510,
      "pit": 5511,
      "pity": 5512,
      "page": 5513,
      "rous": 5514,
      "sed": 5515,
      "sli": 5516,
      "send": 5517,
      "slim": 5518,
      "soft": 5519,
      "stood": 5520,
      "tion": 5521,
      "tur": 5522,
      "tense": 5523,
      "task": 5524,
      "uct": 5525,
      "ugs": 5526,
      "vul": 5527,
      "vind": 5528,
      "west": 5529,
      "wings": 5530,
      "western": 5531,
      "yup": 5532,
      "thless": 5533,
      "thony": 5534,
      "threw": 5535,
      "inher": 5536,
      "inane": 5537,
      "infer": 5538,
      "inju": 5539,
      "incoherent": 5540,
      "influ": 5541,
      "erotic": 5542,
      "isa": 5543,
      "ister": 5544,
      "resur": 5545,
      "reput": 5546,
      "returns": 5547,
      "onment": 5548,
      "enem": 5549,
      "ato": 5550,
      "attr": 5551,
      "ori": 5552,
      "orter": 5553,
      "esar": 5554,
      "assem": 5555,
      "aly": 5556,
      "toy": 5557,
      "itiz": 5558,
      "itions": 5559,
      "arter": 5560,
      "arian": 5561,
      "eds": 5562,
      "stink": 5563,
      "staged": 5564,
      "brow": 5565,
      "lyr": 5566,
      "omer": 5567,
      "leen": 5568,
      "chr": 5569,
      "chore": 5570,
      "bec": 5571,
      "beloved": 5572,
      "mock": 5573,
      "whis": 5574,
      "iell": 5575,
      "ada": 5576,
      "adays": 5577,
      "entry": 5578,
      "format": 5579,
      "forgiven": 5580,
      "lian": 5581,
      "ayson": 5582,
      "unwatchable": 5583,
      "unbear": 5584,
      "unrelated": 5585,
      "lder": 5586,
      "ares": 5587,
      "irk": 5588,
      "irrit": 5589,
      "elic": 5590,
      "gem": 5591,
      "rial": 5592,
      "rive": 5593,
      "amor": 5594,
      "sue": 5595,
      "rog": 5596,
      "image": 5597,
      "improve": 5598,
      "shut": 5599,
      "shif": 5600,
      "shod": 5601,
      "bution": 5602,
      "deals": 5603,
      "determin": 5604,
      "notorious": 5605,
      "acle": 5606,
      "fear": 5607,
      "femin": 5608,
      "exists": 5609,
      "exotic": 5610,
      "iller": 5611,
      "dig": 5612,
      "trite": 5613,
      "trade": 5614,
      "neat": 5615,
      "poem": 5616,
      "conven": 5617,
      "dogs": 5618,
      "doomed": 5619,
      "ains": 5620,
      "seek": 5621,
      "teens": 5622,
      "worried": 5623,
      "olan": 5624,
      "ollow": 5625,
      "prost": 5626,
      "justify": 5627,
      "charged": 5628,
      "sake": 5629,
      "myth": 5630,
      "inevit": 5631,
      "timeless": 5632,
      "intage": 5633,
      "intens": 5634,
      "intended": 5635,
      "ourselves": 5636,
      "whenever": 5637,
      "evening": 5638,
      "grid": 5639,
      "guest": 5640,
      "aku": 5641,
      "yeah": 5642,
      "blance": 5643,
      "blows": 5644,
      "ppy": 5645,
      "Ingrid": 5646,
      "icked": 5647,
      "wells": 5648,
      "Thank": 5649,
      "Through": 5650,
      "realm": 5651,
      "realistically": 5652,
      "pray": 5653,
      "proud": 5654,
      "Andrew": 5655,
      "selfish": 5656,
      "ached": 5657,
      "evo": 5658,
      "evident": 5659,
      "awk": 5660,
      "afterwards": 5661,
      "code": 5662,
      "cohol": 5663,
      "ruthless": 5664,
      "1930": 5665,
      "1912": 5666,
      "talents": 5667,
      "talked": 5668,
      "horrend": 5669,
      "observ": 5670,
      "performed": 5671,
      "believ": 5672,
      "lett": 5673,
      "surreal": 5674,
      "facts": 5675,
      "versity": 5676,
      "helle": 5677,
      "lights": 5678,
      "sons": 5679,
      "tripe": 5680,
      "friendship": 5681,
      "THING": 5682,
      "product": 5683,
      "mindless": 5684,
      "completed": 5685,
      "embr": 5686,
      "commit": 5687,
      "committing": 5688,
      "harder": 5689,
      "context": 5690,
      "Anthony": 5691,
      "singer": 5692,
      "relent": 5693,
      "reluct": 5694,
      "wonderfully": 5695,
      "Young": 5696,
      "Beaut": 5697,
      "dys": 5698,
      "subtitles": 5699,
      "Legend": 5700,
      "decision": 5701,
      "hyped": 5702,
      "dialogues": 5703,
      "ignor": 5704,
      "border": 5705,
      "Roy": 5706,
      "ERE": 5707,
      "cares": 5708,
      "franchise": 5709,
      "breasts": 5710,
      "halani": 5711,
      "adds": 5712,
      "definite": 5713,
      "Definitely": 5714,
      "clim": 5715,
      "engaged": 5716,
      "Toby": 5717,
      "Uni": 5718,
      "Someone": 5719,
      "primary": 5720,
      "passing": 5721,
      "passion": 5722,
      "slave": 5723,
      "meeting": 5724,
      "guessing": 5725,
      "distri": 5726,
      "Stett": 5727,
      "nedy": 5728,
      "exceptional": 5729,
      "fortune": 5730,
      "Lugia": 5731,
      "generation": 5732,
      "Spain": 5733,
      "admire": 5734,
      "frequ": 5735,
      "silver": 5736,
      "succeed": 5737,
      "Indians": 5738,
      "*****": 5739,
      "ART": 5740,
      "sadistic": 5741,
      "2007": 5742,
      "techni": 5743,
      "strongly": 5744,
      "normally": 5745,
      "humorous": 5746,
      "supported": 5747,
      "Grayson": 5748,
      "football": 5749,
      "increas": 5750,
      "dealing": 5751,
      "Govind": 5752,
      "Martha": 5753,
      "Street": 5754,
      "Shame": 5755,
      "Cannav": 5756,
      "policemen": 5757,
      "treats": 5758,
      "Anyone": 5759,
      "Perry": 5760,
      "numerous": 5761,
      "Shinju": 5762,
      "introduce": 5763,
      "suspenseful": 5764,
      "galaxy": 5765,
      "Does": 5766,
      "balls": 5767,
      "trained": 5768,
      "costs": 5769,
      "Superdome": 5770,
      "harsh": 5771,
      "fires": 5772,
      "opinions": 5773,
      "flawless": 5774,
      "1990": 5775,
      "1997": 5776,
      "Horrible": 5777,
      "Watching": 5778,
      "commentary": 5779,
      "villains": 5780,
      "North": 5781,
      "vironment": 5782,
      "homeless": 5783,
      "strip": 5784,
      "strike": 5785,
      "crush": 5786,
      "drawing": 5787,
      "refuses": 5788,
      "oids": 5789,
      "paying": 5790,
      "dreams": 5791,
      "weekend": 5792,
      "ultimate": 5793,
      "families": 5794,
      "staying": 5795,
      "concerning": 5796,
      "Britain": 5797,
      "continued": 5798,
      "Amanda": 5799,
      "bbing": 5800,
      "spots": 5801,
      "judge": 5802,
      "disasters": 5803,
      "1980": 5804,
      "satisfied": 5805,
      "Hammond": 5806,
      "mixed": 5807,
      "combine": 5808,
      "graphics": 5809,
      "planets": 5810,
      "burg": 5811,
      "burst": 5812,
      "nomination": 5813,
      "window": 5814,
      "1939": 5815,
      "qualities": 5816,
      "Otherwise": 5817,
      "loaded": 5818,
      "Basra": 5819,
      "Wilson": 5820,
      "religion": 5821,
      "educ": 5822,
      "contempl": 5823,
      "LOVE": 5824,
      "victims": 5825,
      "enchant": 5826,
      "wealthy": 5827,
      "drugs": 5828,
      "surrounding": 5829,
      "Atlantic": 5830,
      "achievement": 5831,
      "Melvyn": 5832,
      "contrast": 5833,
      "intentional": 5834,
      "slapstick": 5835,
      "translated": 5836,
      "stereotypes": 5837,
      "Foxx": 5838,
      "Power": 5839,
      "SUCK": 5840,
      "inspiring": 5841,
      "require": 5842,
      "stunts": 5843,
      "chases": 5844,
      "intriguing": 5845,
      "Tales": 5846,
      "ginia": 5847,
      "samurai": 5848,
      "intentionally": 5849,
      "significant": 5850,
      "associated": 5851,
      "cynicism": 5852,
      "homosexuality": 5853,
      "Wonderful": 5854,
      "MUCH": 5855,
      "glimpse": 5856,
      "Christmas": 5857,
      "Nihalani": 5858,
      "category": 5859,
      "dancing": 5860,
      "smell": 5861,
      "adapted": 5862,
      "Thomas": 5863,
      "controversial": 5864,
      "wannabe": 5865,
      "Bachchan": 5866,
      "Kennedy": 5867,
      "martial": 5868,
      "behavi": 5869,
      "mathemat": 5870,
      "Shakespeare": 5871,
      "Bhaiyyaji": 5872,
      "Hitler": 5873,
      "Michelle": 5874,
      "duty": 5875,
      "reduced": 5876,
      "strictly": 5877,
      "gambler": 5878,
      "hackneyed": 5879,
      "Atlantis": 5880,
      "April": 5881,
      "Apophis": 5882,
      "Bacall": 5883,
      "Ceylon": 5884,
      "Grimm": 5885,
      "Mitchell": 5886,
      "Virginia": 5887,
      "Watson": 5888,
      "YETI": 5889,
      "furniture": 5890,
      "inferior": 5891,
      "reputation": 5892,
      "enemies": 5893,
      "horrendous": 5894,
      "Stettner": 5895,
      "Cannavale": 5896,
      "Shinjuku": 5897,
      "\"...": 5898,
      "\").": 5899,
      "..<": 5900,
      "5th": 5901,
      "Ame": 5902,
      "Aro": 5903,
      "Along": 5904,
      "Alive": 5905,
      "Actor": 5906,
      "BS": 5907,
      "Bot": 5908,
      "Bir": 5909,
      "BAG": 5910,
      "Baker": 5911,
      "Ce": 5912,
      "Co": 5913,
      "Che": 5914,
      "Cut": 5915,
      "Care": 5916,
      "Cash": 5917,
      "CAN": 5918,
      "Dil": 5919,
      "Dun": 5920,
      "During": 5921,
      "Domin": 5922,
      "Er": 5923,
      "Ely": 5924,
      "Epp": 5925,
      "Fan": 5926,
      "Finch": 5927,
      "GE": 5928,
      "GI": 5929,
      "Gou": 5930,
      "Gas": 5931,
      "Gant": 5932,
      "Gum": 5933,
      "Gary": 5934,
      "GER": 5935,
      "Gos": 5936,
      "Hy": 5937,
      "Hal": 5938,
      "Had": 5939,
      "Hunt": 5940,
      "Humph": 5941,
      "Jon": 5942,
      "Ko": 5943,
      "Kor": 5944,
      "Kam": 5945,
      "KING": 5946,
      "Low": 5947,
      "Lake": 5948,
      "Lisa": 5949,
      "ME": 5950,
      "Men": 5951,
      "Moo": 5952,
      "Mall": 5953,
      "Main": 5954,
      "Maugh": 5955,
      "Mos": 5956,
      "Mumb": 5957,
      "Mered": 5958,
      "MGM": 5959,
      "Nar": 5960,
      "None": 5961,
      "National": 5962,
      "Norton": 5963,
      "Naval": 5964,
      "Nolan": 5965,
      "Old": 5966,
      "Pal": 5967,
      "Phe": 5968,
      "Pay": 5969,
      "Poo": 5970,
      "Pul": 5971,
      "Sor": 5972,
      "Sing": 5973,
      "Sound": 5974,
      "Sold": 5975,
      "Scre": 5976,
      "Sult": 5977,
      "Stra": 5978,
      "TA": 5979,
      "Top": 5980,
      "Tol": 5981,
      "Tiny": 5982,
      "Washing": 5983,
      "Women": 5984,
      "WATCH": 5985,
      "athe": 5986,
      "aus": 5987,
      "bin": 5988,
      "bent": 5989,
      "bun": 5990,
      "boo": 5991,
      "bol": 5992,
      "bang": 5993,
      "bank": 5994,
      "bility": 5995,
      "cook": 5996,
      "cold": 5997,
      "dinner": 5998,
      "ek": 5999,
      "eat": 6000,
      "eur": 6001,
      "fed": 6002,
      "food": 6003,
      "fish": 6004,
      "fred": 6005,
      "fired": 6006,
      "faces": 6007,
      "fabulous": 6008,
      "gid": 6009,
      "glo": 6010,
      "gess": 6011,
      "gence": 6012,
      "gins": 6013,
      "games": 6014,
      "hr": 6015,
      "hitting": 6016,
      "hund": 6017,
      "ito": 6018,
      "ife": 6019,
      "jet": 6020,
      "lli": 6021,
      "lone": 6022,
      "lud": 6023,
      "lazy": 6024,
      "mic": 6025,
      "mend": 6026,
      "nin": 6027,
      "nes": 6028,
      "numbers": 6029,
      "pes": 6030,
      "pha": 6031,
      "pile": 6032,
      "rot": 6033,
      "rors": 6034,
      "ramp": 6035,
      "sen": 6036,
      "sand": 6037,
      "swi": 6038,
      "sno": 6039,
      "sits": 6040,
      "skill": 6041,
      "sque": 6042,
      "skept": 6043,
      "soup": 6044,
      "tie": 6045,
      "ture": 6046,
      "uan": 6047,
      "ued": 6048,
      "ume": 6049,
      "ueless": 6050,
      "vac": 6051,
      "vig": 6052,
      "voc": 6053,
      "vince": 6054,
      "vintage": 6055,
      "wack": 6056,
      "thod": 6057,
      "thumbs": 6058,
      "thugs": 6059,
      "intr": 6060,
      "infamous": 6061,
      "thel": 6062,
      "anish": 6063,
      "anitor": 6064,
      "erie": 6065,
      "isy": 6066,
      "iser": 6067,
      "isol": 6068,
      "recall": 6069,
      "reject": 6070,
      "ende": 6071,
      "eness": 6072,
      "encour": 6073,
      "enstein": 6074,
      "environment": 6075,
      "atro": 6076,
      "aters": 6077,
      "atives": 6078,
      "org": 6079,
      "oured": 6080,
      "outhern": 6081,
      "inge": 6082,
      "eson": 6083,
      "alleg": 6084,
      "album": 6085,
      "alcohol": 6086,
      "ands": 6087,
      "andler": 6088,
      "arry": 6089,
      "armed": 6090,
      "stro": 6091,
      "stale": 6092,
      "stargate": 6093,
      "stiff": 6094,
      "ilt": 6095,
      "ilities": 6096,
      "brothers": 6097,
      "brush": 6098,
      "hearing": 6099,
      "/>*": 6100,
      "/>***": 6101,
      "seg": 6102,
      "lein": 6103,
      "leck": 6104,
      "ched": 6105,
      "chances": 6106,
      "beating": 6107,
      "icious": 6108,
      "veh": 6109,
      "veter": 6110,
      "ads": 6111,
      "ador": 6112,
      "adjust": 6113,
      "adise": 6114,
      "owed": 6115,
      "mett": 6116,
      "method": 6117,
      "wasting": 6118,
      "wives": 6119,
      "abo": 6120,
      "unconvincing": 6121,
      "unintentional": 6122,
      "oop": 6123,
      "oops": 6124,
      "haunting": 6125,
      "term": 6126,
      "terfly": 6127,
      "outcome": 6128,
      "outbreak": 6129,
      "gey": 6130,
      "rix": 6131,
      "rival": 6132,
      "amond": 6133,
      "peoples": 6134,
      "imha": 6135,
      "imprison": 6136,
      "compe": 6137,
      "detract": 6138,
      "ulated": 6139,
      "placing": 6140,
      "plug": 6141,
      "plaus": 6142,
      "notes": 6143,
      "notch": 6144,
      "noticed": 6145,
      "acqu": 6146,
      "acles": 6147,
      "appl": 6148,
      "females": 6149,
      "scar": 6150,
      "experiment": 6151,
      "mansion": 6152,
      "div": 6153,
      "dire": 6154,
      "trau": 6155,
      "trav": 6156,
      "maint": 6157,
      "neigh": 6158,
      "lovable": 6159,
      "poet": 6160,
      "poign": 6161,
      "estic": 6162,
      "endo": 6163,
      "conom": 6164,
      "contract": 6165,
      "conscious": 6166,
      "convince": 6167,
      "doses": 6168,
      "usive": 6169,
      "ussy": 6170,
      "aine": 6171,
      "opsis": 6172,
      "peril": 6173,
      "teeth": 6174,
      "worn": 6175,
      "worry": 6176,
      "prev": 6177,
      "preachy": 6178,
      "ella": 6179,
      "indie": 6180,
      "quarter": 6181,
      "arded": 6182,
      "storytelling": 6183,
      "bothered": 6184,
      "ument": 6185,
      "item": 6186,
      "overcome": 6187,
      "overrated": 6188,
      "owned": 6189,
      "grou": 6190,
      "spending": 6191,
      "yeti": 6192,
      "fault": 6193,
      "adequ": 6194,
      "rail": 6195,
      "dish": 6196,
      "dislike": 6197,
      "disgu": 6198,
      "display": 6199,
      "blon": 6200,
      "oren": 6201,
      "nowadays": 6202,
      "join": 6203,
      "wrapped": 6204,
      "cles": 6205,
      "clum": 6206,
      "clueless": 6207,
      "Thanks": 6208,
      "everywhere": 6209,
      "cringe": 6210,
      "interpret": 6211,
      "interviews": 6212,
      "lessons": 6213,
      "olds": 6214,
      "achu": 6215,
      "mini": 6216,
      "195": 6217,
      "lower": 6218,
      "Chandler": 6219,
      "cheer": 6220,
      "oblig": 6221,
      "performing": 6222,
      "izier": 6223,
      "underrated": 6224,
      "killers": 6225,
      "steals": 6226,
      "mont": 6227,
      "months": 6228,
      "vien": 6229,
      "occup": 6230,
      "Asian": 6231,
      "Joey": 6232,
      "marke": 6233,
      "marily": 6234,
      "buried": 6235,
      "farce": 6236,
      "iano": 6237,
      "position": 6238,
      "phr": 6239,
      "phan": 6240,
      "string": 6241,
      "stridge": 6242,
      "produce": 6243,
      "directorial": 6244,
      "Seas": 6245,
      "matically": 6246,
      "needle": 6247,
      "commun": 6248,
      "community": 6249,
      "kinds": 6250,
      "higher": 6251,
      "attle": 6252,
      "Anand": 6253,
      "Anna": 6254,
      "Beth": 6255,
      "Begins": 6256,
      "leader": 6257,
      "naive": 6258,
      "learning": 6259,
      "subli": 6260,
      "subsequ": 6261,
      "Leigh": 6262,
      "worthwhile": 6263,
      "Sheen": 6264,
      "kidding": 6265,
      "decor": 6266,
      "decade": 6267,
      "warn": 6268,
      "temper": 6269,
      "born": 6270,
      "Ros": 6271,
      "consists": 6272,
      "solve": 6273,
      "Brand": 6274,
      "clock": 6275,
      "ondell": 6276,
      "address": 6277,
      "keeping": 6278,
      "Deep": 6279,
      "sidekick": 6280,
      "stream": 6281,
      "commended": 6282,
      "shape": 6283,
      "stops": 6284,
      "cliff": 6285,
      "clips": 6286,
      "jewel": 6287,
      "Unlike": 6288,
      "prior": 6289,
      "missile": 6290,
      "natives": 6291,
      "emotionally": 6292,
      "portion": 6293,
      "Samuel": 6294,
      "Spanish": 6295,
      "morbid": 6296,
      "attempted": 6297,
      "walked": 6298,
      "admitted": 6299,
      "silent": 6300,
      "ARE": 6301,
      "ARK": 6302,
      "confidence": 6303,
      "2008": 6304,
      "Boy": 6305,
      "basis": 6306,
      "promin": 6307,
      "stupidity": 6308,
      "Bergen": 6309,
      "Grot": 6310,
      "painting": 6311,
      "spoken": 6312,
      "alloween": 6313,
      "complicated": 6314,
      "identify": 6315,
      "examples": 6316,
      "hopefully": 6317,
      "Mario": 6318,
      "Vivien": 6319,
      "signals": 6320,
      "legs": 6321,
      "importance": 6322,
      "struck": 6323,
      "struggling": 6324,
      "critical": 6325,
      "particip": 6326,
      "figured": 6327,
      "ticket": 6328,
      "scores": 6329,
      "Absolute": 6330,
      "Frances": 6331,
      "Jaffa": 6332,
      "Blood": 6333,
      "Blondell": 6334,
      "custo": 6335,
      "fourth": 6336,
      "ski": 6337,
      "sky": 6338,
      "universe": 6339,
      "flawed": 6340,
      "Poor": 6341,
      "Poss": 6342,
      "Raiders": 6343,
      "existed": 6344,
      "majority": 6345,
      "Germany": 6346,
      "Liang": 6347,
      "accents": 6348,
      "teenagers": 6349,
      "Nightmare": 6350,
      "Trek": 6351,
      "homage": 6352,
      "jump": 6353,
      "jumping": 6354,
      "providing": 6355,
      "provocative": 6356,
      "cruel": 6357,
      "cruise": 6358,
      "desperately": 6359,
      "explains": 6360,
      "explained": 6361,
      "IEF": 6362,
      "rapur": 6363,
      "searching": 6364,
      "documentaries": 6365,
      "revealing": 6366,
      "contained": 6367,
      "advanced": 6368,
      "occasions": 6369,
      "metap": 6370,
      "symbol": 6371,
      "claims": 6372,
      "Krab": 6373,
      "officers": 6374,
      "professor": 6375,
      "kicking": 6376,
      "respond": 6377,
      "Hammer": 6378,
      "Hammett": 6379,
      "achieved": 6380,
      "!!!!!!!!": 6381,
      "Bush": 6382,
      "Smita": 6383,
      "burned": 6384,
      "cartoons": 6385,
      "Barry": 6386,
      "Goodman": 6387,
      "Tommy": 6388,
      "flies": 6389,
      "Lois": 6390,
      "SEE": 6391,
      "selling": 6392,
      "conversations": 6393,
      "boredom": 6394,
      "1960": 6395,
      "Corner": 6396,
      "Harry": 6397,
      "baloney": 6398,
      "opportun": 6399,
      "transp": 6400,
      "drags": 6401,
      "dragged": 6402,
      "occurred": 6403,
      "college": 6404,
      "briefly": 6405,
      "terrorist": 6406,
      "strengths": 6407,
      "Henstridge": 6408,
      "Nevertheless": 6409,
      "Prob": 6410,
      "abrupt": 6411,
      "wedding": 6412,
      "belongs": 6413,
      "guilt": 6414,
      "Looking": 6415,
      "gripping": 6416,
      "resemblance": 6417,
      "trailers": 6418,
      "corruption": 6419,
      "protagonists": 6420,
      "separate": 6421,
      "department": 6422,
      "evolution": 6423,
      "exploring": 6424,
      "exploration": 6425,
      "Frankenstein": 6426,
      "investigate": 6427,
      "hatred": 6428,
      "hanging": 6429,
      "initially": 6430,
      "Seeing": 6431,
      "Devils": 6432,
      "cardboard": 6433,
      "rocities": 6434,
      "pushing": 6435,
      "stereotypical": 6436,
      "Golden": 6437,
      "splend": 6438,
      "udos": 6439,
      "required": 6440,
      "revolves": 6441,
      "restaur": 6442,
      "Julia": 6443,
      "throat": 6444,
      "motivation": 6445,
      "establishing": 6446,
      "drinking": 6447,
      "nails": 6448,
      "repeatedly": 6449,
      "Irish": 6450,
      "Roll": 6451,
      "iasm": 6452,
      "source": 6453,
      "torn": 6454,
      "Brother": 6455,
      "Kathleen": 6456,
      "multiple": 6457,
      "praise": 6458,
      "unfolds": 6459,
      "youthful": 6460,
      "scratch": 6461,
      "obsessed": 6462,
      "phenomen": 6463,
      "courtroom": 6464,
      "Christian": 6465,
      "Spoilers": 6466,
      "Genie": 6467,
      "Private": 6468,
      "Triad": 6469,
      "tunes": 6470,
      "refreshing": 6471,
      "encies": 6472,
      "enthusiasm": 6473,
      "arrested": 6474,
      "shirt": 6475,
      "charismatic": 6476,
      "overwhelming": 6477,
      "functional": 6478,
      "legendary": 6479,
      "Natasha": 6480,
      "Ryan": 6481,
      "WWII": 6482,
      "larger": 6483,
      "vaguely": 6484,
      "credibility": 6485,
      "kidnapped": 6486,
      "formulaic": 6487,
      "freedom": 6488,
      "journalist": 6489,
      "Honest": 6490,
      "theatrical": 6491,
      "nostalgia": 6492,
      "buffs": 6493,
      "emplo": 6494,
      "Brooks": 6495,
      "relevant": 6496,
      "synopsis": 6497,
      "Kendall": 6498,
      "Pandey": 6499,
      "Queen": 6500,
      "Screwfly": 6501,
      "horses": 6502,
      "lyrics": 6503,
      "lderly": 6504,
      "shoddy": 6505,
      "intensity": 6506,
      "awkward": 6507,
      "increasingly": 6508,
      "Amelie": 6509,
      "Humphrey": 6510,
      "Moore": 6511,
      "Malleson": 6512,
      "Maugham": 6513,
      "Mumbai": 6514,
      "Meredith": 6515,
      "Pooja": 6516,
      "Soldier": 6517,
      "Sultan": 6518,
      "Washington": 6519,
      "hundred": 6520,
      "rotten": 6521,
      "atrocity": 6522,
      ",'": 6523,
      ",,": 6524,
      "35": 6525,
      "40s": 6526,
      "75": 6527,
      ":-": 6528,
      "Aunt": 6529,
      "Awards": 6530,
      "BR": 6531,
      "Bly": 6532,
      "Bill": 6533,
      "Bart": 6534,
      "Bian": 6535,
      "Blan": 6536,
      "BAD": 6537,
      "CI": 6538,
      "Cent": 6539,
      "Cra": 6540,
      "Cons": 6541,
      "Camaz": 6542,
      "CON": 6543,
      "Citiz": 6544,
      "CGI": 6545,
      "Dante": 6546,
      "DAD": 6547,
      "Dutch": 6548,
      "Dwells": 6549,
      "DARK": 6550,
      "Eyes": 6551,
      "Fer": 6552,
      "Fre": 6553,
      "Ful": 6554,
      "Fass": 6555,
      "Flet": 6556,
      "Final": 6557,
      "Future": 6558,
      "Flyn": 6559,
      "Fitz": 6560,
      "Fisher": 6561,
      "Gor": 6562,
      "Gar": 6563,
      "HS": 6564,
      "Hill": 6565,
      "Hour": 6566,
      "Have": 6567,
      "Halloween": 6568,
      "IF": 6569,
      "IO": 6570,
      "IP": 6571,
      "Jar": 6572,
      "Jane": 6573,
      "Ker": 6574,
      "Kat": 6575,
      "Know": 6576,
      "Knight": 6577,
      "Kudos": 6578,
      "Land": 6579,
      "Long": 6580,
      "Light": 6581,
      "Lev": 6582,
      "Mas": 6583,
      "Mom": 6584,
      "Mot": 6585,
      "MST": 6586,
      "Miles": 6587,
      "Na": 6588,
      "OJ": 6589,
      "OM": 6590,
      "OW": 6591,
      "Osa": 6592,
      "Okay": 6593,
      "Pfe": 6594,
      "Pitt": 6595,
      "Pho": 6596,
      "Pres": 6597,
      "Plan": 6598,
      "Pik": 6599,
      "PBS": 6600,
      "QU": 6601,
      "RA": 6602,
      "Res": 6603,
      "Rad": 6604,
      "Ray": 6605,
      "Spe": 6606,
      "Sum": 6607,
      "Shad": 6608,
      "Seven": 6609,
      "Simply": 6610,
      "Tsu": 6611,
      "Take": 6612,
      "TER": 6613,
      "Up": 6614,
      "Und": 6615,
      "Ulli": 6616,
      "Vel": 6617,
      "Vish": 6618,
      "Vick": 6619,
      "Varg": 6620,
      "VHS": 6621,
      "Were": 6622,
      "Wind": 6623,
      "Word": 6624,
      "Zh": 6625,
      "aa": 6626,
      "bone": 6627,
      "bast": 6628,
      "cu": 6629,
      "cig": 6630,
      "cali": 6631,
      "candy": 6632,
      "db": 6633,
      "dd": 6634,
      "dell": 6635,
      "ease": 6636,
      "etern": 6637,
      "econom": 6638,
      "elderly": 6639,
      "fist": 6640,
      "gor": 6641,
      "gers": 6642,
      "gree": 6643,
      "gimm": 6644,
      "hence": 6645,
      "hired": 6646,
      "jail": 6647,
      "jury": 6648,
      "kins": 6649,
      "nam": 6650,
      "nations": 6651,
      "nude": 6652,
      "oe": 6653,
      "och": 6654,
      "ocean": 6655,
      "phe": 6656,
      "pom": 6657,
      "pitch": 6658,
      "pene": 6659,
      "piano": 6660,
      "rang": 6661,
      "ranks": 6662,
      "rows": 6663,
      "sive": 6664,
      "swell": 6665,
      "sadd": 6666,
      "sends": 6667,
      "sket": 6668,
      "sappy": 6669,
      "skills": 6670,
      "tag": 6671,
      "tanks": 6672,
      "uity": 6673,
      "uated": 6674,
      "vizier": 6675,
      "wers": 6676,
      "zzy": 6677,
      "thom": 6678,
      "thir": 6679,
      "thick": 6680,
      "infect": 6681,
      "incar": 6682,
      "inexpl": 6683,
      "incompet": 6684,
      "inlein": 6685,
      "thed": 6686,
      "thent": 6687,
      "isis": 6688,
      "reun": 6689,
      "reward": 6690,
      "replace": 6691,
      "returned": 6692,
      "rebel": 6693,
      "repair": 6694,
      "resolution": 6695,
      "oning": 6696,
      "atrocities": 6697,
      "orc": 6698,
      "ingo": 6699,
      "ingen": 6700,
      "ala": 6701,
      "aled": 6702,
      "alike": 6703,
      "toil": 6704,
      "toss": 6705,
      "tops": 6706,
      "topless": 6707,
      "itic": 6708,
      "ari": 6709,
      "arm": 6710,
      "edgy": 6711,
      "stone": 6712,
      "stum": 6713,
      "stated": 6714,
      "bris": 6715,
      "brary": 6716,
      "heap": 6717,
      "heaven": 6718,
      "/>(": 6719,
      "sea": 6720,
      "lean": 6721,
      "leep": 6722,
      "leans": 6723,
      "ches": 6724,
      "chal": 6725,
      "chest": 6726,
      "chain": 6727,
      "chief": 6728,
      "chuck": 6729,
      "ctured": 6730,
      "bears": 6731,
      "below": 6732,
      "bearing": 6733,
      "whip": 6734,
      "icy": 6735,
      "icrous": 6736,
      "adul": 6737,
      "otz": 6738,
      "owder": 6739,
      "entit": 6740,
      "lifest": 6741,
      "library": 6742,
      "ghter": 6743,
      "meat": 6744,
      "actic": 6745,
      "cellent": 6746,
      "aband": 6747,
      "abdu": 6748,
      "ables": 6749,
      "uns": 6750,
      "uninspired": 6751,
      "uncomfortable": 6752,
      "unintentionally": 6753,
      "keen": 6754,
      "iri": 6755,
      "outdated": 6756,
      "ello": 6757,
      "elhead": 6758,
      "amy": 6759,
      "ambig": 6760,
      "petr": 6761,
      "imit": 6762,
      "improved": 6763,
      "imdb": 6764,
      "shiny": 6765,
      "hers": 6766,
      "det": 6767,
      "decess": 6768,
      "defeat": 6769,
      "uloid": 6770,
      "ache": 6771,
      "access": 6772,
      "account": 6773,
      "fears": 6774,
      "exas": 6775,
      "excru": 6776,
      "exagger": 6777,
      "illa": 6778,
      "manu": 6779,
      "dign": 6780,
      "diamond": 6781,
      "poll": 6782,
      "endless": 6783,
      "conqu": 6784,
      "confron": 6785,
      "convey": 6786,
      "dos": 6787,
      "usch": 6788,
      "authent": 6789,
      "opath": 6790,
      "artists": 6791,
      "artific": 6792,
      "noise": 6793,
      "perpetr": 6794,
      "seeking": 6795,
      "teams": 6796,
      "prepar": 6797,
      "predecess": 6798,
      "web": 6799,
      "eller": 6800,
      "ellar": 6801,
      "tier": 6802,
      "tire": 6803,
      "getic": 6804,
      "acking": 6805,
      "hash": 6806,
      "quis": 6807,
      "ques": 6808,
      "quote": 6809,
      "gover": 6810,
      "sav": 6811,
      "bore": 6812,
      "mental": 6813,
      "mentally": 6814,
      "gritty": 6815,
      "spite": 6816,
      "spends": 6817,
      "spital": 6818,
      "ptic": 6819,
      "aka": 6820,
      "Whatever": 6821,
      "afford": 6822,
      "shell": 6823,
      "fame": 6824,
      "fathom": 6825,
      "pleased": 6826,
      "raiser": 6827,
      "dismember": 6828,
      "disgrace": 6829,
      "blond": 6830,
      "wrinkle": 6831,
      "ciating": 6832,
      "offs": 6833,
      "...\"": 6834,
      "club": 6835,
      "cliche": 6836,
      "assy": 6837,
      "uding": 6838,
      "directly": 6839,
      "Things": 6840,
      "Third": 6841,
      "crud": 6842,
      "crying": 6843,
      "crisis": 6844,
      "partly": 6845,
      "interaction": 6846,
      "internet": 6847,
      "international": 6848,
      "oldest": 6849,
      "merits": 6850,
      "viewed": 6851,
      "minus": 6852,
      "Stu": 6853,
      "Starring": 6854,
      "anged": 6855,
      "angers": 6856,
      "angles": 6857,
      "fled": 6858,
      "flour": 6859,
      "Heaven": 6860,
      "Heinlein": 6861,
      "reek": 6862,
      "coach": 6863,
      "rukh": 6864,
      "101": 6865,
      "1950": 6866,
      "truck": 6867,
      "ashiv": 6868,
      "Child": 6869,
      "desp": 6870,
      "desired": 6871,
      "horrifying": 6872,
      "---": 6873,
      "scream": 6874,
      "happily": 6875,
      "stealing": 6876,
      "downtown": 6877,
      "Alfred": 6878,
      "Aside": 6879,
      "versal": 6880,
      "helpless": 6881,
      "buck": 6882,
      "built": 6883,
      "carries": 6884,
      "phy": 6885,
      "THIEF": 6886,
      "stranger": 6887,
      "bitch": 6888,
      "hardcore": 6889,
      "appealing": 6890,
      "audia": 6891,
      "relate": 6892,
      "relax": 6893,
      "rence": 6894,
      "Howard": 6895,
      "compli": 6896,
      "explos": 6897,
      "visually": 6898,
      "visited": 6899,
      "decades": 6900,
      "handling": 6901,
      "cutting": 6902,
      "pressure": 6903,
      "borrows": 6904,
      "reviewing": 6905,
      "jobs": 6906,
      "Roger": 6907,
      "Rogers": 6908,
      "Forget": 6909,
      "covered": 6910,
      "lacked": 6911,
      "venture": 6912,
      "dramat": 6913,
      "frag": 6914,
      "Brown": 6915,
      "Browder": 6916,
      "closer": 6917,
      "colours": 6918,
      "mainstream": 6919,
      "Noon": 6920,
      "heading": 6921,
      "Jackie": 6922,
      "captiv": 6923,
      "speed": 6924,
      "adding": 6925,
      "creativity": 6926,
      "definitive": 6927,
      "ANY": 6928,
      "Attack": 6929,
      "liners": 6930,
      "menace": 6931,
      "menacing": 6932,
      "stomach": 6933,
      "releas": 6934,
      "ception": 6935,
      "starred": 6936,
      "imagery": 6937,
      "eleg": 6938,
      "elephant": 6939,
      "surprising": 6940,
      "surprises": 6941,
      "corny": 6942,
      "corner": 6943,
      "primarily": 6944,
      "NOTHING": 6945,
      "heroic": 6946,
      "knife": 6947,
      "superbly": 6948,
      "distinct": 6949,
      "ggy": 6950,
      "located": 6951,
      "exceptions": 6952,
      "morality": 6953,
      "fairy": 6954,
      "lands": 6955,
      "walks": 6956,
      "portraying": 6957,
      "thrilling": 6958,
      "schlock": 6959,
      "storm": 6960,
      "failure": 6961,
      "Warren": 6962,
      "sadness": 6963,
      "2002": 6964,
      "Really": 6965,
      "Remember": 6966,
      "Rebec": 6967,
      "Recommended": 6968,
      "desert": 6969,
      "uries": 6970,
      "spirited": 6971,
      "supposedly": 6972,
      "Grant": 6973,
      "realizing": 6974,
      "publicity": 6975,
      "transform": 6976,
      "typically": 6977,
      "Connor": 6978,
      "Excellent": 6979,
      "namely": 6980,
      "signed": 6981,
      "matters": 6982,
      "hoped": 6983,
      "strugg": 6984,
      "Charact": 6985,
      "traitor": 6986,
      "holding": 6987,
      "sumpt": 6988,
      "swear": 6989,
      "REAL": 6990,
      "Short": 6991,
      "annoyed": 6992,
      "uttering": 6993,
      "introduces": 6994,
      "dialogs": 6995,
      "cultures": 6996,
      "leather": 6997,
      "deadly": 6998,
      "Clark": 6999,
      "Claudia": 7000,
      "Franc": 7001,
      "Pollack": 7002,
      "END": 7003,
      "iently": 7004,
      "spoiled": 7005,
      "tremend": 7006,
      "Duke": 7007,
      "Dukes": 7008,
      "musicals": 7009,
      "Drag": 7010,
      "sleazy": 7011,
      "jumps": 7012,
      "amongst": 7013,
      "appreciated": 7014,
      "draws": 7015,
      "drawback": 7016,
      "acceptable": 7017,
      "connect": 7018,
      "gorehound": 7019,
      "mistak": 7020,
      "repeat": 7021,
      "repeating": 7022,
      "advance": 7023,
      "memories": 7024,
      "MOST": 7025,
      "sympathy": 7026,
      "clichéd": 7027,
      "dropping": 7028,
      "beaten": 7029,
      "concert": 7030,
      "concerns": 7031,
      "earthqu": 7032,
      "Amrapur": 7033,
      "Hellraiser": 7034,
      "Plato": 7035,
      "returning": 7036,
      "profession": 7037,
      "erov": 7038,
      "broke": 7039,
      "mixture": 7040,
      "ville": 7041,
      "recording": 7042,
      "combination": 7043,
      "Hayter": 7044,
      "Music": 7045,
      "ugly": 7046,
      "beliefs": 7047,
      "Majors": 7048,
      "Monk": 7049,
      "masses": 7050,
      "massac": 7051,
      "defend": 7052,
      "tched": 7053,
      "qualifies": 7054,
      "twisted": 7055,
      "randomly": 7056,
      "Corbin": 7057,
      "Sands": 7058,
      "balance": 7059,
      "culmin": 7060,
      "matched": 7061,
      "insulting": 7062,
      "steps": 7063,
      "unders": 7064,
      "spiritual": 7065,
      "recognition": 7066,
      "arrives": 7067,
      "occurs": 7068,
      "According": 7069,
      "Sadashiv": 7070,
      "references": 7071,
      "soldier": 7072,
      "dollar": 7073,
      "previously": 7074,
      "colorful": 7075,
      "consistent": 7076,
      "circum": 7077,
      "crafted": 7078,
      "criticism": 7079,
      "criticisms": 7080,
      "dedicated": 7081,
      "extraordinary": 7082,
      "Keith": 7083,
      "pseudo": 7084,
      "departure": 7085,
      "surrounded": 7086,
      "physical": 7087,
      "Burgess": 7088,
      "Yashraj": 7089,
      "gambling": 7090,
      "habits": 7091,
      "melodramatic": 7092,
      "celluloid": 7093,
      "criminal": 7094,
      "criminals": 7095,
      "Redd": 7096,
      "Seriously": 7097,
      "calm": 7098,
      "gentle": 7099,
      "garden": 7100,
      "contrary": 7101,
      "Hugh": 7102,
      "Karl": 7103,
      "True": 7104,
      "chasing": 7105,
      "operatic": 7106,
      "precise": 7107,
      "individuals": 7108,
      "intrigued": 7109,
      "dominated": 7110,
      "alternate": 7111,
      "ignore": 7112,
      "ignored": 7113,
      "CRY": 7114,
      "Oliver": 7115,
      "Vanishing": 7116,
      "hooked": 7117,
      "jerk": 7118,
      "loos": 7119,
      "chopped": 7120,
      "Especially": 7121,
      "facial": 7122,
      "mildly": 7123,
      "characteristics": 7124,
      "rushed": 7125,
      "warmth": 7126,
      "anticipation": 7127,
      "glasses": 7128,
      "Murder": 7129,
      "oriented": 7130,
      "grainy": 7131,
      "breathtaking": 7132,
      "puzzled": 7133,
      "freaks": 7134,
      "broadcast": 7135,
      "SPOILER": 7136,
      "African": 7137,
      "Given": 7138,
      "HAVE": 7139,
      "Patil": 7140,
      "S2T": 7141,
      "Solution": 7142,
      "Towelhead": 7143,
      "rabbits": 7144,
      "ingredients": 7145,
      "outrageous": 7146,
      "excessive": 7147,
      "dozen": 7148,
      "weapons": 7149,
      "indulgent": 7150,
      "clunky": 7151,
      "descript": 7152,
      "imaginative": 7153,
      "survivors": 7154,
      "guarantee": 7155,
      "Brien": 7156,
      "Cinema": 7157,
      "WAY": 7158,
      "emerges": 7159,
      "advertising": 7160,
      "depressing": 7161,
      "depiction": 7162,
      "Lucile": 7163,
      "luxury": 7164,
      "magnificent": 7165,
      "Besides": 7166,
      "Cassie": 7167,
      "Dawson": 7168,
      "Furthermore": 7169,
      "Harrison": 7170,
      "Lazerov": 7171,
      "Personally": 7172,
      "benef": 7173,
      "binder": 7174,
      "hidden": 7175,
      "millenn": 7176,
      "vulner": 7177,
      "forgiveness": 7178,
      "irritating": 7179,
      "riveting": 7180,
      "improvement": 7181,
      "determined": 7182,
      "prostitute": 7183,
      "believably": 7184,
      "dysfunctional": 7185,
      "techniques": 7186,
      "behavior": 7187,
      "BAGDAD": 7188,
      "Dominion": 7189,
      "Hyde": 7190,
      "Naras": 7191,
      "Sorry": 7192,
      "Singh": 7193,
      "Strauss": 7194,
      "ludicrous": 7195,
      "vacation": 7196,
      "wacky": 7197,
      "alleged": 7198,
      "vehicle": 7199,
      "veteran": 7200,
      "neighbor": 7201,
      "poetic": 7202,
      "poignant": 7203,
      "groups": 7204,
      "blonde": 7205,
      "sublime": 7206,
      "Deepti": 7207,
      "prominent": 7208,
      "Absolutely": 7209,
      "metaphor": 7210,
      "Probably": 7211,
      "Brothers": 7212,
      "Blyth": 7213,
      "CIA": 7214,
      "Camazotz": 7215,
      "Citizen": 7216,
      "Fulci": 7217,
      "Fassbinder": 7218,
      "Fletcher": 7219,
      "Flynn": 7220,
      "Gordon": 7221,
      "Pfeiffer": 7222,
      "Pikachu": 7223,
      "Under": 7224,
      "Vishal": 7225,
      "Vicki": 7226,
      "Vargas": 7227,
      "bastard": 7228,
      "gimmick": 7229,
      "penetr": 7230,
      "toilet": 7231,
      "excruciating": 7232,
      "authentic": 7233,
      "Rebecca": 7234,
      "Francis": 7235,
      "\";": 7236,
      "\"),": 7237,
      "')": 7238,
      "(?)": 7239,
      ");": 7240,
      "*<": 7241,
      ".(": 7242,
      "22": 7243,
      "4th": 7244,
      "85": 7245,
      "?).": 7246,
      "AF": 7247,
      "AV": 7248,
      "Aw": 7249,
      "Aby": 7250,
      "Aug": 7251,
      "Audi": 7252,
      "BL": 7253,
      "Bal": 7254,
      "Bow": 7255,
      "Bra": 7256,
      "Buch": 7257,
      "Bible": 7258,
      "Bates": 7259,
      "Bird": 7260,
      "BAT": 7261,
      "Baby": 7262,
      "Burt": 7263,
      "BIG": 7264,
      "Budd": 7265,
      "BUT": 7266,
      "Come": 7267,
      "Cast": 7268,
      "Cong": 7269,
      "Creat": 7270,
      "Cary": 7271,
      "Cox": 7272,
      "Camp": 7273,
      "Check": 7274,
      "Den": 7275,
      "Dad": 7276,
      "Dir": 7277,
      "Down": 7278,
      "Dob": 7279,
      "Dull": 7280,
      "EX": 7281,
      "Ever": 7282,
      "Eye": 7283,
      "Egy": 7284,
      "Fu": 7285,
      "Fam": 7286,
      "Fans": 7287,
      "Fair": 7288,
      "Follow": 7289,
      "Get": 7290,
      "Girl": 7291,
      "Glor": 7292,
      "GET": 7293,
      "Hall": 7294,
      "Home": 7295,
      "Hung": 7296,
      "Hills": 7297,
      "Ish": 7298,
      "Isa": 7299,
      "Ira": 7300,
      "Isl": 7301,
      "JJ": 7302,
      "JU": 7303,
      "Jose": 7304,
      "Jagger": 7305,
      "KT": 7306,
      "Lat": 7307,
      "Lad": 7308,
      "Live": 7309,
      "Liz": 7310,
      "Larry": 7311,
      "Loren": 7312,
      "Min": 7313,
      "Mag": 7314,
      "Mort": 7315,
      "Mars": 7316,
      "NY": 7317,
      "Numbers": 7318,
      "OT": 7319,
      "Oz": 7320,
      "Our": 7321,
      "Off": 7322,
      "Pil": 7323,
      "Pur": 7324,
      "Psy": 7325,
      "Phil": 7326,
      "RK": 7327,
      "Ren": 7328,
      "Rand": 7329,
      "Rich": 7330,
      "Rum": 7331,
      "Round": 7332,
      "Rage": 7333,
      "Rod": 7334,
      "RAT": 7335,
      "SI": 7336,
      "Sil": 7337,
      "Say": 7338,
      "Sir": 7339,
      "Sel": 7340,
      "Sally": 7341,
      "Sup": 7342,
      "Sever": 7343,
      "Set": 7344,
      "Spi": 7345,
      "Spoor": 7346,
      "SRK": 7347,
      "Tak": 7348,
      "Tod": 7349,
      "Tem": 7350,
      "TIT": 7351,
      "Tony": 7352,
      "TION": 7353,
      "UL": 7354,
      "Upon": 7355,
      "Vis": 7356,
      "Vie": 7357,
      "Vart": 7358,
      "Whe": 7359,
      "Would": 7360,
      "WAS": 7361,
      "Xu": 7362,
      "Year": 7363,
      "Zhu": 7364,
      "Zero": 7365,
      "aire": 7366,
      "bie": 7367,
      "bill": 7368,
      "bust": 7369,
      "blo": 7370,
      "bite": 7371,
      "bull": 7372,
      "bloss": 7373,
      "bench": 7374,
      "cand": 7375,
      "cere": 7376,
      "cable": 7377,
      "cake": 7378,
      "cash": 7379,
      "caval": 7380,
      "dh": 7381,
      "dj": 7382,
      "ds": 7383,
      "dare": 7384,
      "dust": 7385,
      "dess": 7386,
      "dash": 7387,
      "dazz": 7388,
      "ee": 7389,
      "eating": 7390,
      "echo": 7391,
      "effic": 7392,
      "fren": 7393,
      "gif": 7394,
      "gather": 7395,
      "harr": 7396,
      "hunt": 7397,
      "hates": 7398,
      "hiding": 7399,
      "jaw": 7400,
      "jung": 7401,
      "jaded": 7402,
      "ki": 7403,
      "kne": 7404,
      "kiss": 7405,
      "lav": 7406,
      "lately": 7407,
      "mu": 7408,
      "mund": 7409,
      "nit": 7410,
      "nest": 7411,
      "nick": 7412,
      "og": 7413,
      "ological": 7414,
      "pel": 7415,
      "panic": 7416,
      "park": 7417,
      "pals": 7418,
      "pages": 7419,
      "pays": 7420,
      "rar": 7421,
      "ray": 7422,
      "ram": 7423,
      "ration": 7424,
      "rook": 7425,
      "rank": 7426,
      "rural": 7427,
      "si": 7428,
      "sin": 7429,
      "som": 7430,
      "sill": 7431,
      "sword": 7432,
      "somed": 7433,
      "tin": 7434,
      "til": 7435,
      "till": 7436,
      "tast": 7437,
      "tong": 7438,
      "tty": 7439,
      "tame": 7440,
      "tree": 7441,
      "tons": 7442,
      "tiny": 7443,
      "taught": 7444,
      "useless": 7445,
      "vest": 7446,
      "vous": 7447,
      "vative": 7448,
      "wis": 7449,
      "wake": 7450,
      "wary": 7451,
      "wins": 7452,
      "wicked": 7453,
      "xen": 7454,
      "yu": 7455,
      "thal": 7456,
      "infe": 7457,
      "inte": 7458,
      "infant": 7459,
      "infli": 7460,
      "inhabit": 7461,
      "thew": 7462,
      "anity": 7463,
      "ancy": 7464,
      "erc": 7465,
      "isible": 7466,
      "isons": 7467,
      "revers": 7468,
      "revel": 7469,
      "rett": 7470,
      "replic": 7471,
      "represents": 7472,
      "onically": 7473,
      "attri": 7474,
      "inger": 7475,
      "esh": 7476,
      "asies": 7477,
      "assa": 7478,
      "asures": 7479,
      "asleep": 7480,
      "token": 7481,
      "itre": 7482,
      "itut": 7483,
      "itors": 7484,
      "arrog": 7485,
      "stitch": 7486,
      "straw": 7487,
      "static": 7488,
      "ildish": 7489,
      "brand": 7490,
      "brid": 7491,
      "brave": 7492,
      "/>'": 7493,
      "secre": 7494,
      "secut": 7495,
      "seats": 7496,
      "lee": 7497,
      "lection": 7498,
      "choo": 7499,
      "chased": 7500,
      "chanic": 7501,
      "choose": 7502,
      "chilling": 7503,
      "childish": 7504,
      "beach": 7505,
      "mode": 7506,
      "moti": 7507,
      "motive": 7508,
      "whining": 7509,
      "ieve": 7510,
      "icing": 7511,
      "icit": 7512,
      "icar": 7513,
      "veget": 7514,
      "addict": 7515,
      "verty": 7516,
      "otion": 7517,
      "owes": 7518,
      "util": 7519,
      "forgiving": 7520,
      "liking": 7521,
      "lized": 7522,
      "mega": 7523,
      "mechanic": 7524,
      "idget": 7525,
      "wizard": 7526,
      "abun": 7527,
      "absor": 7528,
      "aboids": 7529,
      "unle": 7530,
      "unsuspect": 7531,
      "oooo": 7532,
      "kets": 7533,
      "filling": 7534,
      "filler": 7535,
      "fills": 7536,
      "hapless": 7537,
      "withstanding": 7538,
      "areas": 7539,
      "irr": 7540,
      "irs": 7541,
      "irony": 7542,
      "elve": 7543,
      "rier": 7544,
      "river": 7545,
      "ripping": 7546,
      "rified": 7547,
      "superi": 7548,
      "rod": 7549,
      "rol": 7550,
      "roof": 7551,
      "roar": 7552,
      "royal": 7553,
      "improb": 7554,
      "shine": 7555,
      "shatter": 7556,
      "shouting": 7557,
      "shorter": 7558,
      "allment": 7559,
      "bute": 7560,
      "butterfly": 7561,
      "comical": 7562,
      "composed": 7563,
      "dean": 7564,
      "deck": 7565,
      "define": 7566,
      "devoid": 7567,
      "demented": 7568,
      "degree": 7569,
      "ulation": 7570,
      "ulty": 7571,
      "ultra": 7572,
      "plat": 7573,
      "pled": 7574,
      "notably": 7575,
      "acies": 7576,
      "accompan": 7577,
      "fee": 7578,
      "scale": 7579,
      "exorc": 7580,
      "exquis": 7581,
      "exerc": 7582,
      "manip": 7583,
      "diction": 7584,
      "diversity": 7585,
      "uration": 7586,
      "urday": 7587,
      "urbed": 7588,
      "lol": 7589,
      "loca": 7590,
      "esses": 7591,
      "poverty": 7592,
      "este": 7593,
      "esty": 7594,
      "concent": 7595,
      "contrad": 7596,
      "conni": 7597,
      "conscience": 7598,
      "antage": 7599,
      "antial": 7600,
      "ooding": 7601,
      "somebody": 7602,
      "oph": 7603,
      "opra": 7604,
      "option": 7605,
      "artsy": 7606,
      "agre": 7607,
      "agues": 7608,
      "noir": 7609,
      "nobody": 7610,
      "perm": 7611,
      "percent": 7612,
      "seeks": 7613,
      "tead": 7614,
      "worm": 7615,
      "ifying": 7616,
      "prevent": 7617,
      "previews": 7618,
      "preposter": 7619,
      "oused": 7620,
      "weyes": 7621,
      "uptight": 7622,
      "proof": 7623,
      "proving": 7624,
      "prolong": 7625,
      "aston": 7626,
      "ooky": 7627,
      "goal": 7628,
      "sail": 7629,
      "saves": 7630,
      "ineer": 7631,
      "boom": 7632,
      "boot": 7633,
      "bold": 7634,
      "deranged": 7635,
      "umbo": 7636,
      "watches": 7637,
      "itecture": 7638,
      "intro": 7639,
      "overkill": 7640,
      "overlooked": 7641,
      "grav": 7642,
      "grues": 7643,
      "spark": 7644,
      "guard": 7645,
      "orted": 7646,
      "ideal": 7647,
      "shel": 7648,
      "fabr": 7649,
      "willed": 7650,
      "showdown": 7651,
      "raised": 7652,
      "disliked": 7653,
      "disrespect": 7654,
      "disappeared": 7655,
      "blend": 7656,
      "blank": 7657,
      "blanks": 7658,
      "ored": 7659,
      "ette": 7660,
      "wrap": 7661,
      "offering": 7662,
      "greatly": 7663,
      "clue": 7664,
      "twelve": 7665,
      "assed": 7666,
      "assist": 7667,
      "assass": 7668,
      "udes": 7669,
      "everyday": 7670,
      "everybody": 7671,
      "realities": 7672,
      "pron": 7673,
      "crash": 7674,
      "makeup": 7675,
      "interior": 7676,
      "minim": 7677,
      "ilyn": 7678,
      "Stan": 7679,
      "Storm": 7680,
      "angels": 7681,
      "Heard": 7682,
      "awa": 7683,
      "awak": 7684,
      "centre": 7685,
      "shoulder": 7686,
      "coon": 7687,
      "rule": 7688,
      "rude": 7689,
      "ruins": 7690,
      "reads": 7691,
      "avy": 7692,
      "Chopra": 7693,
      "horny": 7694,
      "ensed": 7695,
      "ensible": 7696,
      "object": 7697,
      "aze": 7698,
      "screaming": 7699,
      "timed": 7700,
      "misleading": 7701,
      "mistead": 7702,
      "rights": 7703,
      "hokey": 7704,
      "hospital": 7705,
      "monk": 7706,
      "mony": 7707,
      "monkey": 7708,
      "monitor": 7709,
      "insist": 7710,
      "imperson": 7711,
      "vial": 7712,
      "vixen": 7713,
      "Asgard": 7714,
      "youngest": 7715,
      "Josh": 7716,
      "march": 7717,
      "marries": 7718,
      "triumph": 7719,
      "bubble": 7720,
      "screenwriter": 7721,
      "caring": 7722,
      "THAN": 7723,
      "strate": 7724,
      "Seinfe": 7725,
      "teller": 7726,
      "minds": 7727,
      "minded": 7728,
      "needless": 7729,
      "medical": 7730,
      "committed": 7731,
      "orders": 7732,
      "invisible": 7733,
      "contact": 7734,
      "contest": 7735,
      "worlds": 7736,
      "attend": 7737,
      "Anim": 7738,
      "audio": 7739,
      "relating": 7740,
      "relations": 7741,
      "relatives": 7742,
      "condition": 7743,
      "leaders": 7744,
      "pressed": 7745,
      "resent": 7746,
      "lasted": 7747,
      "compass": 7748,
      "reasonable": 7749,
      "subtext": 7750,
      "classics": 7751,
      "courage": 7752,
      "persons": 7753,
      "decap": 7754,
      "handful": 7755,
      "warri": 7756,
      "Soon": 7757,
      "Roth": 7758,
      "Rosco": 7759,
      "meanwhile": 7760,
      "covers": 7761,
      "useful": 7762,
      "ails": 7763,
      "frank": 7764,
      "Brad": 7765,
      "closing": 7766,
      "coll": 7767,
      "aneously": 7768,
      "curse": 7769,
      "capital": 7770,
      "......": 7771,
      "creature": 7772,
      "sexes": 7773,
      "sexually": 7774,
      "grapher": 7775,
      "ankar": 7776,
      "defined": 7777,
      "helping": 7778,
      "Deed": 7779,
      "glor": 7780,
      "amazingly": 7781,
      "commendable": 7782,
      "hearts": 7783,
      "uller": 7784,
      "halfway": 7785,
      "cries": 7786,
      "cried": 7787,
      "crimes": 7788,
      "buddy": 7789,
      "buddies": 7790,
      "paras": 7791,
      "imagined": 7792,
      "midst": 7793,
      "Something": 7794,
      "Somehow": 7795,
      "prim": 7796,
      "private": 7797,
      "involve": 7798,
      "shorts": 7799,
      "portions": 7800,
      "daughters": 7801,
      "superfic": 7802,
      "magaz": 7803,
      "cycle": 7804,
      "distress": 7805,
      "disturbed": 7806,
      "gged": 7807,
      "Stealth": 7808,
      "Stewart": 7809,
      "drif": 7810,
      "drives": 7811,
      "bands": 7812,
      "simpl": 7813,
      "generate": 7814,
      "morning": 7815,
      "moronic": 7816,
      "apolo": 7817,
      "portrayals": 7818,
      "ORS": 7819,
      "doub": 7820,
      "succ": 7821,
      "thrilled": 7822,
      "wishes": 7823,
      "wished": 7824,
      "hammer": 7825,
      "confir": 7826,
      "confess": 7827,
      "confusion": 7828,
      "2001": 7829,
      "2003": 7830,
      "Ark": 7831,
      "Art": 7832,
      "Armistead": 7833,
      "Bogey": 7834,
      "purchase": 7835,
      "purposes": 7836,
      "technically": 7837,
      "promoted": 7838,
      "planning": 7839,
      "planned": 7840,
      "animal": 7841,
      "architecture": 7842,
      "Berns": 7843,
      "Granted": 7844,
      "Graboids": 7845,
      "cases": 7846,
      "spoof": 7847,
      "featured": 7848,
      "locked": 7849,
      "predictably": 7850,
      "adventur": 7851,
      "identity": 7852,
      "Marilyn": 7853,
      "energetic": 7854,
      "transition": 7855,
      "signs": 7856,
      "signature": 7857,
      "rooms": 7858,
      "Woods": 7859,
      "credited": 7860,
      "????": 7861,
      "Columb": 7862,
      "Columbo": 7863,
      "legends": 7864,
      "iterate": 7865,
      "queen": 7866,
      "Charity": 7867,
      "trait": 7868,
      "angered": 7869,
      "Moon": 7870,
      "darkness": 7871,
      "sweep": 7872,
      "tonight": 7873,
      "pleasantly": 7874,
      "mastery": 7875,
      "innovative": 7876,
      "ordered": 7877,
      "approved": 7878,
      "gangsters": 7879,
      "ttes": 7880,
      "rolled": 7881,
      "scored": 7882,
      "Class": 7883,
      "aimed": 7884,
      "uniforms": 7885,
      "depending": 7886,
      "tortured": 7887,
      "1994": 7888,
      "Horner": 7889,
      "Rai": 7890,
      "masoch": 7891,
      "resulting": 7892,
      "existent": 7893,
      "tremors": 7894,
      "virus": 7895,
      "weakest": 7896,
      "Writer": 7897,
      "focused": 7898,
      "installment": 7899,
      "anagh": 7900,
      "settings": 7901,
      "devil": 7902,
      "devast": 7903,
      "devoted": 7904,
      "desperation": 7905,
      "respective": 7906,
      "explaining": 7907,
      "Jean": 7908,
      "rapid": 7909,
      "throws": 7910,
      "countless": 7911,
      "countries": 7912,
      "catchy": 7913,
      "catches": 7914,
      "labe": 7915,
      "laid": 7916,
      "launch": 7917,
      "literal": 7918,
      "literature": 7919,
      "payoff": 7920,
      "grandson": 7921,
      "checking": 7922,
      "Yeah": 7923,
      "mistakes": 7924,
      "semi": 7925,
      "occasion": 7926,
      "Comm": 7927,
      "Comp": 7928,
      "Comedy": 7929,
      "socie": 7930,
      "Daniell": 7931,
      "Manor": 7932,
      "drops": 7933,
      "dropped": 7934,
      "continuing": 7935,
      "Actors": 7936,
      "Actually": 7937,
      "Actress": 7938,
      "pulp": 7939,
      "officially": 7940,
      "attacks": 7941,
      "Haunted": 7942,
      "USA": 7943,
      "judged": 7944,
      "broken": 7945,
      "1987": 7946,
      "Hamm": 7947,
      "records": 7948,
      "stunned": 7949,
      "backgrounds": 7950,
      "Better": 7951,
      "Betty": 7952,
      "Enter": 7953,
      "Enjoy": 7954,
      "burns": 7955,
      "burning": 7956,
      "reaches": 7957,
      "accurately": 7958,
      "delivering": 7959,
      "embarrassment": 7960,
      "!)<": 7961,
      "Monro": 7962,
      "Matrix": 7963,
      "Matthew": 7964,
      "mmmm": 7965,
      "nominations": 7966,
      "paths": 7967,
      "suitable": 7968,
      "expression": 7969,
      "exploit": 7970,
      "Hogg": 7971,
      "Log": 7972,
      "ounces": 7973,
      "sells": 7974,
      "troubled": 7975,
      "1968": 7976,
      "Calvin": 7977,
      "brutally": 7978,
      "vengeance": 7979,
      "effectively": 7980,
      "medium": 7981,
      "recognized": 7982,
      "recognize": 7983,
      "arrive": 7984,
      "arriving": 7985,
      "belt": 7986,
      "transc": 7987,
      "traveling": 7988,
      "loads": 7989,
      "posted": 7990,
      "suggests": 7991,
      "Schro": 7992,
      "gonna": 7993,
      "immig": 7994,
      "dolls": 7995,
      "WHI": 7996,
      "WHY": 7997,
      "WHAT": 7998,
      "biker": 7999,
      "crossing": 8000,
      "fatal": 8001,
      "fascist": 8002,
      "deeds": 8003,
      "discuss": 8004,
      "Believe": 8005,
      "damage": 8006,
      "squad": 8007,
      "intrigue": 8008,
      "Johnsons": 8009,
      "grips": 8010,
      "voted": 8011,
      "resembles": 8012,
      "Quite": 8013,
      "bullet": 8014,
      "switch": 8015,
      "debate": 8016,
      "machines": 8017,
      "golden": 8018,
      "growing": 8019,
      "responsibility": 8020,
      "Burke": 8021,
      "ROLL": 8022,
      "bombing": 8023,
      "birds": 8024,
      "tape": 8025,
      "rocket": 8026,
      "translation": 8027,
      "Ashford": 8028,
      "Truman": 8029,
      "muted": 8030,
      "inspiration": 8031,
      "remained": 8032,
      "seventh": 8033,
      "highlights": 8034,
      "Satya": 8035,
      "Saturday": 8036,
      "smoking": 8037,
      "walls": 8038,
      "wounds": 8039,
      "heights": 8040,
      "idiot": 8041,
      "proceedings": 8042,
      "thankfully": 8043,
      "printed": 8044,
      "spectacle": 8045,
      "festivals": 8046,
      "Paradise": 8047,
      "hideous": 8048,
      "ashamed": 8049,
      "boiler": 8050,
      "DuckTales": 8051,
      "fooled": 8052,
      "sacrific": 8053,
      "spread": 8054,
      "escapes": 8055,
      "protective": 8056,
      "obsession": 8057,
      "regarding": 8058,
      "Christians": 8059,
      "Daily": 8060,
      "Daisy": 8061,
      "Ricky": 8062,
      "Strange": 8063,
      "Travers": 8064,
      "biography": 8065,
      "fleet": 8066,
      "length": 8067,
      "rhyth": 8068,
      "accomplish": 8069,
      "miserable": 8070,
      "emphas": 8071,
      "companion": 8072,
      "Shahrukh": 8073,
      "Hopefully": 8074,
      "demanding": 8075,
      "SPOILERS": 8076,
      "wartime": 8077,
      "threatened": 8078,
      "scope": 8079,
      "extras": 8080,
      "distracting": 8081,
      "discovery": 8082,
      "Interiors": 8083,
      "performers": 8084,
      "Aishwary": 8085,
      "Mexican": 8086,
      "Maupin": 8087,
      "Metro": 8088,
      "bonus": 8089,
      "hungry": 8090,
      "mountain": 8091,
      "status": 8092,
      "adopted": 8093,
      "ambitious": 8094,
      "maiden": 8095,
      "prejudices": 8096,
      "principal": 8097,
      "financial": 8098,
      "monologue": 8099,
      "philosophy": 8100,
      "nightmares": 8101,
      "electric": 8102,
      "Bernard": 8103,
      "patients": 8104,
      "psychologically": 8105,
      "Happened": 8106,
      "Kelada": 8107,
      "bathroom": 8108,
      "frightening": 8109,
      "nipple": 8110,
      "yuppie": 8111,
      "inherit": 8112,
      "assembly": 8113,
      "unbearable": 8114,
      "inevitable": 8115,
      "guests": 8116,
      "Andrews": 8117,
      "reluctant": 8118,
      "Beauty": 8119,
      "distribution": 8120,
      "ARTET": 8121,
      "SUCKED": 8122,
      "Bottom": 8123,
      "Duncan": 8124,
      "Erwin": 8125,
      "Eppes": 8126,
      "Gouald": 8127,
      "Gosling": 8128,
      "Lowery": 8129,
      "Mosque": 8130,
      "Pulp": 8131,
      "Screweyes": 8132,
      "skeptical": 8133,
      "isolated": 8134,
      "endearing": 8135,
      "encouraged": 8136,
      "segments": 8137,
      "aboard": 8138,
      "imprisoned": 8139,
      "plausible": 8140,
      "trauma": 8141,
      "travesty": 8142,
      "phrase": 8143,
      "subsequent": 8144,
      "Brando": 8145,
      "Possibly": 8146,
      "splendid": 8147,
      "restaurant": 8148,
      "phenomenon": 8149,
      "Honestly": 8150,
      "Bianlian": 8151,
      "Ferrell": 8152,
      "Levine": 8153,
      "MST3": 8154,
      "QUARTET": 8155,
      "Velankar": 8156,
      "pomp": 8157,
      "sketch": 8158,
      "brisk": 8159,
      "adulter": 8160,
      "entitled": 8161,
      "lifestyle": 8162,
      "ambiguous": 8163,
      "artificial": 8164,
      "governess": 8165,
      "despicable": 8166,
      "compliment": 8167,
      "struggle": 8168,
      "tremendous": 8169,
      "Amrapurkar": 8170,
      "circumst": 8171,
      "Karloff": 8172,
      "description": 8173,
      "millennium": 8174,
      "Narasimha": 8175,
      "neighborhood": 8176,
      "Francisco": 8177,
      "August": 8178,
      "Gloria": 8179,
      "Lorenzo": 8180,
      "Several": 8181,
      "Spike": 8182,
      "Spoorloos": 8183,
      "Today": 8184,
      "Temple": 8185,
      "TITAN": 8186,
      "Vartan": 8187,
      "cavalry": 8188,
      "djinn": 8189,
      "musc": 8190,
      "silliness": 8191,
      "someday": 8192,
      "secrets": 8193,
      "motives": 8194,
      "abundance": 8195,
      "improbable": 8196,
      "exquisite": 8197,
      "locaust": 8198,
      "contradi": 8199,
      "preposterous": 8200,
      "gruesome": 8201,
      "Seinfeld": 8202,
      "superficial": 8203,
      "Bernsen": 8204,
      "Aishwarya": 8205,
      "!?": 8206,
      "\").<": 8207,
      "(..": 8208,
      "):": 8209,
      ",<": 8210,
      "23": 8211,
      "47": 8212,
      "95": 8213,
      "99": 8214,
      ":)": 8215,
      "?'": 8216,
      "Ace": 8217,
      "Apo": 8218,
      "Abo": 8219,
      "ACK": 8220,
      "ACT": 8221,
      "BI": 8222,
      "Bon": 8223,
      "Band": 8224,
      "Bab": 8225,
      "Bol": 8226,
      "Book": 8227,
      "Bry": 8228,
      "Buse": 8229,
      "BIN": 8230,
      "Buff": 8231,
      "Body": 8232,
      "BAB": 8233,
      "CD": 8234,
      "CM": 8235,
      "Ca": 8236,
      "Cu": 8237,
      "Cat": 8238,
      "Cand": 8239,
      "Cur": 8240,
      "Cour": 8241,
      "Came": 8242,
      "Certain": 8243,
      "Cue": 8244,
      "CAR": 8245,
      "Cesar": 8246,
      "COM": 8247,
      "Creek": 8248,
      "DC": 8249,
      "Dow": 8250,
      "Dash": 8251,
      "Dian": 8252,
      "Eat": 8253,
      "Eve": 8254,
      "Each": 8255,
      "Elect": 8256,
      "Eric": 8257,
      "Fl": 8258,
      "Fin": 8259,
      "Fort": 8260,
      "Field": 8261,
      "Fasc": 8262,
      "FIC": 8263,
      "Gy": 8264,
      "Gone": 8265,
      "Glo": 8266,
      "Gover": 8267,
      "GOO": 8268,
      "HK": 8269,
      "Hel": 8270,
      "Hur": 8271,
      "Hood": 8272,
      "Hop": 8273,
      "Hart": 8274,
      "Hist": 8275,
      "HER": 8276,
      "Host": 8277,
      "HIM": 8278,
      "Hazz": 8279,
      "IQ": 8280,
      "ITH": 8281,
      "IER": 8282,
      "Imag": 8283,
      "Isn": 8284,
      "Jay": 8285,
      "Job": 8286,
      "KE": 8287,
      "Kirk": 8288,
      "Killer": 8289,
      "Lor": 8290,
      "Lud": 8291,
      "Later": 8292,
      "Los": 8293,
      "Mark": 8294,
      "MIN": 8295,
      "MIS": 8296,
      "Mills": 8297,
      "Making": 8298,
      "NC": 8299,
      "Net": 8300,
      "NUM": 8301,
      "NUT": 8302,
      "NEVER": 8303,
      "Nurse": 8304,
      "OB": 8305,
      "OY": 8306,
      "PD": 8307,
      "PG": 8308,
      "PR": 8309,
      "PS": 8310,
      "Ph": 8311,
      "Pu": 8312,
      "Pv": 8313,
      "Por": 8314,
      "Pac": 8315,
      "Pax": 8316,
      "Penn": 8317,
      "PLE": 8318,
      "PET": 8319,
      "Photo": 8320,
      "Pret": 8321,
      "Panagh": 8322,
      "Rhe": 8323,
      "Rent": 8324,
      "Run": 8325,
      "Rus": 8326,
      "Rating": 8327,
      "Rings": 8328,
      "Renn": 8329,
      "Rudd": 8330,
      "Rama": 8331,
      "RUM": 8332,
      "Ringo": 8333,
      "SS": 8334,
      "Sk": 8335,
      "Son": 8336,
      "Sto": 8337,
      "Sher": 8338,
      "Sex": 8339,
      "Sur": 8340,
      "Sous": 8341,
      "Sich": 8342,
      "Side": 8343,
      "Soul": 8344,
      "Sky": 8345,
      "Sara": 8346,
      "Southern": 8347,
      "TW": 8348,
      "Tor": 8349,
      "Tot": 8350,
      "Tha": 8351,
      "Tam": 8352,
      "Ther": 8353,
      "Try": 8354,
      "TRE": 8355,
      "Texas": 8356,
      "Ut": 8357,
      "WE": 8358,
      "Wiz": 8359,
      "WIN": 8360,
      "WAL": 8361,
      "WITH": 8362,
      "Zane": 8363,
      "ais": 8364,
      "aid": 8365,
      "aired": 8366,
      "bé": 8367,
      "bars": 8368,
      "bbed": 8369,
      "bene": 8370,
      "boun": 8371,
      "blockb": 8372,
      "cé": 8373,
      "cen": 8374,
      "cun": 8375,
      "cure": 8376,
      "cage": 8377,
      "cave": 8378,
      "cities": 8379,
      "craw": 8380,
      "dar": 8381,
      "dent": 8382,
      "dile": 8383,
      "daring": 8384,
      "dashing": 8385,
      "diner": 8386,
      "ement": 8387,
      "etry": 8388,
      "eager": 8389,
      "fs": 8390,
      "fade": 8391,
      "fated": 8392,
      "fod": 8393,
      "ffect": 8394,
      "fian": 8395,
      "fitting": 8396,
      "foul": 8397,
      "facing": 8398,
      "fades": 8399,
      "gic": 8400,
      "gro": 8401,
      "gus": 8402,
      "gate": 8403,
      "goose": 8404,
      "gloss": 8405,
      "ginally": 8406,
      "hh": 8407,
      "hs": 8408,
      "hall": 8409,
      "hick": 8410,
      "hip": 8411,
      "hunk": 8412,
      "hanger": 8413,
      "hills": 8414,
      "ien": 8415,
      "iere": 8416,
      "iable": 8417,
      "ipp": 8418,
      "iating": 8419,
      "ikes": 8420,
      "jar": 8421,
      "jestic": 8422,
      "kater": 8423,
      "kareena": 8424,
      "lat": 8425,
      "lend": 8426,
      "lau": 8427,
      "lake": 8428,
      "lace": 8429,
      "lists": 8430,
      "lays": 8431,
      "laces": 8432,
      "mim": 8433,
      "mers": 8434,
      "mate": 8435,
      "mble": 8436,
      "mud": 8437,
      "mical": 8438,
      "milli": 8439,
      "mask": 8440,
      "muttering": 8441,
      "nn": 8442,
      "nas": 8443,
      "nie": 8444,
      "nel": 8445,
      "nap": 8446,
      "nause": 8447,
      "nuns": 8448,
      "ok": 8449,
      "oth": 8450,
      "oon": 8451,
      "odo": 8452,
      "ovan": 8453,
      "ply": 8454,
      "poo": 8455,
      "pher": 8456,
      "pies": 8457,
      "pper": 8458,
      "pour": 8459,
      "pip": 8460,
      "plight": 8461,
      "phist": 8462,
      "pander": 8463,
      "pants": 8464,
      "rie": 8465,
      "rack": 8466,
      "rations": 8467,
      "rates": 8468,
      "rants": 8469,
      "sman": 8470,
      "sne": 8471,
      "sest": 8472,
      "sard": 8473,
      "sang": 8474,
      "sought": 8475,
      "sigh": 8476,
      "sending": 8477,
      "specially": 8478,
      "sides": 8479,
      "sung": 8480,
      "sassy": 8481,
      "tly": 8482,
      "tact": 8483,
      "tid": 8484,
      "tab": 8485,
      "tam": 8486,
      "tall": 8487,
      "tac": 8488,
      "tman": 8489,
      "taut": 8490,
      "tones": 8491,
      "tax": 8492,
      "turb": 8493,
      "tube": 8494,
      "ua": 8495,
      "uendo": 8496,
      "vy": 8497,
      "vag": 8498,
      "ww": 8499,
      "wy": 8500,
      "wine": 8501,
      "wore": 8502,
      "warr": 8503,
      "wrest": 8504,
      "witty": 8505,
      "yr": 8506,
      "yon": 8507,
      "yell": 8508,
      "ñuel": 8509,
      "thri": 8510,
      "thread": 8511,
      "thumb": 8512,
      "inj": 8513,
      "inous": 8514,
      "inser": 8515,
      "incent": 8516,
      "inction": 8517,
      "insaw": 8518,
      "inos": 8519,
      "instru": 8520,
      "inconsist": 8521,
      "incompreh": 8522,
      "anx": 8523,
      "anan": 8524,
      "anco": 8525,
      "anori": 8526,
      "erun": 8527,
      "errors": 8528,
      "rec": 8529,
      "react": 8530,
      "reel": 8531,
      "restr": 8532,
      "reacted": 8533,
      "represented": 8534,
      "relies": 8535,
      "retired": 8536,
      "replacing": 8537,
      "rehash": 8538,
      "reception": 8539,
      "ont": 8540,
      "oner": 8541,
      "enthr": 8542,
      "envelo": 8543,
      "enorm": 8544,
      "encompass": 8545,
      "ata": 8546,
      "atop": 8547,
      "atable": 8548,
      "atures": 8549,
      "ora": 8550,
      "oria": 8551,
      "oust": 8552,
      "ingu": 8553,
      "inglish": 8554,
      "escent": 8555,
      "asi": 8556,
      "asher": 8557,
      "asset": 8558,
      "alle": 8559,
      "albe": 8560,
      "alot": 8561,
      "alli": 8562,
      "alter": 8563,
      "alpha": 8564,
      "tocr": 8565,
      "ario": 8566,
      "arcs": 8567,
      "eder": 8568,
      "eding": 8569,
      "stam": 8570,
      "stating": 8571,
      "stair": 8572,
      "states": 8573,
      "bride": 8574,
      "brick": 8575,
      "brooding": 8576,
      "het": 8577,
      "/>****": 8578,
      "seated": 8579,
      "sevent": 8580,
      "secur": 8581,
      "chat": 8582,
      "chor": 8583,
      "chic": 8584,
      "chap": 8585,
      "chunk": 8586,
      "betray": 8587,
      "moon": 8588,
      "ician": 8589,
      "ications": 8590,
      "iceless": 8591,
      "advers": 8592,
      "versu": 8593,
      "verted": 8594,
      "otter": 8595,
      "owing": 8596,
      "liar": 8597,
      "liest": 8598,
      "lips": 8599,
      "lift": 8600,
      "lighter": 8601,
      "aying": 8602,
      "ghdad": 8603,
      "wast": 8604,
      "Theater": 8605,
      "wiped": 8606,
      "abby": 8607,
      "uneven": 8608,
      "unra": 8609,
      "unoriginal": 8610,
      "uncertain": 8611,
      "unfair": 8612,
      "unsett": 8613,
      "unaware": 8614,
      "unsatisfied": 8615,
      "unbelievably": 8616,
      "kemon": 8617,
      "haust": 8618,
      "haired": 8619,
      "ldom": 8620,
      "terday": 8621,
      "territ": 8622,
      "ira": 8623,
      "irrelevant": 8624,
      "outright": 8625,
      "outfit": 8626,
      "elo": 8627,
      "gee": 8628,
      "rig": 8629,
      "riz": 8630,
      "amour": 8631,
      "ample": 8632,
      "amused": 8633,
      "suffic": 8634,
      "peak": 8635,
      "roots": 8636,
      "ima": 8637,
      "imony": 8638,
      "shit": 8639,
      "shall": 8640,
      "shred": 8641,
      "shark": 8642,
      "sharing": 8643,
      "shines": 8644,
      "sopr": 8645,
      "sophist": 8646,
      "compo": 8647,
      "compr": 8648,
      "demo": 8649,
      "delet": 8650,
      "degrad": 8651,
      "deterior": 8652,
      "plod": 8653,
      "plastic": 8654,
      "notion": 8655,
      "notwithstanding": 8656,
      "accus": 8657,
      "acclaimed": 8658,
      "apy": 8659,
      "fever": 8660,
      "fetched": 8661,
      "scow": 8662,
      "scant": 8663,
      "scatter": 8664,
      "scape": 8665,
      "exit": 8666,
      "exposed": 8667,
      "exchange": 8668,
      "expose": 8669,
      "exhaust": 8670,
      "therapy": 8671,
      "illar": 8672,
      "illness": 8673,
      "manager": 8674,
      "ersburg": 8675,
      "trace": 8676,
      "trapped": 8677,
      "usters": 8678,
      "loser": 8679,
      "loyal": 8680,
      "posh": 8681,
      "pops": 8682,
      "popped": 8683,
      "poison": 8684,
      "poetry": 8685,
      "whoever": 8686,
      "romp": 8687,
      "conve": 8688,
      "contempt": 8689,
      "dope": 8690,
      "usions": 8691,
      "arting": 8692,
      "artic": 8693,
      "aga": 8694,
      "aggress": 8695,
      "nose": 8696,
      "persu": 8697,
      "veness": 8698,
      "tee": 8699,
      "preced": 8700,
      "ouses": 8701,
      "tied": 8702,
      "indic": 8703,
      "upset": 8704,
      "uplif": 8705,
      "props": 8706,
      "prospect": 8707,
      "proclaimed": 8708,
      "asted": 8709,
      "astly": 8710,
      "acknow": 8711,
      "istin": 8712,
      "charge": 8713,
      "cannon": 8714,
      "cancell": 8715,
      "quot": 8716,
      "quir": 8717,
      "quib": 8718,
      "quasi": 8719,
      "goss": 8720,
      "goodness": 8721,
      "igner": 8722,
      "bos": 8723,
      "ummy": 8724,
      "intim": 8725,
      "whats": 8726,
      "overdone": 8727,
      "overbearing": 8728,
      "inks": 8729,
      "fulfilled": 8730,
      "grave": 8731,
      "grabs": 8732,
      "granted": 8733,
      "grasp": 8734,
      "spar": 8735,
      "spun": 8736,
      "spring": 8737,
      "spooky": 8738,
      "spont": 8739,
      "guards": 8740,
      "aki": 8741,
      "Whilst": 8742,
      "aft": 8743,
      "afore": 8744,
      "blew": 8745,
      "raises": 8746,
      "disci": 8747,
      "dispos": 8748,
      "discer": 8749,
      "disappears": 8750,
      "bless": 8751,
      "bluff": 8752,
      "ishly": 8753,
      "joins": 8754,
      "joined": 8755,
      "cia": 8756,
      "cient": 8757,
      "offended": 8758,
      "ppard": 8759,
      "intoler": 8760,
      "clues": 8761,
      "cluding": 8762,
      "Indeed": 8763,
      "serving": 8764,
      "thru": 8765,
      "directs": 8766,
      "Thus": 8767,
      "ffel": 8768,
      "iley": 8769,
      "pride": 8770,
      "cram": 8771,
      "crude": 8772,
      "ameters": 8773,
      "duo": 8774,
      "dude": 8775,
      "duffel": 8776,
      "wherein": 8777,
      "viet": 8778,
      "interact": 8779,
      "intertw": 8780,
      "interiors": 8781,
      "creation": 8782,
      "merit": 8783,
      "viewings": 8784,
      "mins": 8785,
      "Sting": 8786,
      "Stone": 8787,
      "Stick": 8788,
      "Stella": 8789,
      "angel": 8790,
      "nevertheless": 8791,
      "flown": 8792,
      "flame": 8793,
      "flav": 8794,
      "flames": 8795,
      "flair": 8796,
      "flesh": 8797,
      "pointing": 8798,
      "pointed": 8799,
      "answers": 8800,
      "lifetime": 8801,
      "lifeboat": 8802,
      "coast": 8803,
      "rubber": 8804,
      "10th": 8805,
      "190": 8806,
      "reader": 8807,
      "tales": 8808,
      "ashi": 8809,
      "Chan": 8810,
      "Chuck": 8811,
      "Channel": 8812,
      "despair": 8813,
      "designer": 8814,
      "ensical": 8815,
      "ensions": 8816,
      "cheated": 8817,
      "chemical": 8818,
      "obtain": 8819,
      "observe": 8820,
      "setup": 8821,
      "believes": 8822,
      "couch": 8823,
      "genies": 8824,
      "underworld": 8825,
      "underlying": 8826,
      "letter": 8827,
      "screens": 8828,
      "happiness": 8829,
      "pretensions": 8830,
      "gots": 8831,
      "timing": 8832,
      "misplaced": 8833,
      "castic": 8834,
      "longest": 8835,
      "hoeven": 8836,
      "mons": 8837,
      "monsters": 8838,
      "surpass": 8839,
      "inson": 8840,
      "insanity": 8841,
      "Alan": 8842,
      "Altman": 8843,
      "drum": 8844,
      "startling": 8845,
      "ensemble": 8846,
      "goings": 8847,
      "hubby": 8848,
      "trivial": 8849,
      "bukh": 8850,
      "carrier": 8851,
      "auteur": 8852,
      "phob": 8853,
      "THER": 8854,
      "endings": 8855,
      "Sea": 8856,
      "biting": 8857,
      "begun": 8858,
      "Whatsit": 8859,
      "tenor": 8860,
      "thoughtful": 8861,
      "applied": 8862,
      "writes": 8863,
      "commits": 8864,
      "controlling": 8865,
      "highest": 8866,
      "ultaneously": 8867,
      "smashes": 8868,
      "woods": 8869,
      "Beat": 8870,
      "Beast": 8871,
      "residents": 8872,
      "dynam": 8873,
      "aloof": 8874,
      "motel": 8875,
      "motions": 8876,
      "comprom": 8877,
      "suburban": 8878,
      "classes": 8879,
      "explod": 8880,
      "Leo": 8881,
      "Level": 8882,
      "Leading": 8883,
      "Shetty": 8884,
      "Sheppard": 8885,
      "persona": 8886,
      "vised": 8887,
      "visions": 8888,
      "visiting": 8889,
      "decis": 8890,
      "warlord": 8891,
      "hyper": 8892,
      "hybrid": 8893,
      "president": 8894,
      "tempor": 8895,
      "pivot": 8896,
      "Soviet": 8897,
      "secondary": 8898,
      "Thats": 8899,
      "boyish": 8900,
      "steady": 8901,
      "happenings": 8902,
      "20th": 8903,
      "framed": 8904,
      "messed": 8905,
      "solving": 8906,
      "originality": 8907,
      "Bron": 8908,
      "Bride": 8909,
      "Brief": 8910,
      "Bridget": 8911,
      "camps": 8912,
      "camping": 8913,
      "closet": 8914,
      "closest": 8915,
      "colour": 8916,
      "collabor": 8917,
      "cinemas": 8918,
      "heads": 8919,
      "headed": 8920,
      "headache": 8921,
      "Donovan": 8922,
      "Godfather": 8923,
      "possibility": 8924,
      "differently": 8925,
      "specul": 8926,
      "perfection": 8927,
      "creatures": 8928,
      "definition": 8929,
      "glorious": 8930,
      "glamor": 8931,
      "glamour": 8932,
      "understands": 8933,
      "liner": 8934,
      "logic": 8935,
      "polished": 8936,
      "shares": 8937,
      "shaky": 8938,
      "titive": 8939,
      "folk": 8940,
      "heartfelt": 8941,
      "heartbreaking": 8942,
      "nights": 8943,
      "formal": 8944,
      "Together": 8945,
      "parameters": 8946,
      "staring": 8947,
      "STO": 8948,
      "elev": 8949,
      "fallen": 8950,
      "rising": 8951,
      "involves": 8952,
      "heroine": 8953,
      "productions": 8954,
      "porting": 8955,
      "knives": 8956,
      "slice": 8957,
      "slapped": 8958,
      "slasher": 8959,
      "supernatural": 8960,
      "maggots": 8961,
      "guessed": 8962,
      "distingu": 8963,
      "gger": 8964,
      "opened": 8965,
      "Stephan": 8966,
      "drivel": 8967,
      "suspension": 8968,
      "Luke": 8969,
      "Lucas": 8970,
      "fantasies": 8971,
      "fights": 8972,
      "simultaneously": 8973,
      "stylized": 8974,
      "generic": 8975,
      "generous": 8976,
      "Spir": 8977,
      "ridden": 8978,
      "fairness": 8979,
      "jects": 8980,
      "murderer": 8981,
      "ORT": 8982,
      "thrillers": 8983,
      "counters": 8984,
      "schol": 8985,
      "storms": 8986,
      "failing": 8987,
      "ARD": 8988,
      "Warbur": 8989,
      "Army": 8990,
      "Ardh": 8991,
      "Real": 8992,
      "Reed": 8993,
      "Regard": 8994,
      "pursu": 8995,
      "purchased": 8996,
      "grounds": 8997,
      "deserving": 8998,
      "stronger": 8999,
      "deny": 9000,
      "promo": 9001,
      "promises": 9002,
      "promoting": 9003,
      "SGC": 9004,
      "waves": 9005,
      "Grade": 9006,
      "casm": 9007,
      "casual": 9008,
      "pains": 9009,
      "spoke": 9010,
      "News": 9011,
      "eyeball": 9012,
      "examination": 9013,
      "!!!<": 9014,
      "McEl": 9015,
      "Marcel": 9016,
      "satir": 9017,
      "satire": 9018,
      "transformation": 9019,
      "closely": 9020,
      "developing": 9021,
      "listed": 9022,
      "spective": 9023,
      "deaths": 9024,
      "ification": 9025,
      "Streets": 9026,
      "Maywe": 9027,
      "Shaggy": 9028,
      "Color": 9029,
      "legal": 9030,
      "legally": 9031,
      "structure": 9032,
      "structured": 9033,
      "lected": 9034,
      "Crap": 9035,
      "darker": 9036,
      "summary": 9037,
      "swept": 9038,
      "captors": 9039,
      "REALL": 9040,
      "figures": 9041,
      "pleasing": 9042,
      "masters": 9043,
      "masterful": 9044,
      "approx": 9045,
      "Robson": 9046,
      "hotel": 9047,
      "talky": 9048,
      "cheaper": 9049,
      "Absurd": 9050,
      "Clint": 9051,
      "Doctor": 9052,
      "France": 9053,
      "ITY": 9054,
      "Polish": 9055,
      "gerald": 9056,
      "onicles": 9057,
      "training": 9058,
      "meaningless": 9059,
      "Megan": 9060,
      "custom": 9061,
      "harm": 9062,
      "uniform": 9063,
      "novels": 9064,
      "Hero": 9065,
      "destiny": 9066,
      "tortures": 9067,
      "torturing": 9068,
      "sticks": 9069,
      "ghostly": 9070,
      "1941": 9071,
      "1944": 9072,
      "1993": 9073,
      "1995": 9074,
      "1996": 9075,
      "Rather": 9076,
      "picks": 9077,
      "picky": 9078,
      "trees": 9079,
      "villainous": 9080,
      "ridiculously": 9081,
      "Gerald": 9082,
      "Liar": 9083,
      "Living": 9084,
      "weakness": 9085,
      "Written": 9086,
      "teenager": 9087,
      "Prince": 9088,
      "narrator": 9089,
      "crucial": 9090,
      "Jeff": 9091,
      "Orleans": 9092,
      "miles": 9093,
      "rico": 9094,
      "andering": 9095,
      "tracks": 9096,
      "premiere": 9097,
      "Yorker": 9098,
      "literary": 9099,
      "accepting": 9100,
      "accepted": 9101,
      "walker": 9102,
      "!\"<": 9103,
      "repetitive": 9104,
      "advise": 9105,
      "advantage": 9106,
      "oddly": 9107,
      "1970": 9108,
      "1972": 9109,
      "1970s": 9110,
      "Comic": 9111,
      "LEAG": 9112,
      "MOH": 9113,
      "patri": 9114,
      "convinced": 9115,
      "locales": 9116,
      "politan": 9117,
      "politically": 9118,
      "magician": 9119,
      "complained": 9120,
      "complaints": 9121,
      "Kramer": 9122,
      "Kristin": 9123,
      "Plath": 9124,
      "hoodlum": 9125,
      "ibilities": 9126,
      "pulps": 9127,
      "spotted": 9128,
      "similarly": 9129,
      "similarities": 9130,
      "USO": 9131,
      "testimony": 9132,
      "incident": 9133,
      "incidents": 9134,
      "receives": 9135,
      "brothel": 9136,
      "1988": 9137,
      "Scotty": 9138,
      "destroying": 9139,
      "Alexa": 9140,
      "nonetheless": 9141,
      "combined": 9142,
      "graphed": 9143,
      "Buaku": 9144,
      "Bukater": 9145,
      "Buñuel": 9146,
      "Enrico": 9147,
      "Small": 9148,
      "hateful": 9149,
      "pulling": 9150,
      "woven": 9151,
      "reached": 9152,
      "aristocr": 9153,
      "teaches": 9154,
      "teachers": 9155,
      "stereotype": 9156,
      "stereotyped": 9157,
      "Barnes": 9158,
      "volcan": 9159,
      "brains": 9160,
      "expressed": 9161,
      "describes": 9162,
      "Jessica": 9163,
      "Loved": 9164,
      "flop": 9165,
      "sinks": 9166,
      "sinkable": 9167,
      "qualify": 9168,
      "gained": 9169,
      "matches": 9170,
      "insults": 9171,
      "brutality": 9172,
      "hairdo": 9173,
      "recogniz": 9174,
      "Lovett": 9175,
      "battles": 9176,
      "arrived": 9177,
      "belle": 9178,
      "delighted": 9179,
      "mannerisms": 9180,
      "protest": 9181,
      "colleagues": 9182,
      "sleeping": 9183,
      "?\"<": 9184,
      "LAPD": 9185,
      "SOAP": 9186,
      "SOLD": 9187,
      "SOME": 9188,
      "retarded": 9189,
      "terrorists": 9190,
      "immune": 9191,
      "projects": 9192,
      "practice": 9193,
      "ordinarily": 9194,
      "LOW": 9195,
      "Madison": 9196,
      "depicts": 9197,
      "discussing": 9198,
      "surviving": 9199,
      "survived": 9200,
      "consistently": 9201,
      "favourites": 9202,
      "Walter": 9203,
      "circus": 9204,
      "juice": 9205,
      "square": 9206,
      "senses": 9207,
      "sensible": 9208,
      "sensational": 9209,
      "unexpectedly": 9210,
      "ampire": 9211,
      "designed": 9212,
      "cleverly": 9213,
      "psychopath": 9214,
      "Chainsaw": 9215,
      "voting": 9216,
      "immediate": 9217,
      "provoke": 9218,
      "sporting": 9219,
      "satisfaction": 9220,
      "Keusch": 9221,
      "Simmons": 9222,
      "loosely": 9223,
      "swing": 9224,
      "innuendo": 9225,
      "debts": 9226,
      "machine": 9227,
      "investigation": 9228,
      "investigating": 9229,
      "Burton": 9230,
      "Zombies": 9231,
      "basement": 9232,
      "conventional": 9233,
      "currently": 9234,
      "caly": 9235,
      "calcul": 9236,
      "package": 9237,
      "rumor": 9238,
      "rumors": 9239,
      "thousands": 9240,
      "tricked": 9241,
      "grader": 9242,
      "affects": 9243,
      "Chronicles": 9244,
      "insightful": 9245,
      "comparable": 9246,
      "****************": 9247,
      "accidentally": 9248,
      "Backula": 9249,
      "Culver": 9250,
      "Powell": 9251,
      "Terrible": 9252,
      "fateful": 9253,
      "layman": 9254,
      "splitting": 9255,
      "chicks": 9256,
      "construct": 9257,
      "operas": 9258,
      "substantial": 9259,
      "................": 9260,
      "witnesses": 9261,
      "receiving": 9262,
      "Louis": 9263,
      "Parker": 9264,
      "Parkersburg": 9265,
      "bags": 9266,
      "miracle": 9267,
      "nonsensical": 9268,
      "smooth": 9269,
      "wounded": 9270,
      "throats": 9271,
      "reports": 9272,
      "proceeds": 9273,
      "correctness": 9274,
      "significance": 9275,
      "fascinated": 9276,
      "Farscape": 9277,
      "Lords": 9278,
      "Olivia": 9279,
      "Roland": 9280,
      "Sykes": 9281,
      "System": 9282,
      "cowboy": 9283,
      "nineties": 9284,
      "raccoon": 9285,
      "salv": 9286,
      "slopp": 9287,
      "ensue": 9288,
      "priestesses": 9289,
      "appropriately": 9290,
      "Technically": 9291,
      "Baghdad": 9292,
      "Kathy": 9293,
      "URN": 9294,
      "grossing": 9295,
      "spreading": 9296,
      "organization": 9297,
      "mobile": 9298,
      "protect": 9299,
      "anticipated": 9300,
      "virtually": 9301,
      "bizarrely": 9302,
      "Spoiler": 9303,
      "Rukh": 9304,
      "fifteen": 9305,
      "hints": 9306,
      "punches": 9307,
      "rainy": 9308,
      "seduce": 9309,
      "enthusi": 9310,
      "assured": 9311,
      "tolerant": 9312,
      "peaceful": 9313,
      "accomplished": 9314,
      "charisma": 9315,
      "disgusting": 9316,
      "miserably": 9317,
      "fixed": 9318,
      "puzzle": 9319,
      "Adventure": 9320,
      "Adventists": 9321,
      "reflects": 9322,
      "challenging": 9323,
      "challenged": 9324,
      "demonstrate": 9325,
      "demonstrates": 9326,
      "IDS": 9327,
      "RDA": 9328,
      "S2RD": 9329,
      "Verhoeven": 9330,
      "Valerie": 9331,
      "dumped": 9332,
      "nuts": 9333,
      "puppy": 9334,
      "sarcasm": 9335,
      "ancest": 9336,
      "ingredient": 9337,
      "expensive": 9338,
      "dozens": 9339,
      "weapon": 9340,
      "collective": 9341,
      "possessed": 9342,
      "survivor": 9343,
      "Damien": 9344,
      "Lauren": 9345,
      "Mexico": 9346,
      "Makepeace": 9347,
      "cabin": 9348,
      "finger": 9349,
      "ologist": 9350,
      "ruler": 9351,
      "infuri": 9352,
      "goofy": 9353,
      "spelled": 9354,
      "screwball": 9355,
      "hysterical": 9356,
      "engagement": 9357,
      "Bernie": 9358,
      "transferred": 9359,
      "Romanian": 9360,
      "Romania": 9361,
      "Bromwell": 9362,
      "Bromfield": 9363,
      "Burning": 9364,
      "Cylon": 9365,
      "Callar": 9366,
      "GOD": 9367,
      "HUGE": 9368,
      "Picture": 9369,
      "gags": 9370,
      "resurgence": 9371,
      "attraction": 9372,
      "attracted": 9373,
      "akuza": 9374,
      "evidently": 9375,
      "relentless": 9376,
      "ignorant": 9377,
      "succeeds": 9378,
      "education": 9379,
      "enchanting": 9380,
      "requires": 9381,
      "smells": 9382,
      "mathematical": 9383,
      "Cecil": 9384,
      "Carey": 9385,
      "Fanny": 9386,
      "Gummer": 9387,
      "Kamins": 9388,
      "Tolbukh": 9389,
      "rampant": 9390,
      "alcoholic": 9391,
      "stroke": 9392,
      "brushed": 9393,
      "competit": 9394,
      "divor": 9395,
      "maintains": 9396,
      "faults": 9397,
      "disguised": 9398,
      "interpreted": 9399,
      "miniature": 9400,
      "1951": 9401,
      "marketing": 9402,
      "jewelry": 9403,
      "admittedly": 9404,
      "paintings": 9405,
      "custody": 9406,
[...]
