{
  "version": "1.0",
  "truncation": null,
  "padding": null,
  "added_tokens": [
    {
      "id": 0,
      "content": "<pad>",
      "single_word": false,
      "lstrip": false,
      "rstrip": false,
      "normalized": false,
      "special": true
    },
    {
      "id": 1,
      "content": "<s>",
      "single_word": false,
      "lstrip": false,
      "rstrip": false,
      "normalized": false,
      "special": true
    },
    {
      "id": 2,
      "content": "</s>",
      "single_word": false,
      "lstrip": false,
      "rstrip": false,
      "normalized": false,
      "special": true
    },
    {
      "id": 3,
      "content": "<unk>",
      "single_word": false,
      "lstrip": false,
      "rstrip": false,
      "normalized": false,
      "special": true
    },
    {
      "id": 4,
      "content": "__ellipsis__",
      "single_word": false,
      "lstrip": false,
      "rstrip": false,
      "normalized": false,
      "special": true
    }
  ],
  "normalizer": null,
  "pre_tokenizer": {
    "type": "Whitespace"
  },
  "post_processor": null,
  "decoder": null,
  "model": {
    "type": "BPE",
    "dropout": null,
    "unk_token": null,
    "continuing_subword_prefix": null,
    "end_of_word_suffix": null,
    "fuse_unk": false,
    "byte_fallback": false,
    "ignore_merges": false,
    "vocab": {
      "<pad>": 0,
      "<s>": 1,
      "</s>": 2,
      "<unk>": 3,
      "__ellipsis__": 4,
      "!": 5,
      "\"": 6,
      "#": 7,
      "$": 8,
      "%": 9,
      "&": 10,
      "'": 11,
      "(": 12,
      ")": 13,
      "*": 14,
      "+": 15,
      ",": 16,
      "-": 17,
      ".": 18,
      "/": 19,
      "0": 20,
      "1": 21,
      "2": 22,
      "3": 23,
      "4": 24,
      "5": 25,
      "6": 26,
      "7": 27,
      "8": 28,
      "9": 29,
      ":": 30,
      ";": 31,
      "=": 32,
      "?": 33,
      "@": 34,
      "A": 35,
      "B": 36,
      "C": 37,
      "D": 38,
      "E": 39,
      "F": 40,
      "G": 41,
      "H": 42,
      "I": 43,
      "J": 44,
      "K": 45,
      "L": 46,
      "M": 47,
      "N": 48,
      "O": 49,
      "P": 50,
      "Q": 51,
      "R": 52,
      "S": 53,
      "T": 54,
      "U": 55,
      "V": 56,
      "W": 57,
      "X": 58,
      "Y": 59,
      "Z": 60,
      "^": 61,
      "_": 62,
      "`": 63,
      "a": 64,
      "b": 65,
      "c": 66,
      "d": 67,
      "e": 68,
      "f": 69,
      "g": 70,
      "h": 71,
      "i": 72,
      "j": 73,
      "k": 74,
      "l": 75,
      "m": 76,
      "n": 77,
      "o": 78,
      "p": 79,
      "q": 80,
      "r": 81,
      "s": 82,
      "t": 83,
      "u": 84,
      "v": 85,
      "w": 86,
      "x": 87,
      "y": 88,
      "z": 89,
      "{": 90,
      "}": 91,
      "~": 92,
      "": 93,
      "": 94,
      "": 95,
      "£": 96,
      "¨": 97,
      "´": 98,
      "½": 99,
      "Õ": 100,
      "à": 101,
      "è": 102,
      "é": 103,
      "ê": 104,
      "ï": 105,
      "ñ": 106,
      "ó": 107,
      "–": 108,
      "‘": 109,
      "’": 110,
      "“": 111,
      "”": 112,
      "…": 113,
      "in": 114,
      "er": 115,
      "en": 116,
      "re": 117,
      "on": 118,
      "ing": 119,
      "st": 120,
      "an": 121,
      "al": 122,
      "es": 123,
      "ar": 124,
      "or": 125,
      "ed": 126,
      "at": 127,
      "ou": 128,
      "th": 129,
      "ly": 130,
      "le": 131,
      "il": 132,
      "it": 133,
      "ac": 134,
      "se": 135,
      "ic": 136,
      "ov": 137,
      "ch": 138,
      "ie": 139,
      "om": 140,
      "Th": 141,
      "is": 142,
      "el": 143,
      "ent": 144,
      "ad": 145,
      "ay": 146,
      "ion": 147,
      "li": 148,
      "mov": 149,
      "oo": 150,
      "gh": 151,
      "ow": 152,
      "as": 153,
      "act": 154,
      "ev": 155,
      "ot": 156,
      "The": 157,
      "et": 158,
      "im": 159,
      "am": 160,
      "fil": 161,
      "movie": 162,
      "ke": 163,
      "film": 164,
      "one": 165,
      "un": 166,
      "ri": 167,
      "ol": 168,
      "de": 169,
      "ap": 170,
      "ce": 171,
      "op": 172,
      "ers": 173,
      "ct": 174,
      "ul": 175,
      "sh": 176,
      "com": 177,
      "em": 178,
      "ut": 179,
      "pe": 180,
      "pl": 181,
      "ab": 182,
      "ally": 183,
      "su": 184,
      "ir": 185,
      "ght": 186,
      "di": 187,
      "ve": 188,
      "ex": 189,
      "ag": 190,
      "sc": 191,
      "be": 192,
      "ro": 193,
      "ld": 194,
      "ter": 195,
      "man": 196,
      "tr": 197,
      "ever": 198,
      "ur": 199,
      "ess": 200,
      "id": 201,
      "..": 202,
      "us": 203,
      "ma": 204,
      "fe": 205,
      "end": 206,
      "con": 207,
      "ant": 208,
      "ood": 209,
      "ell": 210,
      "and": 211,
      "ould": 212,
      "art": 213,
      "ast": 214,
      "thing": 215,
      "po": 216,
      "ies": 217,
      "like": 218,
      "oun": 219,
      "ill": 220,
      "for": 221,
      "wor": 222,
      "ain": 223,
      "ne": 224,
      "pre": 225,
      "ous": 226,
      "per": 227,
      "ate": 228,
      "all": 229,
      "ind": 230,
      "tim": 231,
      "ack": 232,
      "ation": 233,
      "get": 234,
      "ory": 235,
      "ther": 236,
      "ook": 237,
      "her": 238,
      "atch": 239,
      "oc": 240,
      "ff": 241,
      "way": 242,
      "he": 243,
      "ist": 244,
      "char": 245,
      "ard": 246,
      "qu": 247,
      "ure": 248,
      "ive": 249,
      "ful": 250,
      "good": 251,
      "pr": 252,
      "ong": 253,
      "charact": 254,
      "thou": 255,
      "ig": 256,
      "This": 257,
      "ge": 258,
      "story": 259,
      "go": 260,
      "um": 261,
      "reat": 262,
      "see": 263,
      "der": 264,
      "av": 265,
      "ight": 266,
      "pro": 267,
      "watch": 268,
      "mu": 269,
      "pt": 270,
      "int": 271,
      "time": 272,
      "au": 273,
      "ome": 274,
      "even": 275,
      "would": 276,
      "te": 277,
      "It": 278,
      "ss": 279,
      "wh": 280,
      "able": 281,
      "cl": 282,
      "are": 283,
      "so": 284,
      "ite": 285,
      "ink": 286,
      "An": 287,
      "iv": 288,
      "...": 289,
      "ep": 290,
      "od": 291,
      "me": 292,
      "ak": 293,
      "scen": 294,
      "gu": 295,
      "ity": 296,
      "sp": 297,
      "ear": 298,
      "gr": 299,
      "ound": 300,
      "ine": 301,
      "aw": 302,
      "show": 303,
      "ort": 304,
      "bad": 305,
      "Wh": 306,
      "our": 307,
      "bl": 308,
      "est": 309,
      "itt": 310,
      "ence": 311,
      "ple": 312,
      "irst": 313,
      "ment": 314,
      "ble": 315,
      "ide": 316,
      "ob": 317,
      "oy": 318,
      "ish": 319,
      "ore": 320,
      "think": 321,
      "ade": 322,
      "now": 323,
      "really": 324,
      "look": 325,
      "ost": 326,
      "ty": 327,
      "lov": 328,
      "ious": 329,
      "play": 330,
      "wi": 331,
      "ople": 332,
      "rect": 333,
      "cr": 334,
      "wr": 335,
      "ors": 336,
      "dis": 337,
      "not": 338,
      "In": 339,
      "str": 340,
      "ass": 341,
      "ice": 342,
      "ick": 343,
      "much": 344,
      "ser": 345,
      "people": 346,
      "age": 347,
      "first": 348,
      "ud": 349,
      "ci": 350,
      "tw": 351,
      "mak": 352,
      "could": 353,
      "well": 354,
      "some": 355,
      "great": 356,
      "direct": 357,
      "out": 358,
      "app": 359,
      "ame": 360,
      "every": 361,
      "dr": 362,
      "know": 363,
      "real": 364,
      "over": 365,
      "made": 366,
      "ace": 367,
      "old": 368,
      "br": 369,
      "St": 370,
      "du": 371,
      "ber": 372,
      "any": 373,
      "ated": 374,
      "movies": 375,
      "characters": 376,
      "ver": 377,
      "other": 378,
      "make": 379,
      "fl": 380,
      "pect": 381,
      "fun": 382,
      "say": 383,
      "year": 384,
      "part": 385,
      "inter": 386,
      "Ch": 387,
      "og": 388,
      "ake": 389,
      "Al": 390,
      "But": 391,
      "up": 392,
      "fect": 393,
      "mer": 394,
      "less": 395,
      "work": 396,
      "And": 397,
      "ef": 398,
      "ck": 399,
      "iew": 400,
      "bet": 401,
      "ance": 402,
      "ire": 403,
      "ict": 404,
      "fin": 405,
      "view": 406,
      "ang": 407,
      "also": 408,
      "ason": 409,
      "films": 410,
      "seen": 411,
      "ical": 412,
      "though": 413,
      "ough": 414,
      "ittle": 415,
      "two": 416,
      "many": 417,
      "ily": 418,
      "never": 419,
      "ash": 420,
      "bel": 421,
      "love": 422,
      "back": 423,
      "plot": 424,
      "point": 425,
      "cre": 426,
      "tain": 427,
      "ans": 428,
      "urn": 429,
      "character": 430,
      "life": 431,
      "acting": 432,
      "seem": 433,
      "little": 434,
      "ere": 435,
      "better": 436,
      "we": 437,
      "tru": 438,
      "10": 439,
      "min": 440,
      "ces": 441,
      "19": 442,
      "He": 443,
      "az": 444,
      "ich": 445,
      "read": 446,
      "scene": 447,
      "come": 448,
      "ens": 449,
      "here": 450,
      "hor": 451,
      "the": 452,
      "ip": 453,
      "low": 454,
      "cent": 455,
      "ru": 456,
      "best": 457,
      "ting": 458,
      "ary": 459,
      "des": 460,
      "ock": 461,
      "ase": 462,
      "want": 463,
      "ually": 464,
      "peci": 465,
      "stand": 466,
      "action": 467,
      "att": 468,
      "ating": 469,
      "scenes": 470,
      "set": 471,
      "perfor": 472,
      "can": 473,
      "to": 474,
      "ust": 475,
      "let": 476,
      "**": 477,
      "if": 478,
      "iz": 479,
      "ars": 480,
      "belie": 481,
      "ning": 482,
      "no": 483,
      "ents": 484,
      "tal": 485,
      "new": 486,
      "ose": 487,
      "ave": 488,
      "off": 489,
      "ry": 490,
      "ath": 491,
      "--": 492,
      "own": 493,
      "gen": 494,
      "os": 495,
      "ably": 496,
      "turn": 497,
      "ins": 498,
      "try": 499,
      "epis": 500,
      "ail": 501,
      "ult": 502,
      "giv": 503,
      "may": 504,
      "wom": 505,
      "ft": 506,
      "ny": 507,
      "actors": 508,
      "years": 509,
      "find": 510,
      "right": 511,
      "interest": 512,
      "kill": 513,
      "If": 514,
      "rem": 515,
      "scre": 516,
      "cast": 517,
      "still": 518,
      "ach": 519,
      "imp": 520,
      "pret": 521,
      "got": 522,
      "happ": 523,
      "ial": 524,
      "ouse": 525,
      "feel": 526,
      "air": 527,
      "fam": 528,
      "joy": 529,
      "ree": 530,
      "lot": 531,
      "ark": 532,
      "thr": 533,
      "ertain": 534,
      "ions": 535,
      "mon": 536,
      "ater": 537,
      "sur": 538,
      "irl": 539,
      "guy": 540,
      "igh": 541,
      "rom": 542,
      "son": 543,
      "sel": 544,
      "cannot": 545,
      "ext": 546,
      "performan": 547,
      "bo": 548,
      "start": 549,
      "exc": 550,
      "ph": 551,
      "ense": 552,
      "series": 553,
      "fact": 554,
      "ile": 555,
      "ank": 556,
      "girl": 557,
      "che": 558,
      "going": 559,
      "As": 560,
      "ian": 561,
      "enjoy": 562,
      "ia": 563,
      "ner": 564,
      "ual": 565,
      "riend": 566,
      "day": 567,
      "gl": 568,
      "bit": 569,
      "hu": 570,
      "oung": 571,
      "aut": 572,
      "ather": 573,
      "makes": 574,
      "ction": 575,
      "watching": 576,
      "mis": 577,
      "most": 578,
      "ste": 579,
      "Jo": 580,
      "ster": 581,
      "There": 582,
      "expect": 583,
      "ffer": 584,
      "something": 585,
      "bu": 586,
      "young": 587,
      "comp": 588,
      "screen": 589,
      "effect": 590,
      "book": 591,
      "friend": 592,
      "tri": 593,
      "res": 594,
      "them": 595,
      "rel": 596,
      "under": 597,
      "big": 598,
      "actually": 599,
      "done": 600,
      "give": 601,
      "long": 602,
      "produ": 603,
      "funny": 604,
      "ending": 605,
      "pos": 606,
      "director": 607,
      "tell": 608,
      "ince": 609,
      "beg": 610,
      "ways": 611,
      "Se": 612,
      "TH": 613,
      "aid": 614,
      "do": 615,
      "cept": 616,
      "erson": 617,
      "cess": 618,
      "sm": 619,
      "tak": 620,
      "thought": 621,
      "minut": 622,
      "that": 623,
      "this": 624,
      "ript": 625,
      "comple": 626,
      "things": 627,
      "onder": 628,
      "thout": 629,
      "pretty": 630,
      "light": 631,
      "ode": 632,
      "saw": 633,
      "They": 634,
      "who": 635,
      "What": 636,
      "mus": 637,
      "must": 638,
      "writ": 639,
      "might": 640,
      "arr": 641,
      "ey": 642,
      "hel": 643,
      "another": 644,
      "ord": 645,
      "sup": 646,
      "ror": 647,
      "ese": 648,
      "ically": 649,
      "comes": 650,
      "need": 651,
      "hard": 652,
      "illi": 653,
      "script": 654,
      "call": 655,
      "owever": 656,
      "kind": 657,
      "nothing": 658,
      "edy": 659,
      "ild": 660,
      "prov": 661,
      "sy": 662,
      "ves": 663,
      "fort": 664,
      "lau": 665,
      "ool": 666,
      "world": 667,
      "Amer": 668,
      "high": 669,
      "king": 670,
      "appe": 671,
      "without": 672,
      "Americ": 673,
      "ced": 674,
      "line": 675,
      "med": 676,
      "par": 677,
      "port": 678,
      "cond": 679,
      "car": 680,
      "ms": 681,
      "ven": 682,
      "wonder": 683,
      "Car": 684,
      "wood": 685,
      "comm": 686,
      "Sh": 687,
      "far": 688,
      "lead": 689,
      "ations": 690,
      "ign": 691,
      "interesting": 692,
      "self": 693,
      "minutes": 694,
      "vious": 695,
      "beaut": 696,
      "press": 697,
      "episode": 698,
      "put": 699,
      "gets": 700,
      "audi": 701,
      "hy": 702,
      "last": 703,
      "ue": 704,
      "lear": 705,
      "season": 706,
      "ional": 707,
      "used": 708,
      "quite": 709,
      "woman": 710,
      "enough": 711,
      "reason": 712,
      "rible": 713,
      "sub": 714,
      "ately": 715,
      "class": 716,
      "por": 717,
      "ved": 718,
      "ased": 719,
      "ship": 720,
      "expl": 721,
      "af": 722,
      "cop": 723,
      "cour": 724,
      "led": 725,
      "pie": 726,
      "inal": 727,
      "around": 728,
      "role": 729,
      "prob": 730,
      "family": 731,
      "co": 732,
      "ale": 733,
      "least": 734,
      "ope": 735,
      "worth": 736,
      "came": 737,
      "kid": 738,
      "vers": 739,
      "ings": 740,
      "dec": 741,
      "cin": 742,
      "person": 743,
      "take": 744,
      "rest": 745,
      "ress": 746,
      "always": 747,
      "ames": 748,
      "cont": 749,
      "making": 750,
      "\".": 751,
      "hn": 752,
      "hand": 753,
      "TV": 754,
      "vis": 755,
      "sure": 756,
      "dial": 757,
      "En": 758,
      "Le": 759,
      "cut": 760,
      "him": 761,
      "ked": 762,
      "my": 763,
      "speci": 764,
      "vent": 765,
      "war": 766,
      "ann": 767,
      "complete": 768,
      "ped": 769,
      "sing": 770,
      "olly": 771,
      "pres": 772,
      "believe": 773,
      "Ne": 774,
      "away": 775,
      "since": 776,
      "orig": 777,
      "differ": 778,
      "John": 779,
      "probably": 780,
      "bor": 781,
      "cap": 782,
      "found": 783,
      "era": 784,
      "effects": 785,
      "mind": 786,
      "sit": 787,
      "ery": 788,
      "anic": 789,
      "times": 790,
      "anything": 791,
      "ith": 792,
      "ond": 793,
      "aught": 794,
      "cou": 795,
      "fr": 796,
      "job": 797,
      "ward": 798,
      "review": 799,
      "second": 800,
      "ise": 801,
      "ness": 802,
      "les": 803,
      "run": 804,
      "use": 805,
      "sequ": 806,
      "entertain": 807,
      "mean": 808,
      "seems": 809,
      "human": 810,
      "For": 811,
      "She": 812,
      "You": 813,
      "ible": 814,
      "almost": 815,
      "cons": 816,
      "true": 817,
      "ER": 818,
      "iful": 819,
      "ks": 820,
      "top": 821,
      "shot": 822,
      "poor": 823,
      "music": 824,
      "So": 825,
      "but": 826,
      "boy": 827,
      "care": 828,
      "mom": 829,
      "eng": 830,
      "oney": 831,
      "oll": 832,
      "ull": 833,
      "comedy": 834,
      "gether": 835,
      "performance": 836,
      "whole": 837,
      "sol": 838,
      "arg": 839,
      "stead": 840,
      "pu": 841,
      "said": 842,
      "\",": 843,
      "add": 844,
      "laugh": 845,
      "ollywood": 846,
      "Tit": 847,
      "what": 848,
      "together": 849,
      "20": 850,
      "house": 851,
      "mess": 852,
      "oth": 853,
      "ative": 854,
      "its": 855,
      "ures": 856,
      "happen": 857,
      "beautiful": 858,
      "original": 859,
      "cam": 860,
      "vol": 861,
      "oot": 862,
      "played": 863,
      "All": 864,
      "American": 865,
      "audience": 866,
      "Br": 867,
      "coun": 868,
      "dev": 869,
      "lin": 870,
      "pow": 871,
      "red": 872,
      "main": 873,
      "head": 874,
      "istic": 875,
      "cinem": 876,
      "Titanic": 877,
      "bly": 878,
      "ect": 879,
      "hal": 880,
      "lack": 881,
      "ving": 882,
      "ane": 883,
      "omb": 884,
      "ular": 885,
      "trying": 886,
      "begin": 887,
      "God": 888,
      "Just": 889,
      "poss": 890,
      "different": 891,
      "couple": 892,
      "DV": 893,
      "Jack": 894,
      "pict": 895,
      "sense": 896,
      "wast": 897,
      "ange": 898,
      "defin": 899,
      "perfect": 900,
      "course": 901,
      "cur": 902,
      "ither": 903,
      "sound": 904,
      "especi": 905,
      "sci": 906,
      "antic": 907,
      "When": 908,
      "special": 909,
      "creat": 910,
      "del": 911,
      "usu": 912,
      "sex": 913,
      "place": 914,
      "grap": 915,
      "horror": 916,
      "DVD": 917,
      "especially": 918,
      "My": 919,
      "cover": 920,
      "money": 921,
      "actor": 922,
      "ott": 923,
      "keep": 924,
      "worst": 925,
      "looks": 926,
      "Un": 927,
      "hum": 928,
      "side": 929,
      "amaz": 930,
      "plays": 931,
      "wife": 932,
      "understand": 933,
      "help": 934,
      "piece": 935,
      "At": 936,
      "On": 937,
      "ief": 938,
      "ime": 939,
      "ute": 940,
      "ellent": 941,
      "form": 942,
      "obvious": 943,
      "with": 944,
      "AN": 945,
      "No": 946,
      "fav": 947,
      "ingly": 948,
      "ody": 949,
      "ments": 950,
      "everything": 951,
      "berl": 952,
      "fan": 953,
      "ike": 954,
      "later": 955,
      "na": 956,
      "rating": 957,
      "empt": 958,
      "commend": 959,
      "Be": 960,
      "One": 961,
      "col": 962,
      "ra": 963,
      "ates": 964,
      "rid": 965,
      "ider": 966,
      "fi": 967,
      "fol": 968,
      "sl": 969,
      "incl": 970,
      "rele": 971,
      "three": 972,
      "again": 973,
      "peri": 974,
      "heart": 975,
      "watched": 976,
      "ared": 977,
      "dram": 978,
      "anyone": 979,
      "half": 980,
      "night": 981,
      "pol": 982,
      "vel": 983,
      "you": 984,
      "ote": 985,
      "goes": 986,
      "gue": 987,
      "imply": 988,
      "Af": 989,
      "Mor": 990,
      "rey": 991,
      "oles": 992,
      "ross": 993,
      "fully": 994,
      "seeing": 995,
      "spe": 996,
      "star": 997,
      "excellent": 998,
      "Dav": 999,
      "Well": 1000,
      "hour": 1001,
      "ten": 1002,
      "ons": 1003,
      "stop": 1004,
      "als": 1005,
      "lig": 1006,
      "ember": 1007,
      "serious": 1008,
      "IN": 1009,
      "bud": 1010,
      "ele": 1011,
      "men": 1012,
      "ted": 1013,
      "sty": 1014,
      "ited": 1015,
      "ism": 1016,
      "someone": 1017,
      "by": 1018,
      "eas": 1019,
      "mar": 1020,
      "song": 1021,
      "imag": 1022,
      "ST": 1023,
      "fight": 1024,
      "jo": 1025,
      "nice": 1026,
      "uck": 1027,
      "ences": 1028,
      "given": 1029,
      "De": 1030,
      "bre": 1031,
      "det": 1032,
      "rather": 1033,
      "simply": 1034,
      "tot": 1035,
      "uff": 1036,
      "atic": 1037,
      "ature": 1038,
      "live": 1039,
      "ams": 1040,
      "ists": 1041,
      "idea": 1042,
      "THE": 1043,
      "fall": 1044,
      "kes": 1045,
      "mur": 1046,
      "mid": 1047,
      "more": 1048,
      "sort": 1049,
      "tit": 1050,
      "vi": 1051,
      "entire": 1052,
      "emot": 1053,
      "pris": 1054,
      "proble": 1055,
      "shows": 1056,
      "boring": 1057,
      "cor": 1058,
      "rent": 1059,
      "instead": 1060,
      "recommend": 1061,
      "iting": 1062,
      "olog": 1063,
      "ird": 1064,
      "itely": 1065,
      "looking": 1066,
      "everyone": 1067,
      "ired": 1068,
      "posed": 1069,
      "beginning": 1070,
      "However": 1071,
      "Hollywood": 1072,
      "NO": 1073,
      "oor": 1074,
      "ograp": 1075,
      "invol": 1076,
      "along": 1077,
      "left": 1078,
      "liked": 1079,
      "gives": 1080,
      "maybe": 1081,
      "miss": 1082,
      "Not": 1083,
      "either": 1084,
      "That": 1085,
      "become": 1086,
      "near": 1087,
      "hero": 1088,
      "wrong": 1089,
      "women": 1090,
      "called": 1091,
      "Some": 1092,
      "To": 1093,
      "gre": 1094,
      "ogue": 1095,
      "pass": 1096,
      "ics": 1097,
      "short": 1098,
      "there": 1099,
      "very": 1100,
      "case": 1101,
      "certain": 1102,
      "daught": 1103,
      "mag": 1104,
      "yet": 1105,
      "ones": 1106,
      "ality": 1107,
      "atter": 1108,
      "ently": 1109,
      "super": 1110,
      "dist": 1111,
      "getting": 1112,
      "meet": 1113,
      "guess": 1114,
      "dren": 1115,
      "takes": 1116,
      "power": 1117,
      "Gr": 1118,
      "Mich": 1119,
      "Sp": 1120,
      "cy": 1121,
      "pop": 1122,
      "ug": 1123,
      "ening": 1124,
      "ends": 1125,
      "performances": 1126,
      "After": 1127,
      "ildren": 1128,
      "else": 1129,
      "Why": 1130,
      "production": 1131,
      "present": 1132,
      "solute": 1133,
      "dri": 1134,
      "sch": 1135,
      "stre": 1136,
      "prop": 1137,
      "disap": 1138,
      "portr": 1139,
      "completely": 1140,
      "Jap": 1141,
      "Sam": 1142,
      "aff": 1143,
      "band": 1144,
      "cer": 1145,
      "loc": 1146,
      "ps": 1147,
      "ying": 1148,
      "ought": 1149,
      "itch": 1150,
      "susp": 1151,
      "except": 1152,
      "word": 1153,
      "fortun": 1154,
      "follow": 1155,
      "budget": 1156,
      "Japan": 1157,
      "fly": 1158,
      "fant": 1159,
      "fore": 1160,
      "ject": 1161,
      "ali": 1162,
      "child": 1163,
      "children": 1164,
      "evil": 1165,
      "ement": 1166,
      "itten": 1167,
      "gener": 1168,
      "favor": 1169,
      "daughter": 1170,
      "LL": 1171,
      "Willi": 1172,
      "fel": 1173,
      "ref": 1174,
      "aps": 1175,
      "ards": 1176,
      "attempt": 1177,
      "ah": 1178,
      "cing": 1179,
      "dict": 1180,
      "fine": 1181,
      "mo": 1182,
      "ping": 1183,
      "wal": 1184,
      "stars": 1185,
      "ition": 1186,
      "adm": 1187,
      "impress": 1188,
      "odes": 1189,
      "loved": 1190,
      "flick": 1191,
      "truly": 1192,
      "includ": 1193,
      "disappoint": 1194,
      "portray": 1195,
      "Fre": 1196,
      "ael": 1197,
      "mother": 1198,
      "sim": 1199,
      "stor": 1200,
      "although": 1201,
      "sever": 1202,
      "Then": 1203,
      "coming": 1204,
      "terrible": 1205,
      "contr": 1206,
      "umb": 1207,
      "awful": 1208,
      "black": 1209,
      "through": 1210,
      "argate": 1211,
      "definitely": 1212,
      "amazing": 1213,
      "murder": 1214,
      "Bru": 1215,
      "OR": 1216,
      "Rob": 1217,
      "We": 1218,
      "dou": 1219,
      "however": 1220,
      "mem": 1221,
      "next": 1222,
      "oft": 1223,
      "sil": 1224,
      "too": 1225,
      "ustr": 1226,
      "vide": 1227,
      "inn": 1228,
      "stup": 1229,
      "orge": 1230,
      "ilar": 1231,
      "chn": 1232,
      "eless": 1233,
      "absolute": 1234,
      "suc": 1235,
      "beh": 1236,
      "using": 1237,
      "prom": 1238,
      "oday": 1239,
      "episodes": 1240,
      "thrill": 1241,
      "lines": 1242,
      "Michael": 1243,
      "AR": 1244,
      "Fr": 1245,
      "based": 1246,
      "face": 1247,
      "fail": 1248,
      "gan": 1249,
      "hist": 1250,
      "ling": 1251,
      "lan": 1252,
      "sn": 1253,
      "vo": 1254,
      "rise": 1255,
      "eman": 1256,
      "aged": 1257,
      "intel": 1258,
      "Indi": 1259,
      "****": 1260,
      "wonderful": 1261,
      "consider": 1262,
      "AT": 1263,
      "Every": 1264,
      "His": 1265,
      "Mr": 1266,
      "Sun": 1267,
      "home": 1268,
      "val": 1269,
      "reme": 1270,
      "ney": 1271,
      "mention": 1272,
      "thinking": 1273,
      "talent": 1274,
      "romantic": 1275,
      "anks": 1276,
      "dialogue": 1277,
      "possible": 1278,
      "break": 1279,
      "Bruce": 1280,
      "Lind": 1281,
      "ON": 1282,
      "Su": 1283,
      "Tim": 1284,
      "body": 1285,
      "down": 1286,
      "sad": 1287,
      "wish": 1288,
      "lim": 1289,
      "written": 1290,
      "direction": 1291,
      "Chin": 1292,
      "extreme": 1293,
      "Engl": 1294,
      "200": 1295,
      "viol": 1296,
      "0s": 1297,
      "Ar": 1298,
      "Mar": 1299,
      "bas": 1300,
      "clear": 1301,
      "mot": 1302,
      "atur": 1303,
      "els": 1304,
      "ides": 1305,
      "aving": 1306,
      "ground": 1307,
      "strong": 1308,
      "known": 1309,
      "ready": 1310,
      "deser": 1311,
      "remember": 1312,
      "small": 1313,
      "support": 1314,
      "ography": 1315,
      "several": 1316,
      "video": 1317,
      "Lu": 1318,
      "den": 1319,
      "ho": 1320,
      "mor": 1321,
      "today": 1322,
      "uri": 1323,
      "list": 1324,
      "ize": 1325,
      "expected": 1326,
      "kids": 1327,
      "version": 1328,
      "situ": 1329,
      "humor": 1330,
      "style": 1331,
      "felt": 1332,
      "Freeman": 1333,
      "often": 1334,
      "Even": 1335,
      "House": 1336,
      "SG": 1337,
      "cle": 1338,
      "fans": 1339,
      "rap": 1340,
      "zomb": 1341,
      "anim": 1342,
      "experi": 1343,
      "close": 1344,
      "spir": 1345,
      "blic": 1346,
      "brilli": 1347,
      "Stargate": 1348,
      "believ": 1349,
      "writing": 1350,
      "supposed": 1351,
      "Carrey": 1352,
      "classic": 1353,
      "camera": 1354,
      "Ber": 1355,
      "Ge": 1356,
      "OK": 1357,
      "bt": 1358,
      "foot": 1359,
      "ha": 1360,
      "ix": 1361,
      "ming": 1362,
      "pain": 1363,
      "soc": 1364,
      "slow": 1365,
      "incre": 1366,
      "enn": 1367,
      "exact": 1368,
      "agal": 1369,
      "antly": 1370,
      "predict": 1371,
      "allow": 1372,
      "finally": 1373,
      "wee": 1374,
      "ized": 1375,
      "appear": 1376,
      "New": 1377,
      "moments": 1378,
      "stupid": 1379,
      "eg": 1380,
      "father": 1381,
      "gave": 1382,
      "land": 1383,
      "went": 1384,
      "ener": 1385,
      "rec": 1386,
      "deal": 1387,
      "compl": 1388,
      "ages": 1389,
      "full": 1390,
      "gest": 1391,
      "ause": 1392,
      "Also": 1393,
      "turned": 1394,
      "Seagal": 1395,
      "eye": 1396,
      "contin": 1397,
      "public": 1398,
      "waste": 1399,
      "favorite": 1400,
      "Kap": 1401,
      "War": 1402,
      "hope": 1403,
      "just": 1404,
      "pur": 1405,
      "where": 1406,
      "arch": 1407,
      "level": 1408,
      "ility": 1409,
      "advent": 1410,
      "exam": 1411,
      "rodu": 1412,
      "writer": 1413,
      "learn": 1414,
      "entertaining": 1415,
      "others": 1416,
      "drama": 1417,
      "Mc": 1418,
      "Now": 1419,
      "cas": 1420,
      "fre": 1421,
      "lo": 1422,
      "lost": 1423,
      "ude": 1424,
      "iness": 1425,
      "ered": 1426,
      "ities": 1427,
      "elop": 1428,
      "event": 1429,
      "unk": 1430,
      "ulous": 1431,
      "plan": 1432,
      "trans": 1433,
      "ided": 1434,
      "surpris": 1435,
      "guys": 1436,
      "capt": 1437,
      "totally": 1438,
      "Kapoor": 1439,
      "Don": 1440,
      "How": 1441,
      "pite": 1442,
      "roles": 1443,
      "leg": 1444,
      "ask": 1445,
      "rist": 1446,
      "worse": 1447,
      "looked": 1448,
      "makers": 1449,
      "friends": 1450,
      "eyes": 1451,
      "develop": 1452,
      "usual": 1453,
      "Williams": 1454,
      "\"(": 1455,
      "Ex": 1456,
      "Sc": 1457,
      "With": 1458,
      "bro": 1459,
      "jor": 1460,
      "mel": 1461,
      "past": 1462,
      "path": 1463,
      "spo": 1464,
      "spect": 1465,
      "sign": 1466,
      "tou": 1467,
      "took": 1468,
      "omin": 1469,
      "eter": 1470,
      "death": 1471,
      "room": 1472,
      "uses": 1473,
      "While": 1474,
      "typ": 1475,
      "crap": 1476,
      "Stre": 1477,
      "days": 1478,
      "berlake": 1479,
      "May": 1480,
      "Wood": 1481,
      "bed": 1482,
      "ding": 1483,
      "haps": 1484,
      "mad": 1485,
      "sat": 1486,
      "ont": 1487,
      "techn": 1488,
      "cred": 1489,
      "seemed": 1490,
      "turns": 1491,
      "sych": 1492,
      "title": 1493,
      "Japanese": 1494,
      "English": 1495,
      "Bl": 1496,
      "Col": 1497,
      "Jim": 1498,
      "ca": 1499,
      "name": 1500,
      "alth": 1501,
      "lect": 1502,
      "chance": 1503,
      "change": 1504,
      "unch": 1505,
      "shock": 1506,
      "ended": 1507,
      "shown": 1508,
      "wise": 1509,
      "import": 1510,
      "started": 1511,
      "picture": 1512,
      "deliv": 1513,
      "stories": 1514,
      "absolutely": 1515,
      "success": 1516,
      "Timberlake": 1517,
      "believable": 1518,
      "exactly": 1519,
      "Cr": 1520,
      "James": 1521,
      "ax": 1522,
      "fair": 1523,
      "ues": 1524,
      "vill": 1525,
      "iter": 1526,
      "uture": 1527,
      "ident": 1528,
      "que": 1529,
      "Char": 1530,
      "efore": 1531,
      "effort": 1532,
      "speak": 1533,
      "certainly": 1534,
      "touch": 1535,
      "Osc": 1536,
      "Rose": 1537,
      "aur": 1538,
      "dle": 1539,
      "hus": 1540,
      "ton": 1541,
      "treat": 1542,
      "will": 1543,
      "aced": 1544,
      "iest": 1545,
      "actress": 1546,
      "ets": 1547,
      "ried": 1548,
      "conf": 1549,
      "aster": 1550,
      "heard": 1551,
      "quest": 1552,
      "ored": 1553,
      "playing": 1554,
      "crit": 1555,
      "partic": 1556,
      "horrible": 1557,
      "starts": 1558,
      "girls": 1559,
      "tells": 1560,
      "behind": 1561,
      "Austr": 1562,
      "Per": 1563,
      "aul": 1564,
      "dark": 1565,
      "hold": 1566,
      "ik": 1567,
      "ric": 1568,
      "za": 1569,
      "lives": 1570,
      "amed": 1571,
      "apart": 1572,
      "sum": 1573,
      "bey": 1574,
      "conv": 1575,
      "while": 1576,
      "Any": 1577,
      "obviously": 1578,
      "fortunately": 1579,
      "intellig": 1580,
      "George": 1581,
      "Ah": 1582,
      "Di": 1583,
      "Re": 1584,
      "cult": 1585,
      "fic": 1586,
      "fem": 1587,
      "how": 1588,
      "hop": 1589,
      "num": 1590,
      "psych": 1591,
      "ts": 1592,
      "was": 1593,
      "issu": 1594,
      "dest": 1595,
      "ury": 1596,
      "directed": 1597,
      "enjoyed": 1598,
      "highly": 1599,
      "doubt": 1600,
      "husband": 1601,
      "Con": 1602,
      "Ed": 1603,
      "Fil": 1604,
      "Oh": 1605,
      "cause": 1606,
      "fig": 1607,
      "gi": 1608,
      "hit": 1609,
      "matter": 1610,
      "non": 1611,
      "sk": 1612,
      "wa": 1613,
      "win": 1614,
      "reg": 1615,
      "iel": 1616,
      "acted": 1617,
      "etc": 1618,
      "utter": 1619,
      "aby": 1620,
      "forget": 1621,
      "ured": 1622,
      "introdu": 1623,
      "akes": 1624,
      "pleas": 1625,
      "final": 1626,
      "truth": 1627,
      "romance": 1628,
      "enjoyable": 1629,
      "dialog": 1630,
      "message": 1631,
      "cinema": 1632,
      "Justin": 1633,
      "easily": 1634,
      "suspense": 1635,
      "incredi": 1636,
      "Ak": 1637,
      "EN": 1638,
      "Of": 1639,
      "hot": 1640,
      "rated": 1641,
      "ena": 1642,
      "recent": 1643,
      "stuff": 1644,
      "order": 1645,
      "chang": 1646,
      "amer": 1647,
      "dead": 1648,
      "ives": 1649,
      "bring": 1650,
      "parts": 1651,
      "wants": 1652,
      "genre": 1653,
      "giving": 1654,
      "chees": 1655,
      "Neill": 1656,
      "involved": 1657,
      "throughout": 1658,
      "silly": 1659,
      "violence": 1660,
      "Austral": 1661,
      "IS": 1662,
      "Over": 1663,
      "Pr": 1664,
      "Tash": 1665,
      "cost": 1666,
      "cool": 1667,
      "future": 1668,
      "gang": 1669,
      "met": 1670,
      "ys": 1671,
      "leave": 1672,
      "onest": 1673,
      "rip": 1674,
      "dep": 1675,
      "decent": 1676,
      "team": 1677,
      "odd": 1678,
      "itting": 1679,
      "type": 1680,
      "appar": 1681,
      "says": 1682,
      "viewer": 1683,
      "anger": 1684,
      "ific": 1685,
      "talk": 1686,
      "cheap": 1687,
      "medi": 1688,
      "annoy": 1689,
      "moment": 1690,
      "David": 1691,
      "problem": 1692,
      "school": 1693,
      "Tashan": 1694,
      "\")": 1695,
      "Ab": 1696,
      "Go": 1697,
      "Wor": 1698,
      "ai": 1699,
      "ball": 1700,
      "fer": 1701,
      "gal": 1702,
      "ged": 1703,
      "ier": 1704,
      "nov": 1705,
      "ench": 1706,
      "onic": 1707,
      "stun": 1708,
      "ention": 1709,
      "ays": 1710,
      "shay": 1711,
      "about": 1712,
      "dies": 1713,
      "tra": 1714,
      "train": 1715,
      "quality": 1716,
      "ished": 1717,
      "overall": 1718,
      "works": 1719,
      "wanted": 1720,
      "Lee": 1721,
      "meaning": 1722,
      "NOT": 1723,
      "history": 1724,
      "Super": 1725,
      "situation": 1726,
      "brilliant": 1727,
      "cheesy": 1728,
      "30": 1729,
      "First": 1730,
      "From": 1731,
      "aim": 1732,
      "four": 1733,
      "hell": 1734,
      "io": 1735,
      "ned": 1736,
      "py": 1737,
      "rad": 1738,
      "sor": 1739,
      "already": 1740,
      "itive": 1741,
      "apt": 1742,
      "uss": 1743,
      "preci": 1744,
      "heav": 1745,
      "ument": 1746,
      "which": 1747,
      "relation": 1748,
      "including": 1749,
      "extremely": 1750,
      "particular": 1751,
      "Naz": 1752,
      "RE": 1753,
      "cli": 1754,
      "city": 1755,
      "fire": 1756,
      "tort": 1757,
      "stick": 1758,
      "moving": 1759,
      "ghost": 1760,
      "opin": 1761,
      "opening": 1762,
      "comments": 1763,
      "ago": 1764,
      "urb": 1765,
      "master": 1766,
      "pose": 1767,
      "soon": 1768,
      "early": 1769,
      "blood": 1770,
      "wrote": 1771,
      "realistic": 1772,
      "flaw": 1773,
      "194": 1774,
      "199": 1775,
      "sets": 1776,
      "remind": 1777,
      "happy": 1778,
      "taken": 1779,
      "leads": 1780,
      "happened": 1781,
      "usually": 1782,
      "police": 1783,
      "Morgan": 1784,
      "thriller": 1785,
      "example": 1786,
      "spoil": 1787,
      "Streep": 1788,
      "giant": 1789,
      "Akshay": 1790,
      "relationship": 1791,
      "Ad": 1792,
      "Before": 1793,
      "Her": 1794,
      "Hor": 1795,
      "IM": 1796,
      "IT": 1797,
      "Te": 1798,
      "Watch": 1799,
      "fa": 1800,
      "free": 1801,
      "gy": 1802,
      "har": 1803,
      "hom": 1804,
      "lar": 1805,
      "late": 1806,
      "mark": 1807,
      "oid": 1808,
      "oss": 1809,
      "som": 1810,
      "anza": 1811,
      "oul": 1812,
      "iculous": 1813,
      "iss": 1814,
      "events": 1815,
      "kept": 1816,
      "deep": 1817,
      "comic": 1818,
      "exist": 1819,
      "major": 1820,
      "ffic": 1821,
      "aves": 1822,
      "stru": 1823,
      "somewhat": 1824,
      "Cham": 1825,
      "ults": 1826,
      "happens": 1827,
      "tries": 1828,
      "songs": 1829,
      "middle": 1830,
      "admit": 1831,
      "innoc": 1832,
      "Lindy": 1833,
      "predictable": 1834,
      "Oscar": 1835,
      "Can": 1836,
      "doc": 1837,
      "dog": 1838,
      "equ": 1839,
      "ger": 1840,
      "male": 1841,
      "natur": 1842,
      "pick": 1843,
      "swe": 1844,
      "save": 1845,
      "slight": 1846,
      "tow": 1847,
      "ering": 1848,
      "ances": 1849,
      "alone": 1850,
      "oup": 1851,
      "ley": 1852,
      "iety": 1853,
      "ady": 1854,
      "etic": 1855,
      "comment": 1856,
      "becomes": 1857,
      "areena": 1858,
      "disc": 1859,
      "azy": 1860,
      "country": 1861,
      "created": 1862,
      "ridiculous": 1863,
      "released": 1864,
      "voice": 1865,
      "experience": 1866,
      "villain": 1867,
      "beyond": 1868,
      "number": 1869,
      "Act": 1870,
      "Ger": 1871,
      "Jaff": 1872,
      "Nor": 1873,
      "OF": 1874,
      "Yes": 1875,
      "aight": 1876,
      "baby": 1877,
      "die": 1878,
      "dull": 1879,
      "fast": 1880,
      "gun": 1881,
      "sa": 1882,
      "uine": 1883,
      "vir": 1884,
      "ya": 1885,
      "incess": 1886,
      "aring": 1887,
      "acc": 1888,
      "iment": 1889,
      "did": 1890,
      "astic": 1891,
      "white": 1892,
      "badly": 1893,
      "ester": 1894,
      "straight": 1895,
      "brought": 1896,
      "Although": 1897,
      "killing": 1898,
      "huge": 1899,
      "musical": 1900,
      "seasons": 1901,
      "career": 1902,
      "Davis": 1903,
      "important": 1904,
      "novel": 1905,
      "Chamberl": 1906,
      "Abu": 1907,
      "Cl": 1908,
      "Du": 1909,
      "Or": 1910,
      "Wr": 1911,
      "cock": 1912,
      "foc": 1913,
      "gone": 1914,
      "mist": 1915,
      "sle": 1916,
      "inst": 1917,
      "ined": 1918,
      "ana": 1919,
      "ork": 1920,
      "atography": 1921,
      "accent": 1922,
      "across": 1923,
      "aspect": 1924,
      "asks": 1925,
      "imes": 1926,
      "score": 1927,
      "hether": 1928,
      "teen": 1929,
      "arely": 1930,
      "discover": 1931,
      "standing": 1932,
      "setting": 1933,
      "talking": 1934,
      "needs": 1935,
      "appears": 1936,
      "vision": 1937,
      "shots": 1938,
      "hours": 1939,
      "flying": 1940,
      "footage": 1941,
      "Chamberlain": 1942,
      "Dr": 1943,
      "Eur": 1944,
      "Jes": 1945,
      "Night": 1946,
      "Pol": 1947,
      "ient": 1948,
      "jum": 1949,
      "mod": 1950,
      "narr": 1951,
      "of": 1952,
      "ok": 1953,
      "rate": 1954,
      "told": 1955,
      "viv": 1956,
      "ony": 1957,
      "acing": 1958,
      "ield": 1959,
      "among": 1960,
      "appreci": 1961,
      "aging": 1962,
      "trad": 1963,
      "prem": 1964,
      "perhaps": 1965,
      "prot": 1966,
      "prof": 1967,
      "clich": 1968,
      "cru": 1969,
      "crew": 1970,
      "desc": 1971,
      "desper": 1972,
      "monster": 1973,
      "respect": 1974,
      "theme": 1975,
      "explain": 1976,
      "reviews": 1977,
      "World": 1978,
      "Bat": 1979,
      "Doc": 1980,
      "Ear": 1981,
      "IE": 1982,
      "Je": 1983,
      "King": 1984,
      "Kareena": 1985,
      "Mov": 1986,
      "Most": 1987,
      "Yet": 1988,
      "eth": 1989,
      "honest": 1990,
      "law": 1991,
      "mil": 1992,
      "pure": 1993,
      "sent": 1994,
      "ination": 1995,
      "ened": 1996,
      "aces": 1997,
      "search": 1998,
      "enty": 1999,
      "actual": 2000,
      "she": 2001,
      "track": 2002,
      "uso": 2003,
      "ational": 2004,
      "quick": 2005,
      "test": 2006,
      "draw": 2007,
      "Star": 2008,
      "flash": 2009,
      "worked": 2010,
      "rupt": 2011,
      "feeling": 2012,
      "throw": 2013,
      "taking": 2014,
      "parents": 2015,
      "single": 2016,
      "running": 2017,
      "ING": 2018,
      "problems": 2019,
      "words": 2020,
      "eventually": 2021,
      "annoying": 2022,
      "large": 2023,
      "document": 2024,
      "Camer": 2025,
      "Gre": 2026,
      "Lanza": 2027,
      "OU": 2028,
      "Vi": 2029,
      "York": 2030,
      "bott": 2031,
      "catch": 2032,
      "dance": 2033,
      "liter": 2034,
      "oon": 2035,
      "pay": 2036,
      "pet": 2037,
      "town": 2038,
      "stud": 2039,
      "accept": 2040,
      "sem": 2041,
      "ising": 2042,
      "living": 2043,
      "ability": 2044,
      "suffer": 2045,
      "conne": 2046,
      "contain": 2047,
      "ants": 2048,
      "gore": 2049,
      "check": 2050,
      "expecting": 2051,
      "decided": 2052,
      "personal": 2053,
      "myster": 2054,
      "cinematography": 2055,
      "ology": 2056,
      "Space": 2057,
      "walk": 2058,
      "zombie": 2059,
      "adventure": 2060,
      "Maybe": 2061,
      "Ahmad": 2062,
      "Europe": 2063,
      "Cameron": 2064,
      "00": 2065,
      "Bu": 2066,
      "Mi": 2067,
      "Peter": 2068,
      "Paul": 2069,
      "dre": 2070,
      "dad": 2071,
      "fict": 2072,
      "lie": 2073,
      "sw": 2074,
      "reve": 2075,
      "aris": 2076,
      "third": 2077,
      "cho": 2078,
      "adv": 2079,
      "lier": 2080,
      "amet": 2081,
      "unlike": 2082,
      "terri": 2083,
      "necess": 2084,
      "atest": 2085,
      "occas": 2086,
      "due": 2087,
      "saying": 2088,
      "197": 2089,
      "horri": 2090,
      "killed": 2091,
      "box": 2092,
      "mostly": 2093,
      "tried": 2094,
      "media": 2095,
      "emotional": 2096,
      "greatest": 2097,
      "week": 2098,
      "opinion": 2099,
      "slightly": 2100,
      "',": 2101,
      "Com": 2102,
      "LE": 2103,
      "Like": 2104,
      "MO": 2105,
      "Pe": 2106,
      "Rich": 2107,
      "Sch": 2108,
      "Where": 2109,
      "gay": 2110,
      "ially": 2111,
      "kas": 2112,
      "ler": 2113,
      "los": 2114,
      "mill": 2115,
      "mater": 2116,
      "pat": 2117,
      "pot": 2118,
      "ram": 2119,
      "yes": 2120,
      "ices": 2121,
      "overs": 2122,
      "These": 2123,
      "oose": 2124,
      "une": 2125,
      "ung": 2126,
      "ultim": 2127,
      "shame": 2128,
      "comed": 2129,
      "emb": 2130,
      "suck": 2131,
      "forward": 2132,
      "whose": 2133,
      "means": 2134,
      "group": 2135,
      "showing": 2136,
      "write": 2137,
      "directors": 2138,
      "weak": 2139,
      "reading": 2140,
      "despite": 2141,
      "killer": 2142,
      "famil": 2143,
      "sym": 2144,
      "Caruso": 2145,
      "sequences": 2146,
      "release": 2147,
      "local": 2148,
      "memor": 2149,
      "Chinese": 2150,
      "Lukas": 2151,
      "convin": 2152,
      "Overall": 2153,
      "cliché": 2154,
      "material": 2155,
      "12": 2156,
      "Cap": 2157,
      "Dan": 2158,
      "Des": 2159,
      "Games": 2160,
      "Hell": 2161,
      "Sa": 2162,
      "five": 2163,
      "hilar": 2164,
      "ibly": 2165,
      "jud": 2166,
      "lame": 2167,
      "nor": 2168,
      "named": 2169,
      "ini": 2170,
      "stay": 2171,
      "escap": 2172,
      "ove": 2173,
      "etimes": 2174,
      "imm": 2175,
      "ride": 2176,
      "beat": 2177,
      "became": 2178,
      "road": 2179,
      "idence": 2180,
      "concept": 2181,
      "concer": 2182,
      "claim": 2183,
      "earth": 2184,
      "earlier": 2185,
      "theat": 2186,
      "tale": 2187,
      "office": 2188,
      "famous": 2189,
      "after": 2190,
      "front": 2191,
      "poorly": 2192,
      "ength": 2193,
      "Brit": 2194,
      "easy": 2195,
      "detail": 2196,
      "magic": 2197,
      "fantastic": 2198,
      "disappointed": 2199,
      "complain": 2200,
      "continu": 2201,
      "female": 2202,
      "sorry": 2203,
      "Jaffar": 2204,
      "Ale": 2205,
      "CH": 2206,
      "II": 2207,
      "Kord": 2208,
      "Man": 2209,
      "Pl": 2210,
      "bar": 2211,
      "bus": 2212,
      "ecut": 2213,
      "hood": 2214,
      "ib": 2215,
      "ied": 2216,
      "nature": 2217,
      "pul": 2218,
      "wit": 2219,
      "ware": 2220,
      "return": 2221,
      "ised": 2222,
      "depict": 2223,
      "ution": 2224,
      "vest": 2225,
      "before": 2226,
      "Its": 2227,
      "spent": 2228,
      "Who": 2229,
      "somehow": 2230,
      "Steven": 2231,
      "ension": 2232,
      "attack": 2233,
      "offic": 2234,
      "build": 2235,
      "visual": 2236,
      "sequence": 2237,
      "entertainment": 2238,
      "jokes": 2239,
      "falls": 2240,
      "similar": 2241,
      "Robin": 2242,
      "supporting": 2243,
      "Crouse": 2244,
      "faith": 2245,
      "Canad": 2246,
      "profess": 2247,
      "Batman": 2248,
      "Earth": 2249,
      "hilarious": 2250,
      "Korda": 2251,
      "Dis": 2252,
      "Great": 2253,
      "Hitch": 2254,
      "US": 2255,
      "bb": 2256,
      "bother": 2257,
      "burn": 2258,
      "dress": 2259,
      "fit": 2260,
      "field": 2261,
      "ior": 2262,
      "kick": 2263,
      "whether": 2264,
      "ret": 2265,
      "rece": 2266,
      "repe": 2267,
      "resp": 2268,
      "stere": 2269,
      "anch": 2270,
      "oud": 2271,
      "ential": 2272,
      "move": 2273,
      "ows": 2274,
      "asy": 2275,
      "key": 2276,
      "uni": 2277,
      "plane": 2278,
      "suspect": 2279,
      "execut": 2280,
      "agon": 2281,
      "trav": 2282,
      "usion": 2283,
      "ount": 2284,
      "forced": 2285,
      "grand": 2286,
      "flat": 2287,
      "198": 2288,
      "remors": 2289,
      "writers": 2290,
      "arring": 2291,
      "leading": 2292,
      "cops": 2293,
      "within": 2294,
      "seriously": 2295,
      "imagine": 2296,
      "proper": 2297,
      "mentioned": 2298,
      "typical": 2299,
      "satis": 2300,
      "destro": 2301,
      "figure": 2302,
      "Australian": 2303,
      "Superman": 2304,
      "IMD": 2305,
      "sometimes": 2306,
      "Saif": 2307,
      "Alex": 2308,
      "BC": 2309,
      "Best": 2310,
      "Dou": 2311,
      "ET": 2312,
      "El": 2313,
      "Ham": 2314,
      "Mamet": 2315,
      "Sm": 2316,
      "Sus": 2317,
      "VER": 2318,
      "aj": 2319,
      "bunch": 2320,
      "cart": 2321,
      "din": 2322,
      "fell": 2323,
      "game": 2324,
      "mix": 2325,
      "nic": 2326,
      "none": 2327,
      "pers": 2328,
      "ris": 2329,
      "rich": 2330,
      "vic": 2331,
      "inc": 2332,
      "ert": 2333,
      "ald": 2334,
      "ator": 2335,
      "atmo": 2336,
      "thor": 2337,
      "oty": 2338,
      "ceed": 2339,
      "comb": 2340,
      "abu": 2341,
      "diffic": 2342,
      "urt": 2343,
      "ender": 2344,
      "storyline": 2345,
      "tele": 2346,
      "sphere": 2347,
      "gram": 2348,
      "serial": 2349,
      "outstanding": 2350,
      "working": 2351,
      "background": 2352,
      "uster": 2353,
      "achie": 2354,
      "buy": 2355,
      "telling": 2356,
      "count": 2357,
      "Jackson": 2358,
      "street": 2359,
      "simple": 2360,
      "China": 2361,
      "animation": 2362,
      "record": 2363,
      "surprised": 2364,
      "intelligent": 2365,
      "premise": 2366,
      "Daniel": 2367,
      "atmosphere": 2368,
      "AD": 2369,
      "Bet": 2370,
      "Hay": 2371,
      "Ir": 2372,
      "Jenn": 2373,
      "Kr": 2374,
      "Kum": 2375,
      "Mus": 2376,
      "Mery": 2377,
      "Pat": 2378,
      "Sabu": 2379,
      "Wang": 2380,
      "dden": 2381,
      "hate": 2382,
      "holes": 2383,
      "kn": 2384,
      "ky": 2385,
      "lor": 2386,
      "luck": 2387,
      "mal": 2388,
      "pull": 2389,
      "round": 2390,
      "roll": 2391,
      "sist": 2392,
      "iny": 2393,
      "reck": 2394,
      "ats": 2395,
      "attr": 2396,
      "accur": 2397,
      "eline": 2398,
      "ristop": 2399,
      "emy": 2400,
      "scary": 2401,
      "managed": 2402,
      "const": 2403,
      "concl": 2404,
      "elling": 2405,
      "former": 2406,
      "forgot": 2407,
      "ously": 2408,
      "hear": 2409,
      "appy": 2410,
      "drop": 2411,
      "Christop": 2412,
      "upon": 2413,
      "creep": 2414,
      "attention": 2415,
      "belief": 2416,
      "remark": 2417,
      "girlfriend": 2418,
      "arrass": 2419,
      "needed": 2420,
      "America": 2421,
      "subject": 2422,
      "copy": 2423,
      "sequel": 2424,
      "laughs": 2425,
      "sexual": 2426,
      "keeps": 2427,
      "polit": 2428,
      "nearly": 2429,
      "Sunrise": 2430,
      "Berg": 2431,
      "Film": 2432,
      "apparently": 2433,
      "particularly": 2434,
      "torture": 2435,
      "sweet": 2436,
      "German": 2437,
      "Spacey": 2438,
      "Richard": 2439,
      "embarrass": 2440,
      "Hitchcock": 2441,
      "stereoty": 2442,
      "IMDb": 2443,
      "Meryl": 2444,
      "Christopher": 2445,
      "AL": 2446,
      "Bar": 2447,
      "Good": 2448,
      "TO": 2449,
      "Tom": 2450,
      "caught": 2451,
      "dy": 2452,
      "host": 2453,
      "iar": 2454,
      "kar": 2455,
      "mass": 2456,
      "nomin": 2457,
      "ox": 2458,
      "var": 2459,
      "wear": 2460,
      "indi": 2461,
      "reach": 2462,
      "stem": 2463,
      "outh": 2464,
      "ionally": 2465,
      "amount": 2466,
      "unt": 2467,
      "unity": 2468,
      "cted": 2469,
      "suit": 2470,
      "sudden": 2471,
      "express": 2472,
      "ague": 2473,
      "rock": 2474,
      "mand": 2475,
      "Anil": 2476,
      "spot": 2477,
      "note": 2478,
      "serv": 2479,
      "brain": 2480,
      "berg": 2481,
      "ashing": 2482,
      "create": 2483,
      "193": 2484,
      "ifer": 2485,
      "finds": 2486,
      "feels": 2487,
      "exciting": 2488,
      "compared": 2489,
      "screenplay": 2490,
      "smart": 2491,
      "beauty": 2492,
      "explo": 2493,
      "wasted": 2494,
      "superb": 2495,
      "popular": 2496,
      "portrayed": 2497,
      "basic": 2498,
      "clearly": 2499,
      "deserves": 2500,
      "society": 2501,
      "pathetic": 2502,
      "credit": 2503,
      "incredibly": 2504,
      "Nazi": 2505,
      "natural": 2506,
      "descri": 2507,
      "Miike": 2508,
      "Jennifer": 2509,
      "Kumar": 2510,
      "Bergman": 2511,
      "'.": 2512,
      "Air": 2513,
      "Ben": 2514,
      "DO": 2515,
      "Is": 2516,
      "Jess": 2517,
      "Me": 2518,
      "SE": 2519,
      "aft": 2520,
      "bored": 2521,
      "core": 2522,
      "fying": 2523,
      "jay": 2524,
      "jour": 2525,
      "prise": 2526,
      "rand": 2527,
      "sink": 2528,
      "wind": 2529,
      "insp": 2530,
      "invest": 2531,
      "aling": 2532,
      "Thief": 2533,
      "lies": 2534,
      "filmmakers": 2535,
      "aper": 2536,
      "open": 2537,
      "common": 2538,
      "abs": 2539,
      "sug": 2540,
      "trou": 2541,
      "max": 2542,
      "feature": 2543,
      "convers": 2544,
      "ander": 2545,
      "ateur": 2546,
      "qual": 2547,
      "aver": 2548,
      "space": 2549,
      "ideas": 2550,
      "ishing": 2551,
      "dison": 2552,
      "twist": 2553,
      "reality": 2554,
      "viewers": 2555,
      "points": 2556,
      "answ": 2557,
      "196": 2558,
      "attle": 2559,
      "news": 2560,
      "board": 2561,
      "begins": 2562,
      "subt": 2563,
      "powers": 2564,
      "scient": 2565,
      "disturb": 2566,
      "general": 2567,
      "impressive": 2568,
      "India": 2569,
      "Indian": 2570,
      "Everything": 2571,
      "wait": 2572,
      "flashback": 2573,
      "memorable": 2574,
      "difficult": 2575,
      "random": 2576,
      "Bollywood": 2577,
      "Black": 2578,
      "Cal": 2579,
      "Cor": 2580,
      "CBC": 2581,
      "Lom": 2582,
      "Mat": 2583,
      "Sand": 2584,
      "Tremors": 2585,
      "bur": 2586,
      "cers": 2587,
      "gain": 2588,
      "han": 2589,
      "hair": 2590,
      "match": 2591,
      "ines": 2592,
      "ene": 2593,
      "stat": 2594,
      "step": 2595,
      "itor": 2596,
      "itation": 2597,
      "chem": 2598,
      "iet": 2599,
      "oof": 2600,
      "evin": 2601,
      "otic": 2602,
      "ett": 2603,
      "riv": 2604,
      "older": 2605,
      "appro": 2606,
      "opport": 2607,
      "shoot": 2608,
      "trag": 2609,
      "fest": 2610,
      "post": 2611,
      "hey": 2612,
      "scenery": 2613,
      "please": 2614,
      "nowhere": 2615,
      "strange": 2616,
      "apped": 2617,
      "realize": 2618,
      "brut": 2619,
      "bert": 2620,
      "anyway": 2621,
      "Christ": 2622,
      "ogn": 2623,
      "theater": 2624,
      "lets": 2625,
      "surprise": 2626,
      "effective": 2627,
      "worthy": 2628,
      "whatever": 2629,
      "Only": 2630,
      "period": 2631,
      "elements": 2632,
      "fantasy": 2633,
      "spirit": 2634,
      "recogn": 2635,
      "Direct": 2636,
      "issues": 2637,
      "costum": 2638,
      "climax": 2639,
      "towards": 2640,
      "ultimately": 2641,
      "convincing": 2642,
      "50": 2643,
      "90": 2644,
      "CK": 2645,
      "Celine": 2646,
      "Edison": 2647,
      "Ro": 2648,
      "bi": 2649,
      "bes": 2650,
      "barely": 2651,
      "cul": 2652,
      "fash": 2653,
      "gar": 2654,
      "gle": 2655,
      "knew": 2656,
      "mas": 2657,
      "ring": 2658,
      "ral": 2659,
      "tre": 2660,
      "zz": 2661,
      "inally": 2662,
      "alter": 2663,
      "arri": 2664,
      "leaves": 2665,
      "itary": 2666,
      "acts": 2667,
      "active": 2668,
      "amateur": 2669,
      "unted": 2670,
      "unfortunately": 2671,
      "ries": 2672,
      "ape": 2673,
      "manner": 2674,
      "tran": 2675,
      "contri": 2676,
      "ante": 2677,
      "occur": 2678,
      "prim": 2679,
      "project": 2680,
      "crazy": 2681,
      "cial": 2682,
      "drag": 2683,
      "partner": 2684,
      "stands": 2685,
      "kills": 2686,
      "phot": 2687,
      "result": 2688,
      "biggest": 2689,
      "mighty": 2690,
      "laught": 2691,
      "venge": 2692,
      "decide": 2693,
      "perfectly": 2694,
      "science": 2695,
      "delight": 2696,
      "Unfortunately": 2697,
      "total": 2698,
      "involving": 2699,
      "presented": 2700,
      "alien": 2701,
      "moder": 2702,
      "failed": 2703,
      "basically": 2704,
      "zombies": 2705,
      "Charlie": 2706,
      "willing": 2707,
      "question": 2708,
      "innocent": 2709,
      "sleep": 2710,
      "Police": 2711,
      "Susan": 2712,
      "television": 2713,
      "inspired": 2714,
      "suggest": 2715,
      "disturbing": 2716,
      "Lommel": 2717,
      "Ac": 2718,
      "ALL": 2719,
      "Do": 2720,
      "Har": 2721,
      "IG": 2722,
      "Kevin": 2723,
      "LA": 2724,
      "Mon": 2725,
      "Other": 2726,
      "SO": 2727,
      "Sn": 2728,
      "Sad": 2729,
      "Wil": 2730,
      "bers": 2731,
      "bum": 2732,
      "curi": 2733,
      "doll": 2734,
      "danger": 2735,
      "ging": 2736,
      "his": 2737,
      "nud": 2738,
      "names": 2739,
      "pal": 2740,
      "pil": 2741,
      "yn": 2742,
      "ero": 2743,
      "relig": 2744,
      "stock": 2745,
      "arily": 2746,
      "edu": 2747,
      "then": 2748,
      "thanks": 2749,
      "chan": 2750,
      "adapt": 2751,
      "lid": 2752,
      "ooting": 2753,
      "impossible": 2754,
      "filmed": 2755,
      "def": 2756,
      "plain": 2757,
      "terror": 2758,
      "feat": 2759,
      "anti": 2760,
      "asters": 2761,
      "previous": 2762,
      "periment": 2763,
      "istry": 2764,
      "pract": 2765,
      "god": 2766,
      "avage": 2767,
      "why": 2768,
      "ival": 2769,
      "strength": 2770,
      "knows": 2771,
      "brings": 2772,
      "brief": 2773,
      "lette": 2774,
      "genuine": 2775,
      "remote": 2776,
      "lots": 2777,
      "Joe": 2778,
      "Segal": 2779,
      "minute": 2780,
      "ordin": 2781,
      "audiences": 2782,
      "contem": 2783,
      "AND": 2784,
      "ratings": 2785,
      "color": 2786,
      "colle": 2787,
      "powerful": 2788,
      "refer": 2789,
      "attempts": 2790,
      "talented": 2791,
      "load": 2792,
      "technology": 2793,
      "Anyway": 2794,
      "utterly": 2795,
      "equally": 2796,
      "appreciate": 2797,
      "desperate": 2798,
      "Yeti": 2799,
      "military": 2800,
      "Grease": 2801,
      "bottom": 2802,
      "familiar": 2803,
      "Despite": 2804,
      "business": 2805,
      "warehouse": 2806,
      "Disney": 2807,
      "destroy": 2808,
      "fashion": 2809,
      "18": 2810,
      "Am": 2811,
      "Bas": 2812,
      "Bag": 2813,
      "Cool": 2814,
      "Em": 2815,
      "Gener": 2816,
      "Hen": 2817,
      "High": 2818,
      "Mad": 2819,
      "Ple": 2820,
      "Pro": 2821,
      "Tr": 2822,
      "Tw": 2823,
      "Time": 2824,
      "WH": 2825,
      "bik": 2826,
      "cross": 2827,
      "fat": 2828,
      "fas": 2829,
      "hic": 2830,
      "ker": 2831,
      "ken": 2832,
      "math": 2833,
      "pace": 2834,
      "six": 2835,
      "tast": 2836,
      "tough": 2837,
      "wel": 2838,
      "wild": 2839,
      "wreck": 2840,
      "editing": 2841,
      "tha": 2842,
      "icide": 2843,
      "chall": 2844,
      "evidence": 2845,
      "und": 2846,
      "deed": 2847,
      "placed": 2848,
      "terms": 2849,
      "ural": 2850,
      "iston": 2851,
      "inkle": 2852,
      "meant": 2853,
      "spin": 2854,
      "itted": 2855,
      "thinks": 2856,
      "crime": 2857,
      "disaster": 2858,
      "notice": 2859,
      "Still": 2860,
      "vern": 2861,
      "cret": 2862,
      "actions": 2863,
      "ify": 2864,
      "missing": 2865,
      "produced": 2866,
      "producers": 2867,
      "complex": 2868,
      "appeared": 2869,
      "consist": 2870,
      "boys": 2871,
      "added": 2872,
      "favour": 2873,
      "Because": 2874,
      "joke": 2875,
      "meets": 2876,
      "control": 2877,
      "fails": 2878,
      "fresh": 2879,
      "credits": 2880,
      "recently": 2881,
      "Princess": 2882,
      "stunning": 2883,
      "Movie": 2884,
      "quickly": 2885,
      "documentary": 2886,
      "People": 2887,
      "victim": 2888,
      "pilot": 2889,
      "Bagdad": 2890,
      "14": 2891,
      "15": 2892,
      "By": 2893,
      "Cli": 2894,
      "IC": 2895,
      "Laur": 2896,
      "Mant": 2897,
      "Never": 2898,
      "Ste": 2899,
      "bal": 2900,
      "cir": 2901,
      "dam": 2902,
      "date": 2903,
      "ges": 2904,
      "mood": 2905,
      "ran": 2906,
      "rough": 2907,
      "squ": 2908,
      "sight": 2909,
      "sens": 2910,
      "tack": 2911,
      "udi": 2912,
      "uous": 2913,
      "wed": 2914,
      "water": 2915,
      "erm": 2916,
      "enna": 2917,
      "edge": 2918,
      "thus": 2919,
      "ital": 2920,
      "ison": 2921,
      "adults": 2922,
      "liz": 2923,
      "improv": 2924,
      "unexpected": 2925,
      "opera": 2926,
      "ctor": 2927,
      "shooting": 2928,
      "uter": 2929,
      "manages": 2930,
      "urai": 2931,
      "prefer": 2932,
      "intri": 2933,
      "tears": 2934,
      "when": 2935,
      "guil": 2936,
      "grace": 2937,
      "bling": 2938,
      "iously": 2939,
      "Anderson": 2940,
      "viewing": 2941,
      "belong": 2942,
      "pointless": 2943,
      "ensive": 2944,
      "horse": 2945,
      "design": 2946,
      "ockb": 2947,
      "izing": 2948,
      "surviv": 2949,
      "boat": 2950,
      "excuse": 2951,
      "compelling": 2952,
      "positive": 2953,
      "began": 2954,
      "does": 2955,
      "hardly": 2956,
      "kinda": 2957,
      "system": 2958,
      "decides": 2959,
      "Johnson": 2960,
      "humanity": 2961,
      "humour": 2962,
      "Morvern": 2963,
      "missed": 2964,
      "French": 2965,
      "moral": 2966,
      "clever": 2967,
      "social": 2968,
      "egna": 2969,
      "purpose": 2970,
      "development": 2971,
      "successful": 2972,
      "critic": 2973,
      "psycholog": 2974,
      "issue": 2975,
      "introduced": 2976,
      "incredible": 2977,
      "medioc": 2978,
      "Horror": 2979,
      "model": 2980,
      "dream": 2981,
      "necessary": 2982,
      "British": 2983,
      "cartoon": 2984,
      "average": 2985,
      "chemistry": 2986,
      "approach": 2987,
      "Cliff": 2988,
      "Mantegna": 2989,
      "AG": 2990,
      "AS": 2991,
      "Bel": 2992,
      "City": 2993,
      "Gu": 2994,
      "Kate": 2995,
      "LO": 2996,
      "Li": 2997,
      "Look": 2998,
      "Miss": 2999,
      "Om": 3000,
      "PO": 3001,
      "Puri": 3002,
      "Sure": 3003,
      "Tay": 3004,
      "VE": 3005,
      "Ve": 3006,
      "Way": 3007,
      "WOR": 3008,
      "dated": 3009,
      "la": 3010,
      "ls": 3011,
      "lu": 3012,
      "nal": 3013,
      "pair": 3014,
      "sick": 3015,
      "tch": 3016,
      "tone": 3017,
      "tension": 3018,
      "ina": 3019,
      "rede": 3020,
      "resem": 3021,
      "ales": 3022,
      "thief": 3023,
      "itself": 3024,
      "itional": 3025,
      "itude": 3026,
      "sees": 3027,
      "ises": 3028,
      "ades": 3029,
      "moves": 3030,
      "immedi": 3031,
      "olution": 3032,
      "shed": 3033,
      "plic": 3034,
      "extra": 3035,
      "agree": 3036,
      "trash": 3037,
      "trail": 3038,
      "solid": 3039,
      "Ang": 3040,
      "Another": 3041,
      "Aniston": 3042,
      "gust": 3043,
      "sport": 3044,
      "showed": 3045,
      "lover": 3046,
      "craft": 3047,
      "Instead": 3048,
      "directing": 3049,
      "otherwise": 3050,
      "mere": 3051,
      "views": 3052,
      "wealth": 3053,
      "100": 3054,
      "central": 3055,
      "***": 3056,
      "boss": 3057,
      "younger": 3058,
      "books": 3059,
      "provo": 3060,
      "puts": 3061,
      "coher": 3062,
      "hands": 3063,
      "Leon": 3064,
      "cute": 3065,
      "himself": 3066,
      "presence": 3067,
      "engaging": 3068,
      "laughable": 3069,
      "ective": 3070,
      "possibly": 3071,
      "sounds": 3072,
      "soundtrack": 3073,
      "formation": 3074,
      "married": 3075,
      "emotions": 3076,
      "corrupt": 3077,
      "drive": 3078,
      "following": 3079,
      "portrayal": 3080,
      "Robert": 3081,
      "Lindsay": 3082,
      "listen": 3083,
      "clean": 3084,
      "justice": 3085,
      "planet": 3086,
      "Scott": 3087,
      "Collette": 3088,
      "shocking": 3089,
      "changes": 3090,
      "depth": 3091,
      "heavy": 3092,
      "flaws": 3093,
      "focus": 3094,
      "protagon": 3095,
      "literally": 3096,
      "million": 3097,
      "accurate": 3098,
      "various": 3099,
      "scientist": 3100,
      "laughter": 3101,
      "modern": 3102,
      "Taylor": 3103,
      "11": 3104,
      "40": 3105,
      "Ev": 3106,
      "Having": 3107,
      "IL": 3108,
      "Ke": 3109,
      "Love": 3110,
      "Ma": 3111,
      "Qu": 3112,
      "SH": 3113,
      "San": 3114,
      "Since": 3115,
      "Savage": 3116,
      "Tru": 3117,
      "Was": 3118,
      "Wins": 3119,
      "ded": 3120,
      "ec": 3121,
      "fare": 3122,
      "gon": 3123,
      "gent": 3124,
      "gas": 3125,
      "gover": 3126,
      "gold": 3127,
      "hon": 3128,
      "hil": 3129,
      "ham": 3130,
      "iff": 3131,
      "ium": 3132,
      "ja": 3133,
      "je": 3134,
      "khar": 3135,
      "lady": 3136,
      "loose": 3137,
      "mm": 3138,
      "mouth": 3139,
      "ns": 3140,
      "pes": 3141,
      "pse": 3142,
      "race": 3143,
      "uel": 3144,
      "ino": 3145,
      "enz": 3146,
      "onto": 3147,
      "sters": 3148,
      "state": 3149,
      "store": 3150,
      "starring": 3151,
      "alk": 3152,
      "aries": 3153,
      "ites": 3154,
      "separ": 3155,
      "icated": 3156,
      "likes": 3157,
      "moved": 3158,
      "aside": 3159,
      "oted": 3160,
      "etime": 3161,
      "filled": 3162,
      "rio": 3163,
      "depart": 3164,
      "ula": 3165,
      "shing": 3166,
      "suicide": 3167,
      "dig": 3168,
      "uring": 3169,
      "idt": 3170,
      "iding": 3171,
      "force": 3172,
      "neg": 3173,
      "aved": 3174,
      "watchable": 3175,
      "spend": 3176,
      "grow": 3177,
      "blind": 3178,
      "crow": 3179,
      "twists": 3180,
      "drug": 3181,
      "finish": 3182,
      "azz": 3183,
      "they": 3184,
      "genie": 3185,
      "inside": 3186,
      "interested": 3187,
      "surround": 3188,
      "bodies": 3189,
      "phant": 3190,
      "phys": 3191,
      "gling": 3192,
      "glad": 3193,
      "compet": 3194,
      "trip": 3195,
      "longer": 3196,
      "carry": 3197,
      "explor": 3198,
      "Shekhar": 3199,
      "addition": 3200,
      "counter": 3201,
      "Once": 3202,
      "fied": 3203,
      "dramatic": 3204,
      "stretch": 3205,
      "affair": 3206,
      "foreign": 3207,
      "impression": 3208,
      "memory": 3209,
      "Frank": 3210,
      "histor": 3211,
      "langu": 3212,
      "considering": 3213,
      "value": 3214,
      "values": 3215,
      "motion": 3216,
      "types": 3217,
      "fairly": 3218,
      "discovered": 3219,
      "Jesse": 3220,
      "Jesus": 3221,
      "okay": 3222,
      "Vienna": 3223,
      "mystery": 3224,
      "Canadian": 3225,
      "respons": 3226,
      "travel": 3227,
      "conclusion": 3228,
      "creepy": 3229,
      "investig": 3230,
      "nudity": 3231,
      "mediocre": 3232,
      "Veidt": 3233,
      "Winslet": 3234,
      "13": 3235,
      "Bur": 3236,
      "Bull": 3237,
      "Cas": 3238,
      "Did": 3239,
      "ED": 3240,
      "Here": 3241,
      "Jul": 3242,
      "Kong": 3243,
      "Lam": 3244,
      "Little": 3245,
      "Ms": 3246,
      "RO": 3247,
      "Rock": 3248,
      "VIE": 3249,
      "Yash": 3250,
      "Zomb": 3251,
      "base": 3252,
      "battle": 3253,
      "cell": 3254,
      "dumb": 3255,
      "gam": 3256,
      "gorge": 3257,
      "hab": 3258,
      "hack": 3259,
      "hang": 3260,
      "ius": 3261,
      "ju": 3262,
      "lon": 3263,
      "lab": 3264,
      "loud": 3265,
      "nia": 3266,
      "pen": 3267,
      "pack": 3268,
      "rend": 3269,
      "rick": 3270,
      "tar": 3271,
      "tem": 3272,
      "vid": 3273,
      "ye": 3274,
      "init": 3275,
      "enced": 3276,
      "rew": 3277,
      "report": 3278,
      "revenge": 3279,
      "illy": 3280,
      "cher": 3281,
      "island": 3282,
      "liber": 3283,
      "oppos": 3284,
      "shop": 3285,
      "share": 3286,
      "plenty": 3287,
      "convent": 3288,
      "artist": 3289,
      "ills": 3290,
      "ford": 3291,
      "prep": 3292,
      "ousand": 3293,
      "avoid": 3294,
      "process": 3295,
      "teach": 3296,
      "orton": 3297,
      "cry": 3298,
      "crim": 3299,
      "maker": 3300,
      "outside": 3301,
      "realized": 3302,
      "anywhere": 3303,
      "flict": 3304,
      "ogg": 3305,
      "finished": 3306,
      "seemingly": 3307,
      "standards": 3308,
      "feelings": 3309,
      "surd": 3310,
      "phone": 3311,
      "See": 3312,
      "THIS": 3313,
      "helped": 3314,
      "prove": 3315,
      "wondering": 3316,
      "porn": 3317,
      "ledge": 3318,
      "content": 3319,
      "singing": 3320,
      "wards": 3321,
      "humans": 3322,
      "camp": 3323,
      "Atl": 3324,
      "include": 3325,
      "images": 3326,
      "falling": 3327,
      "streets": 3328,
      "walking": 3329,
      "situations": 3330,
      "questions": 3331,
      "critics": 3332,
      "Conrad": 3333,
      "pleasant": 3334,
      "changed": 3335,
      "depend": 3336,
      "discuss": 3337,
      "mistake": 3338,
      "traditional": 3339,
      "Jewish": 3340,
      "contains": 3341,
      "European": 3342,
      "comedies": 3343,
      "unique": 3344,
      "Alexander": 3345,
      "fellow": 3346,
      "Bette": 3347,
      "sister": 3348,
      "political": 3349,
      "suddenly": 3350,
      "trouble": 3351,
      "conversation": 3352,
      "subtle": 3353,
      "opportunity": 3354,
      "costumes": 3355,
      "features": 3356,
      "General": 3357,
      "gorgeous": 3358,
      "vidual": 3359,
      "Del": 3360,
      "Dark": 3361,
      "Devil": 3362,
      "ES": 3363,
      "Fred": 3364,
      "Gab": 3365,
      "Guine": 3366,
      "ION": 3367,
      "June": 3368,
      "Mel": 3369,
      "Mike": 3370,
      "Meg": 3371,
      "Master": 3372,
      "Pig": 3373,
      "Red": 3374,
      "Rom": 3375,
      "Ser": 3376,
      "Wi": 3377,
      "bul": 3378,
      "bomb": 3379,
      "bird": 3380,
      "cal": 3381,
      "dim": 3382,
      "dread": 3383,
      "ech": 3384,
      "fake": 3385,
      "gory": 3386,
      "hat": 3387,
      "have": 3388,
      "iat": 3389,
      "lad": 3390,
      "lose": 3391,
      "member": 3392,
      "paced": 3393,
      "rum": 3394,
      "raid": 3395,
      "sess": 3396,
      "sitting": 3397,
      "soul": 3398,
      "voy": 3399,
      "zero": 3400,
      "inv": 3401,
      "oned": 3402,
      "once": 3403,
      "stri": 3404,
      "station": 3405,
      "stage": 3406,
      "alive": 3407,
      "than": 3408,
      "thousand": 3409,
      "leaving": 3410,
      "ille": 3411,
      "acy": 3412,
      "ican": 3413,
      "ower": 3414,
      "ases": 3415,
      "Their": 3416,
      "oper": 3417,
      "plant": 3418,
      "died": 3419,
      "bear": 3420,
      "trick": 3421,
      "neither": 3422,
      "princess": 3423,
      "intent": 3424,
      "author": 3425,
      "area": 3426,
      "iving": 3427,
      "ivity": 3428,
      "odram": 3429,
      "aked": 3430,
      "gry": 3431,
      "grad": 3432,
      "ours": 3433,
      "bland": 3434,
      "obby": 3435,
      "lovers": 3436,
      "players": 3437,
      "crappy": 3438,
      "twenty": 3439,
      "olds": 3440,
      "Almighty": 3441,
      "lessly": 3442,
      "ictor": 3443,
      "weird": 3444,
      "trust": 3445,
      "minor": 3446,
      "offers": 3447,
      "genius": 3448,
      "insight": 3449,
      "month": 3450,
      "bits": 3451,
      "expectations": 3452,
      "computer": 3453,
      "smile": 3454,
      "putting": 3455,
      "reasons": 3456,
      "explan": 3457,
      "affect": 3458,
      "annel": 3459,
      "current": 3460,
      "understanding": 3461,
      "helps": 3462,
      "titles": 3463,
      "entirely": 3464,
      "emotion": 3465,
      "corn": 3466,
      "disappointment": 3467,
      "intellect": 3468,
      "********": 3469,
      "considered": 3470,
      "Arab": 3471,
      "hoom": 3472,
      "rape": 3473,
      "haunted": 3474,
      "appearance": 3475,
      "adventures": 3476,
      "captured": 3477,
      "melodram": 3478,
      "dingo": 3479,
      "technical": 3480,
      "speaking": 3481,
      "treatment": 3482,
      "Perhaps": 3483,
      "culture": 3484,
      "skin": 3485,
      "Australia": 3486,
      "apparent": 3487,
      "radio": 3488,
      "ghosts": 3489,
      "reminded": 3490,
      "market": 3491,
      "deeply": 3492,
      "existence": 3493,
      "struct": 3494,
      "Norman": 3495,
      "estern": 3496,
      "connection": 3497,
      "fiction": 3498,
      "fictional": 3499,
      "reveal": 3500,
      "potential": 3501,
      "escape": 3502,
      "constantly": 3503,
      "Director": 3504,
      "Snaf": 3505,
      "Please": 3506,
      "fascin": 3507,
      "ockbuster": 3508,
      "redeem": 3509,
      "Bullock": 3510,
      "Guinea": 3511,
      "Ax": 3512,
      "Az": 3513,
      "Ali": 3514,
      "Ash": 3515,
      "BO": 3516,
      "Back": 3517,
      "Bud": 3518,
      "Cul": 3519,
      "Die": 3520,
      "Doo": 3521,
      "Egon": 3522,
      "Fury": 3523,
      "Fox": 3524,
      "Gold": 3525,
      "Hu": 3526,
      "Jones": 3527,
      "Kar": 3528,
      "Lester": 3529,
      "Mart": 3530,
      "Mau": 3531,
      "More": 3532,
      "Right": 3533,
      "Raj": 3534,
      "SU": 3535,
      "YOU": 3536,
      "bid": 3537,
      "breat": 3538,
      "bought": 3539,
      "cat": 3540,
      "card": 3541,
      "coll": 3542,
      "eight": 3543,
      "fate": 3544,
      "gut": 3545,
      "ien": 3546,
      "idi": 3547,
      "ians": 3548,
      "lay": 3549,
      "mut": 3550,
      "mult": 3551,
      "nation": 3552,
      "native": 3553,
      "oe": 3554,
      "rit": 3555,
      "spl": 3556,
      "saving": 3557,
      "tend": 3558,
      "ties": 3559,
      "table": 3560,
      "xual": 3561,
      "ining": 3562,
      "inspir": 3563,
      "resc": 3564,
      "requ": 3565,
      "revol": 3566,
      "remain": 3567,
      "thin": 3568,
      "thers": 3569,
      "theless": 3570,
      "seven": 3571,
      "secret": 3572,
      "chick": 3573,
      "chos": 3574,
      "Though": 3575,
      "elle": 3576,
      "adow": 3577,
      "ooby": 3578,
      "amusing": 3579,
      "unf": 3580,
      "unless": 3581,
      "olt": 3582,
      "oler": 3583,
      "demon": 3584,
      "debut": 3585,
      "uld": 3586,
      "plus": 3587,
      "places": 3588,
      "ablan": 3589,
      "irth": 3590,
      "ager": 3591,
      "becoming": 3592,
      "likely": 3593,
      "forth": 3594,
      "atekar": 3595,
      "heck": 3596,
      "print": 3597,
      "avail": 3598,
      "tea": 3599,
      "aret": 3600,
      "Ann": 3601,
      "grat": 3602,
      "grown": 3603,
      "blame": 3604,
      "disbelief": 3605,
      "apping": 3606,
      "weight": 3607,
      "ruined": 3608,
      "osexual": 3609,
      "osaur": 3610,
      "ails": 3611,
      "finding": 3612,
      "casting": 3613,
      "extent": 3614,
      "glas": 3615,
      "company": 3616,
      "themes": 3617,
      "related": 3618,
      "door": 3619,
      "doctor": 3620,
      "suppose": 3621,
      "highlight": 3622,
      "Carter": 3623,
      "hype": 3624,
      "subst": 3625,
      "pieces": 3626,
      "visit": 3627,
      "Engle": 3628,
      "warning": 3629,
      "difference": 3630,
      "Force": 3631,
      "soldi": 3632,
      "happening": 3633,
      "creative": 3634,
      "stopped": 3635,
      "recommended": 3636,
      "heroes": 3637,
      "magn": 3638,
      "aliens": 3639,
      "finest": 3640,
      "promising": 3641,
      "Mrs": 3642,
      "breaking": 3643,
      "Warner": 3644,
      "transl": 3645,
      "surprisingly": 3646,
      "developed": 3647,
      "Experiment": 3648,
      "Scooby": 3649,
      "brother": 3650,
      "caused": 3651,
      "intelligence": 3652,
      "Edward": 3653,
      "bringing": 3654,
      "Goa": 3655,
      "Nazis": 3656,
      "masterpiece": 3657,
      "picked": 3658,
      "accident": 3659,
      "Dupre": 3660,
      "sentiment": 3661,
      "suffering": 3662,
      "terrific": 3663,
      "MOVIE": 3664,
      "Captain": 3665,
      "Caprio": 3666,
      "claimed": 3667,
      "witness": 3668,
      "officer": 3669,
      "professional": 3670,
      "Douglas": 3671,
      "forgotten": 3672,
      "individual": 3673,
      "exploitation": 3674,
      "journey": 3675,
      "answer": 3676,
      "adaptation": 3677,
      "taste": 3678,
      "favourite": 3679,
      "intrigu": 3680,
      "coherent": 3681,
      "language": 3682,
      "Casablan": 3683,
      "Julie": 3684,
      "Snafu": 3685,
      "Casablanca": 3686,
      "\"...": 3687,
      "'(": 3688,
      "16": 3689,
      "60": 3690,
      "Aud": 3691,
      "Bad": 3692,
      "Bog": 3693,
      "Both": 3694,
      "Dor": 3695,
      "Dhoom": 3696,
      "Far": 3697,
      "ILL": 3698,
      "Jr": 3699,
      "Ju": 3700,
      "Khan": 3701,
      "Lou": 3702,
      "List": 3703,
      "Lady": 3704,
      "MA": 3705,
      "Made": 3706,
      "Nana": 3707,
      "OO": 3708,
      "Park": 3709,
      "Patekar": 3710,
      "Rh": 3711,
      "Ram": 3712,
      "Rex": 3713,
      "Rach": 3714,
      "Ter": 3715,
      "Ton": 3716,
      "Tank": 3717,
      "UM": 3718,
      "Very": 3719,
      "bow": 3720,
      "bag": 3721,
      "biz": 3722,
      "bian": 3723,
      "domin": 3724,
      "fac": 3725,
      "ga": 3726,
      "gard": 3727,
      "hol": 3728,
      "hip": 3729,
      "kh": 3730,
      "kin": 3731,
      "lock": 3732,
      "nast": 3733,
      "national": 3734,
      "oh": 3735,
      "paid": 3736,
      "paper": 3737,
      "row": 3738,
      "rare": 3739,
      "sam": 3740,
      "site": 3741,
      "wall": 3742,
      "wound": 3743,
      "ze": 3744,
      "independ": 3745,
      "enne": 3746,
      "anced": 3747,
      "atives": 3748,
      "thank": 3749,
      "iles": 3750,
      "acco": 3751,
      "omen": 3752,
      "Three": 3753,
      "ading": 3754,
      "ademy": 3755,
      "lik": 3756,
      "lied": 3757,
      "lived": 3758,
      "asure": 3759,
      "filming": 3760,
      "unusual": 3761,
      "unbelievable": 3762,
      "deb": 3763,
      "cean": 3764,
      "oph": 3765,
      "ops": 3766,
      "abl": 3767,
      "exper": 3768,
      "urch": 3769,
      "anted": 3770,
      "poker": 3771,
      "ousy": 3772,
      "height": 3773,
      "charming": 3774,
      "proceed": 3775,
      "program": 3776,
      "intention": 3777,
      "whel": 3778,
      "iver": 3779,
      "ived": 3780,
      "aking": 3781,
      "grade": 3782,
      "White": 3783,
      "Which": 3784,
      "establ": 3785,
      "ishna": 3786,
      "crack": 3787,
      "somewhere": 3788,
      "drink": 3789,
      "dub": 3790,
      "anymore": 3791,
      "vert": 3792,
      "funn": 3793,
      "ashed": 3794,
      "lovely": 3795,
      "plots": 3796,
      "rubb": 3797,
      "sett": 3798,
      "performer": 3799,
      "ified": 3800,
      "impact": 3801,
      "mond": 3802,
      "THAT": 3803,
      "proved": 3804,
      "provide": 3805,
      "appeal": 3806,
      "wooden": 3807,
      "Show": 3808,
      "surely": 3809,
      "lesbian": 3810,
      "runs": 3811,
      "entertained": 3812,
      "laughed": 3813,
      "beautifully": 3814,
      "cinematic": 3815,
      "pictures": 3816,
      "sexy": 3817,
      "folks": 3818,
      "slap": 3819,
      "imagination": 3820,
      "fighting": 3821,
      "Dead": 3822,
      "sorts": 3823,
      "correct": 3824,
      "locations": 3825,
      "exception": 3826,
      "childhood": 3827,
      "William": 3828,
      "includes": 3829,
      "disappointing": 3830,
      "members": 3831,
      "promise": 3832,
      "snake": 3833,
      "motiv": 3834,
      "deserved": 3835,
      "painful": 3836,
      "allowed": 3837,
      "McCl": 3838,
      "Donner": 3839,
      "spectac": 3840,
      "signific": 3841,
      "Jimmy": 3842,
      "delivers": 3843,
      "DiCaprio": 3844,
      "Films": 3845,
      "waiting": 3846,
      "regular": 3847,
      "gangster": 3848,
      "heavily": 3849,
      "1940": 3850,
      "struction": 3851,
      "aspects": 3852,
      "narrative": 3853,
      "choice": 3854,
      "horribly": 3855,
      "loses": 3856,
      "sympathetic": 3857,
      "Hellman": 3858,
      "details": 3859,
      "pulled": 3860,
      "repeated": 3861,
      "properly": 3862,
      "VERY": 3863,
      "Hayward": 3864,
      "Irene": 3865,
      "Krishna": 3866,
      "knock": 3867,
      "attractive": 3868,
      "brutal": 3869,
      "Academy": 3870,
      "religious": 3871,
      "contempor": 3872,
      "immediately": 3873,
      "negative": 3874,
      "Without": 3875,
      "chosen": 3876,
      "Duprez": 3877,
      "sentimental": 3878,
      "rubbish": 3879,
      "McClure": 3880,
      "17": 3881,
      "1st": 3882,
      "70s": 3883,
      "80": 3884,
      "Ap": 3885,
      "Big": 3886,
      "CE": 3887,
      "CR": 3888,
      "Cali": 3889,
      "Dy": 3890,
      "Derm": 3891,
      "Ele": 3892,
      "Eliz": 3893,
      "Flight": 3894,
      "Haw": 3895,
      "Kath": 3896,
      "Lord": 3897,
      "Mac": 3898,
      "Many": 3899,
      "Masters": 3900,
      "Ob": 3901,
      "Oli": 3902,
      "Ori": 3903,
      "Par": 3904,
      "Ru": 3905,
      "Sy": 3906,
      "TR": 3907,
      "Too": 3908,
      "Van": 3909,
      "Wars": 3910,
      "Wonder": 3911,
      "cow": 3912,
      "cant": 3913,
      "cous": 3914,
      "gin": 3915,
      "gress": 3916,
      "hook": 3917,
      "hide": 3918,
      "ias": 3919,
      "iors": 3920,
      "jer": 3921,
      "ll": 3922,
      "loo": 3923,
      "mir": 3924,
      "masks": 3925,
      "nment": 3926,
      "riel": 3927,
      "sour": 3928,
      "tor": 3929,
      "ub": 3930,
      "wide": 3931,
      "your": 3932,
      "zing": 3933,
      "invent": 3934,
      "information": 3935,
      "eness": 3936,
      "research": 3937,
      "studi": 3938,
      "esome": 3939,
      "orious": 3940,
      "edited": 3941,
      "atro": 3942,
      "thro": 3943,
      "lying": 3944,
      "ilst": 3945,
      "itement": 3946,
      "acher": 3947,
      "seat": 3948,
      "ched": 3949,
      "chop": 3950,
      "ision": 3951,
      "adult": 3952,
      "eve": 3953,
      "ots": 3954,
      "amp": 3955,
      "unting": 3956,
      "riage": 3957,
      "ribut": 3958,
      "dear": 3959,
      "approp": 3960,
      "shallow": 3961,
      "commer": 3962,
      "utch": 3963,
      "ples": 3964,
      "absurd": 3965,
      "suff": 3966,
      "scr": 3967,
      "andy": 3968,
      "arts": 3969,
      "artistic": 3970,
      "fornia": 3971,
      "neck": 3972,
      "alling": 3973,
      "oci": 3974,
      "priest": 3975,
      "aval": 3976,
      "clo": 3977,
      "sole": 3978,
      "ivil": 3979,
      "award": 3980,
      "bles": 3981,
      "bled": 3982,
      "blue": 3983,
      "blah": 3984,
      "ores": 3985,
      "Ingram": 3986,
      "strug": 3987,
      "associ": 3988,
      "udge": 3989,
      "dry": 3990,
      "knowing": 3991,
      "overly": 3992,
      "Story": 3993,
      "Albert": 3994,
      "talks": 3995,
      "offer": 3996,
      "insult": 3997,
      "sell": 3998,
      "selves": 3999,
      "boil": 4000,
      "starting": 4001,
      "excitement": 4002,
      "cheese": 4003,
      "stealth": 4004,
      "producer": 4005,
      "Season": 4006,
      "held": 4007,
      "proves": 4008,
      "viously": 4009,
      "afraid": 4010,
      "handed": 4011,
      "handled": 4012,
      "presents": 4013,
      "reviewer": 4014,
      "reviewers": 4015,
      "messages": 4016,
      "mainly": 4017,
      "Nothing": 4018,
      "hearted": 4019,
      "speech": 4020,
      "detective": 4021,
      "mission": 4022,
      "grew": 4023,
      "passeng": 4024,
      "cyn": 4025,
      "cynic": 4026,
      "fortunate": 4027,
      "followed": 4028,
      "double": 4029,
      "snuff": 4030,
      "Everyone": 4031,
      "ONE": 4032,
      "limited": 4033,
      "violent": 4034,
      "brilliantly": 4035,
      "loss": 4036,
      "capture": 4037,
      "holds": 4038,
      "summer": 4039,
      "hopeless": 4040,
      "psychiat": 4041,
      "winning": 4042,
      "pleasure": 4043,
      "ripping": 4044,
      "bloody": 4045,
      "spoilers": 4046,
      "Teal": 4047,
      "Techn": 4048,
      "homosexual": 4049,
      "innocence": 4050,
      "naturally": 4051,
      "discovers": 4052,
      "safe": 4053,
      "Wrinkle": 4054,
      "instance": 4055,
      "teenage": 4056,
      "Movies": 4057,
      "lawy": 4058,
      "Vijay": 4059,
      "patient": 4060,
      "depicted": 4061,
      "building": 4062,
      "dressed": 4063,
      "Patrick": 4064,
      "wearing": 4065,
      "statement": 4066,
      "tragic": 4067,
      "IGH": 4068,
      "Sadly": 4069,
      "ordinary": 4070,
      "Henry": 4071,
      "bikini": 4072,
      "provoking": 4073,
      "Zombie": 4074,
      "opposite": 4075,
      "Gabriel": 4076,
      "dimens": 4077,
      "dreadful": 4078,
      "voyage": 4079,
      "intellectual": 4080,
      "Axel": 4081,
      "Audrey": 4082,
      "Rachel": 4083,
      "likable": 4084,
      "California": 4085,
      "Dylan": 4086,
      "Dermott": 4087,
      "appropri": 4088,
      "45": 4089,
      "70": 4090,
      "Ama": 4091,
      "BE": 4092,
      "Bo": 4093,
      "Billy": 4094,
      "Coul": 4095,
      "DE": 4096,
      "Day": 4097,
      "Dick": 4098,
      "Duck": 4099,
      "Dogg": 4100,
      "Fri": 4101,
      "Friend": 4102,
      "Give": 4103,
      "Ghost": 4104,
      "Kirst": 4105,
      "Lov": 4106,
      "MU": 4107,
      "Mu": 4108,
      "Mary": 4109,
      "Matt": 4110,
      "Marg": 4111,
      "Masks": 4112,
      "Nand": 4113,
      "Out": 4114,
      "Pok": 4115,
      "Rog": 4116,
      "Spo": 4117,
      "Soc": 4118,
      "Simp": 4119,
      "UR": 4120,
      "Victor": 4121,
      "West": 4122,
      "aos": 4123,
      "ahead": 4124,
      "bound": 4125,
      "bright": 4126,
      "birth": 4127,
      "civil": 4128,
      "da": 4129,
      "dom": 4130,
      "dir": 4131,
      "dos": 4132,
      "eper": 4133,
      "fli": 4134,
      "fab": 4135,
      "flight": 4136,
      "fool": 4137,
      "gross": 4138,
      "glim": 4139,
      "iy": 4140,
      "lum": 4141,
      "lord": 4142,
      "latter": 4143,
      "lousy": 4144,
      "mob": 4145,
      "mach": 4146,
      "mild": 4147,
      "net": 4148,
      "pan": 4149,
      "pun": 4150,
      "rout": 4151,
      "sal": 4152,
      "sac": 4153,
      "sun": 4154,
      "spre": 4155,
      "sinc": 4156,
      "ti": 4157,
      "tight": 4158,
      "tob": 4159,
      "tender": 4160,
      "inch": 4161,
      "ensu": 4162,
      "enge": 4163,
      "repor": 4164,
      "stood": 4165,
      "ani": 4166,
      "anwhile": 4167,
      "antha": 4168,
      "alright": 4169,
      "arre": 4170,
      "aria": 4171,
      "organ": 4172,
      "atory": 4173,
      "lyn": 4174,
      "ilog": 4175,
      "ita": 4176,
      "itous": 4177,
      "ica": 4178,
      "chase": 4179,
      "channel": 4180,
      "church": 4181,
      "omed": 4182,
      "entious": 4183,
      "entially": 4184,
      "aded": 4185,
      "aming": 4186,
      "fill": 4187,
      "filmmaker": 4188,
      "unrealistic": 4189,
      "unfortunate": 4190,
      "opt": 4191,
      "ulting": 4192,
      "should": 4193,
      "compre": 4194,
      "comfort": 4195,
      "abeth": 4196,
      "distr": 4197,
      "agand": 4198,
      "agger": 4199,
      "ids": 4200,
      "feet": 4201,
      "conflict": 4202,
      "oodoo": 4203,
      "aint": 4204,
      "indu": 4205,
      "health": 4206,
      "charm": 4207,
      "quiet": 4208,
      "price": 4209,
      "umph": 4210,
      "tear": 4211,
      "guar": 4212,
      "spider": 4213,
      "awesome": 4214,
      "ouris": 4215,
      "blow": 4216,
      "obsess": 4217,
      "Inter": 4218,
      "iceberg": 4219,
      "twice": 4220,
      "greater": 4221,
      "outing": 4222,
      "floor": 4223,
      "party": 4224,
      "Chris": 4225,
      "Almost": 4226,
      "iction": 4227,
      "angle": 4228,
      "oughly": 4229,
      "characteristic": 4230,
      "minis": 4231,
      "century": 4232,
      "standard": 4233,
      "izes": 4234,
      "osity": 4235,
      "thrown": 4236,
      "phen": 4237,
      "glass": 4238,
      "friendly": 4239,
      "results": 4240,
      "relative": 4241,
      "relief": 4242,
      "underground": 4243,
      "product": 4244,
      "posing": 4245,
      "thoughts": 4246,
      "thats": 4247,
      "provided": 4248,
      "carpet": 4249,
      "court": 4250,
      "warm": 4251,
      "Johnny": 4252,
      "sitcom": 4253,
      "ERS": 4254,
      "Allen": 4255,
      "device": 4256,
      "lacks": 4257,
      "anticip": 4258,
      "United": 4259,
      "amazed": 4260,
      "youth": 4261,
      "marvel": 4262,
      "marriage": 4263,
      "fighter": 4264,
      "deter": 4265,
      "distant": 4266,
      "driving": 4267,
      "propagand": 4268,
      "Samurai": 4269,
      "Samantha": 4270,
      "generally": 4271,
      "impressed": 4272,
      "flicks": 4273,
      "umbs": 4274,
      "umbers": 4275,
      "void": 4276,
      "Sunday": 4277,
      "valu": 4278,
      "animated": 4279,
      "weeks": 4280,
      "energy": 4281,
      "continue": 4282,
      "McDermott": 4283,
      "shocked": 4284,
      "deliver": 4285,
      "Charles": 4286,
      "efforts": 4287,
      "touching": 4288,
      "touched": 4289,
      "actresses": 4290,
      "confused": 4291,
      "apartment": 4292,
      "sumably": 4293,
      "cultural": 4294,
      "hoping": 4295,
      "hopes": 4296,
      "regard": 4297,
      "forgettable": 4298,
      "ENT": 4299,
      "virt": 4300,
      "models": 4301,
      "Mostel": 4302,
      "sheer": 4303,
      "drawn": 4304,
      "student": 4305,
      "unlikely": 4306,
      "terribly": 4307,
      "occasionally": 4308,
      "theatre": 4309,
      "continuity": 4310,
      "faithful": 4311,
      "satisfying": 4312,
      "dinosaur": 4313,
      "remarkable": 4314,
      "Airport": 4315,
      "Meanwhile": 4316,
      "sinking": 4317,
      "Sandra": 4318,
      "rivate": 4319,
      "altern": 4320,
      "genuinely": 4321,
      "destroyed": 4322,
      "Two": 4323,
      "circ": 4324,
      "protagonist": 4325,
      "Major": 4326,
      "government": 4327,
      "honor": 4328,
      "historical": 4329,
      "prepared": 4330,
      "criminal": 4331,
      "explanation": 4332,
      "Azaria": 4333,
      "breath": 4334,
      "available": 4335,
      "Rhine": 4336,
      "bizarre": 4337,
      "nasty": 4338,
      "independent": 4339,
      "funniest": 4340,
      "Elizabeth": 4341,
      "yourself": 4342,
      "psychiatrist": 4343,
      "dimensional": 4344,
      "Coulouris": 4345,
      "Doggie": 4346,
      "Friends": 4347,
      "Poké": 4348,
      "Spoil": 4349,
      "Simpson": 4350,
      "sincere": 4351,
      "reporter": 4352,
      "ilogy": 4353,
      "compreh": 4354,
      "propaganda": 4355,
      "50s": 4356,
      "AB": 4357,
      "AP": 4358,
      "Avoid": 4359,
      "Bor": 4360,
      "Bach": 4361,
      "Bax": 4362,
      "Bobby": 4363,
      "Chey": 4364,
      "Da": 4365,
      "Fe": 4366,
      "FOR": 4367,
      "Gen": 4368,
      "Ha": 4369,
      "Hope": 4370,
      "Karis": 4371,
      "Last": 4372,
      "Link": 4373,
      "Lif": 4374,
      "Lond": 4375,
      "Mur": 4376,
      "MAN": 4377,
      "Max": 4378,
      "Pet": 4379,
      "RF": 4380,
      "Rick": 4381,
      "Ross": 4382,
      "Sol": 4383,
      "Str": 4384,
      "Speci": 4385,
      "SPO": 4386,
      "Tat": 4387,
      "Tri": 4388,
      "Taut": 4389,
      "Tapping": 4390,
      "UN": 4391,
      "UT": 4392,
      "Up": 4393,
      "Wall": 4394,
      "Ye": 4395,
      "ban": 4396,
      "bage": 4397,
      "cate": 4398,
      "cup": 4399,
      "cities": 4400,
      "dan": 4401,
      "ders": 4402,
      "dome": 4403,
      "fle": 4404,
      "fif": 4405,
      "from": 4406,
      "fits": 4407,
      "gem": 4408,
      "gender": 4409,
      "hi": 4410,
      "hint": 4411,
      "log": 4412,
      "mes": 4413,
      "mally": 4414,
      "mine": 4415,
      "nin": 4416,
      "ogu": 4417,
      "punch": 4418,
      "pacing": 4419,
      "rain": 4420,
      "rical": 4421,
      "rhy": 4422,
      "rarely": 4423,
      "size": 4424,
      "sedu": 4425,
      "saved": 4426,
      "tun": 4427,
      "toy": 4428,
      "tired": 4429,
      "toler": 4430,
      "vote": 4431,
      "vement": 4432,
      "voodoo": 4433,
      "inner": 4434,
      "indeed": 4435,
      "enemy": 4436,
      "enthus": 4437,
      "encounter": 4438,
      "remake": 4439,
      "regre": 4440,
      "reminis": 4441,
      "onel": 4442,
      "stol": 4443,
      "ande": 4444,
      "anime": 4445,
      "ala": 4446,
      "arrest": 4447,
      "orient": 4448,
      "ato": 4449,
      "lebr": 4450,
      "itz": 4451,
      "accompl": 4452,
      "sey": 4453,
      "iced": 4454,
      "icol": 4455,
      "Thom": 4456,
      "Those": 4457,
      "adap": 4458,
      "asing": 4459,
      "asked": 4460,
      "evol": 4461,
      "oting": 4462,
      "eting": 4463,
      "rior": 4464,
      "dece": 4465,
      "celebr": 4466,
      "ulate": 4467,
      "shar": 4468,
      "shir": 4469,
      "shadow": 4470,
      "comics": 4471,
      "peace": 4472,
      "such": 4473,
      "extr": 4474,
      "scared": 4475,
      "beings": 4476,
      "manage": 4477,
      "trilogy": 4478,
      "user": 4479,
      "mare": 4480,
      "mail": 4481,
      "elled": 4482,
      "asts": 4483,
      "poster": 4484,
      "forms": 4485,
      "presumably": 4486,
      "thern": 4487,
      "herself": 4488,
      "ardo": 4489,
      "cloth": 4490,
      "soap": 4491,
      "akti": 4492,
      "grab": 4493,
      "grain": 4494,
      "loves": 4495,
      "disgust": 4496,
      "Ing": 4497,
      "serve": 4498,
      "served": 4499,
      "outs": 4500,
      "drunk": 4501,
      "knowledge": 4502,
      "overwhel": 4503,
      "States": 4504,
      "anybody": 4505,
      "flu": 4506,
      "flow": 4507,
      "function": 4508,
      "Chap": 4509,
      "lesser": 4510,
      "lesson": 4511,
      "finale": 4512,
      "ashes": 4513,
      "Hey": 4514,
      "center": 4515,
      "desire": 4516,
      "lett": 4517,
      "ization": 4518,
      "arson": 4519,
      "nox": 4520,
      "offensive": 4521,
      "genres": 4522,
      "screw": 4523,
      "pretend": 4524,
      "pretentious": 4525,
      "surv": 4526,
      "miser": 4527,
      "Joan": 4528,
      "compan": 4529,
      "friendship": 4530,
      "trial": 4531,
      "Second": 4532,
      "calls": 4533,
      "syn": 4534,
      "parent": 4535,
      "Shah": 4536,
      "Shakti": 4537,
      "personality": 4538,
      "warned": 4539,
      "sequels": 4540,
      "puzz": 4541,
      "othy": 4542,
      "lacking": 4543,
      "creates": 4544,
      "empty": 4545,
      "Being": 4546,
      "collect": 4547,
      "Afgh": 4548,
      "element": 4549,
      "nicely": 4550,
      "Dean": 4551,
      "Death": 4552,
      "murders": 4553,
      "rented": 4554,
      "green": 4555,
      "Grand": 4556,
      "location": 4557,
      "refre": 4558,
      "reflect": 4559,
      "included": 4560,
      "controvers": 4561,
      "voices": 4562,
      "breaks": 4563,
      "sadly": 4564,
      "2004": 4565,
      "Luci": 4566,
      "hole": 4567,
      "rapists": 4568,
      "experiences": 4569,
      "slowly": 4570,
      "appearing": 4571,
      "dealt": 4572,
      "levels": 4573,
      "learns": 4574,
      "freak": 4575,
      "legend": 4576,
      "broad": 4577,
      "Woody": 4578,
      "Blue": 4579,
      "touches": 4580,
      "treated": 4581,
      "introduction": 4582,
      "ripped": 4583,
      "1943": 4584,
      "relationships": 4585,
      "Advent": 4586,
      "Acting": 4587,
      "guns": 4588,
      "narration": 4589,
      "ethnic": 4590,
      "honestly": 4591,
      "bottle": 4592,
      "connected": 4593,
      "000": 4594,
      "comedic": 4595,
      "ibility": 4596,
      "Canada": 4597,
      "anchor": 4598,
      "executed": 4599,
      "Doug": 4600,
      "Smith": 4601,
      "thoroughly": 4602,
      "lucky": 4603,
      "embarrassing": 4604,
      "nominated": 4605,
      "describe": 4606,
      "Jessie": 4607,
      "tragedy": 4608,
      "garbage": 4609,
      "contrived": 4610,
      "photography": 4611,
      "curious": 4612,
      "practically": 4613,
      "challeng": 4614,
      "psychological": 4615,
      "Wayne": 4616,
      "Angel": 4617,
      "merely": 4618,
      "Leonardo": 4619,
      "Sanjay": 4620,
      "discussion": 4621,
      "Delpy": 4622,
      "Arabian": 4623,
      "redeeming": 4624,
      "Martin": 4625,
      "multi": 4626,
      "rescue": 4627,
      "demonstr": 4628,
      "Bogart": 4629,
      "Listener": 4630,
      "Toni": 4631,
      "contemporary": 4632,
      "Hawke": 4633,
      "Obviously": 4634,
      "cousin": 4635,
      "commercial": 4636,
      "IGHT": 4637,
      "Margaret": 4638,
      "Nandini": 4639,
      "routine": 4640,
      "dinosaurs": 4641,
      "Baxter": 4642,
      "Cheyenne": 4643,
      "Karisma": 4644,
      "London": 4645,
      "SPOIL": 4646,
      "Tautou": 4647,
      "ogues": 4648,
      "regret": 4649,
      "stolen": 4650,
      "\"?": 4651,
      "Are": 4652,
      "Achar": 4653,
      "Afr": 4654,
      "Auss": 4655,
      "Ba": 4656,
      "Bri": 4657,
      "Bro": 4658,
      "Boss": 4659,
      "Cann": 4660,
      "Ep": 4661,
      "Ethan": 4662,
      "Fest": 4663,
      "Finally": 4664,
      "Garson": 4665,
      "HA": 4666,
      "Harr": 4667,
      "ID": 4668,
      "Kids": 4669,
      "LD": 4670,
      "LY": 4671,
      "Lev": 4672,
      "Monic": 4673,
      "Morton": 4674,
      "Ni": 4675,
      "Oper": 4676,
      "Part": 4677,
      "Paris": 4678,
      "RD": 4679,
      "Ry": 4680,
      "S2": 4681,
      "Sci": 4682,
      "Tre": 4683,
      "Ted": 4684,
      "Tow": 4685,
      "UE": 4686,
      "WW": 4687,
      "Wat": 4688,
      "Will": 4689,
      "boo": 4690,
      "bble": 4691,
      "bond": 4692,
      "cel": 4693,
      "cies": 4694,
      "cust": 4695,
      "clim": 4696,
      "dum": 4697,
      "dying": 4698,
      "ee": 4699,
      "fal": 4700,
      "fru": 4701,
      "gend": 4702,
      "has": 4703,
      "hill": 4704,
      "hire": 4705,
      "hurt": 4706,
      "mart": 4707,
      "mum": 4708,
      "ners": 4709,
      "nut": 4710,
      "och": 4711,
      "pa": 4712,
      "pin": 4713,
      "page": 4714,
      "pup": 4715,
      "rab": 4716,
      "rant": 4717,
      "ronic": 4718,
      "tick": 4719,
      "tail": 4720,
      "ube": 4721,
      "vague": 4722,
      "wing": 4723,
      "wart": 4724,
      "were": 4725,
      "inct": 4726,
      "inci": 4727,
      "erous": 4728,
      "redi": 4729,
      "rema": 4730,
      "reaction": 4731,
      "represent": 4732,
      "reactions": 4733,
      "onte": 4734,
      "ingredi": 4735,
      "stuck": 4736,
      "stays": 4737,
      "angry": 4738,
      "alg": 4739,
      "alian": 4740,
      "arms": 4741,
      "army": 4742,
      "ators": 4743,
      "atically": 4744,
      "outr": 4745,
      "threat": 4746,
      "leine": 4747,
      "section": 4748,
      "icate": 4749,
      "chair": 4750,
      "oms": 4751,
      "isms": 4752,
      "enter": 4753,
      "lia": 4754,
      "lif": 4755,
      "unknown": 4756,
      "unnecessary": 4757,
      "dem": 4758,
      "opens": 4759,
      "ophy": 4760,
      "ploy": 4761,
      "plans": 4762,
      "abe": 4763,
      "vey": 4764,
      "exp": 4765,
      "agent": 4766,
      "mans": 4767,
      "essential": 4768,
      "conce": 4769,
      "constru": 4770,
      "forces": 4771,
      "formed": 4772,
      "prec": 4773,
      "indul": 4774,
      "industr": 4775,
      "ocative": 4776,
      "heir": 4777,
      "istan": 4778,
      "istically": 4779,
      "pra": 4780,
      "prince": 4781,
      "profound": 4782,
      "aud": 4783,
      "aust": 4784,
      "teacher": 4785,
      "clunk": 4786,
      "soever": 4787,
      "soft": 4788,
      "ivers": 4789,
      "mechan": 4790,
      "aker": 4791,
      "spaper": 4792,
      "inept": 4793,
      "awards": 4794,
      "blown": 4795,
      "itty": 4796,
      "ostalg": 4797,
      "player": 4798,
      "udd": 4799,
      "bru": 4800,
      "Steve": 4801,
      "interview": 4802,
      "credi": 4803,
      "weap": 4804,
      "theory": 4805,
      "perform": 4806,
      "ifies": 4807,
      "insane": 4808,
      "gotten": 4809,
      "both": 4810,
      "excess": 4811,
      "excited": 4812,
      "phil": 4813,
      "steal": 4814,
      "buying": 4815,
      "compare": 4816,
      "comparis": 4817,
      "screening": 4818,
      "resort": 4819,
      "themselves": 4820,
      "rell": 4821,
      "producing": 4822,
      "poses": 4823,
      "doz": 4824,
      "lighting": 4825,
      "eyed": 4826,
      "helm": 4827,
      "scripts": 4828,
      "calling": 4829,
      "parently": 4830,
      "Shanks": 4831,
      "Shakes": 4832,
      "afonte": 4833,
      "cameo": 4834,
      "kidn": 4835,
      "versions": 4836,
      "personally": 4837,
      "League": 4838,
      "cuts": 4839,
      "myself": 4840,
      "specially": 4841,
      "warming": 4842,
      "seconds": 4843,
      "laughing": 4844,
      "whatsoever": 4845,
      "possess": 4846,
      "sounded": 4847,
      "creating": 4848,
      "graph": 4849,
      "Unless": 4850,
      "formula": 4851,
      "ANT": 4852,
      "colors": 4853,
      "ridge": 4854,
      "fix": 4855,
      "elect": 4856,
      "marry": 4857,
      "imagin": 4858,
      "midt": 4859,
      "prison": 4860,
      "renting": 4861,
      "rental": 4862,
      "NOW": 4863,
      "passed": 4864,
      "magical": 4865,
      "popcorn": 4866,
      "driven": 4867,
      "suspend": 4868,
      "forever": 4869,
      "snakes": 4870,
      "Sundance": 4871,
      "downright": 4872,
      "England": 4873,
      "2006": 4874,
      "aturing": 4875,
      "remembered": 4876,
      "SG1": 4877,
      "animals": 4878,
      "continues": 4879,
      "learned": 4880,
      "freed": 4881,
      "captures": 4882,
      "Donna": 4883,
      "Donald": 4884,
      "causes": 4885,
      "delivery": 4886,
      "delivered": 4887,
      "speaks": 4888,
      "hito": 4889,
      "Abby": 4890,
      "meaningful": 4891,
      "urban": 4892,
      "Adam": 4893,
      "toward": 4894,
      "vira": 4895,
      "accused": 4896,
      "focuses": 4897,
      "instantly": 4898,
      "tradition": 4899,
      "purely": 4900,
      "throwing": 4901,
      "Green": 4902,
      "study": 4903,
      "students": 4904,
      "mysterious": 4905,
      "reveals": 4906,
      "choices": 4907,
      "1976": 4908,
      "horrific": 4909,
      "Schmidt": 4910,
      "sucks": 4911,
      "clichés": 4912,
      "concerned": 4913,
      "complaint": 4914,
      "visuals": 4915,
      "receive": 4916,
      "received": 4917,
      "anchise": 4918,
      "execution": 4919,
      "Elvira": 4920,
      "perspect": 4921,
      "Muslim": 4922,
      "pulls": 4923,
      "sisters": 4924,
      "massive": 4925,
      "expressions": 4926,
      "described": 4927,
      "journal": 4928,
      "flashbacks": 4929,
      "transport": 4930,
      "delightful": 4931,
      "curiosity": 4932,
      "dollars": 4933,
      "dangerous": 4934,
      "Basically": 4935,
      "Emily": 4936,
      "Highly": 4937,
      "mathem": 4938,
      "challenge": 4939,
      "Laura": 4940,
      "damn": 4941,
      "guilty": 4942,
      "Belafonte": 4943,
      "WORST": 4944,
      "crowd": 4945,
      "physically": 4946,
      "habit": 4947,
      "target": 4948,
      "liberal": 4949,
      "bullets": 4950,
      "ladies": 4951,
      "plantation": 4952,
      "fascinating": 4953,
      "Culkin": 4954,
      "gratu": 4955,
      "Dorothy": 4956,
      "Madeleine": 4957,
      "Apparently": 4958,
      "Elephant": 4959,
      "studio": 4960,
      "passengers": 4961,
      "cynical": 4962,
      "lawyer": 4963,
      "Amazing": 4964,
      "Friday": 4965,
      "Much": 4966,
      "Society": 4967,
      "dirty": 4968,
      "tobacco": 4969,
      "comfortable": 4970,
      "inducing": 4971,
      "guarante": 4972,
      "valuable": 4973,
      "Pokémon": 4974,
      "Linklater": 4975,
      "Lifetime": 4976,
      "Pete": 4977,
      "Special": 4978,
      "Wallace": 4979,
      "reminiscent": 4980,
      "icolor": 4981,
      "clothes": 4982,
      "survive": 4983,
      "Afghan": 4984,
      "Acharya": 4985,
      "Monica": 4986,
      "Opera": 4987,
      "outrage": 4988,
      "industry": 4989,
      "mechanical": 4990,
      "comparison": 4991,
      "Shakespe": 4992,
      "24": 4993,
      "3r": 4994,
      "77": 4995,
      "Ay": 4996,
      "Aish": 4997,
      "Amand": 4998,
      "Again": 4999,
      "Bell": 5000,
      "Boy": 5001,
      "Bha": 5002,
      "Broad": 5003,
      "CT": 5004,
      "Cin": 5005,
      "Cry": 5006,
      "Caul": 5007,
      "Dam": 5008,
      "East": 5009,
      "EVER": 5010,
      "FE": 5011,
      "Fur": 5012,
      "Ford": 5013,
      "GM": 5014,
      "Gl": 5015,
      "Has": 5016,
      "Hard": 5017,
      "Hong": 5018,
      "Kud": 5019,
      "Knox": 5020,
      "La": 5021,
      "Lor": 5022,
      "Line": 5023,
      "Law": 5024,
      "Lost": 5025,
      "Lug": 5026,
      "Mer": 5027,
      "Mal": 5028,
      "Met": 5029,
      "Mex": 5030,
      "Make": 5031,
      "Mik": 5032,
      "Malone": 5033,
      "Nat": 5034,
      "Nation": 5035,
      "Next": 5036,
      "Ok": 5037,
      "Plot": 5038,
      "Produ": 5039,
      "Ron": 5040,
      "Roy": 5041,
      "Ros": 5042,
      "Sor": 5043,
      "Sat": 5044,
      "Spie": 5045,
      "Tar": 5046,
      "Ver": 5047,
      "WA": 5048,
      "Wow": 5049,
      "Walk": 5050,
      "Western": 5051,
      "ba": 5052,
      "bs": 5053,
      "bon": 5054,
      "bing": 5055,
      "bill": 5056,
      "bath": 5057,
      "cil": 5058,
      "cab": 5059,
      "dut": 5060,
      "een": 5061,
      "fing": 5062,
      "gag": 5063,
      "hes": 5064,
      "hur": 5065,
      "hound": 5066,
      "hated": 5067,
      "hits": 5068,
      "iffer": 5069,
      "ji": 5070,
      "ka": 5071,
      "length": 5072,
      "luster": 5073,
      "lberg": 5074,
      "nt": 5075,
      "nu": 5076,
      "nine": 5077,
      "oil": 5078,
      "ren": 5079,
      "rac": 5080,
      "rul": 5081,
      "range": 5082,
      "sar": 5083,
      "sunk": 5084,
      "til": 5085,
      "tent": 5086,
      "tank": 5087,
      "tune": 5088,
      "van": 5089,
      "vyn": 5090,
      "wann": 5091,
      "witch": 5092,
      "zsa": 5093,
      "inf": 5094,
      "rep": 5095,
      "redu": 5096,
      "replaced": 5097,
      "stance": 5098,
      "anc": 5099,
      "ara": 5100,
      "ori": 5101,
      "orm": 5102,
      "lest": 5103,
      "iture": 5104,
      "itions": 5105,
      "itute": 5106,
      "ico": 5107,
      "ication": 5108,
      "icable": 5109,
      "chest": 5110,
      "chose": 5111,
      "chaos": 5112,
      "isher": 5113,
      "ada": 5114,
      "ado": 5115,
      "advert": 5116,
      "ayed": 5117,
      "lims": 5118,
      "ooper": 5119,
      "asking": 5120,
      "ambit": 5121,
      "unable": 5122,
      "uninteresting": 5123,
      "decl": 5124,
      "depress": 5125,
      "destruction": 5126,
      "deeper": 5127,
      "ulated": 5128,
      "shake": 5129,
      "emer": 5130,
      "emen": 5131,
      "abuse": 5132,
      "above": 5133,
      "suhito": 5134,
      "ironic": 5135,
      "agers": 5136,
      "scious": 5137,
      "urse": 5138,
      "essentially": 5139,
      "idents": 5140,
      "maid": 5141,
      "featuring": 5142,
      "ounce": 5143,
      "ained": 5144,
      "prejud": 5145,
      "perpet": 5146,
      "alled": 5147,
      "therefore": 5148,
      "ffs": 5149,
      "prime": 5150,
      "princi": 5151,
      "goers": 5152,
      "progress": 5153,
      "intense": 5154,
      "tech": 5155,
      "Italian": 5156,
      "whilst": 5157,
      "epic": 5158,
      "spare": 5159,
      "shower": 5160,
      "estate": 5161,
      "mented": 5162,
      "loving": 5163,
      "crabs": 5164,
      "displays": 5165,
      "noted": 5166,
      "strict": 5167,
      "appalling": 5168,
      "realizes": 5169,
      "ups": 5170,
      "upper": 5171,
      "finan": 5172,
      "mined": 5173,
      "Heart": 5174,
      "centric": 5175,
      "ruin": 5176,
      "attitude": 5177,
      "letting": 5178,
      "believed": 5179,
      "newspaper": 5180,
      "offered": 5181,
      "owner": 5182,
      "turning": 5183,
      "episi": 5184,
      "achy": 5185,
      "phants": 5186,
      "factor": 5187,
      "miscast": 5188,
      "stein": 5189,
      "buil": 5190,
      "bigger": 5191,
      "ording": 5192,
      "illian": 5193,
      "provides": 5194,
      "Americans": 5195,
      "parody": 5196,
      "carried": 5197,
      "wondered": 5198,
      "hyster": 5199,
      "End": 5200,
      "myth": 5201,
      "specific": 5202,
      "anned": 5203,
      "originally": 5204,
      "capable": 5205,
      "frame": 5206,
      "boyfriend": 5207,
      "careful": 5208,
      "campy": 5209,
      "Brook": 5210,
      "lackluster": 5211,
      "raj": 5212,
      "relev": 5213,
      "polic": 5214,
      "Morris": 5215,
      "elephants": 5216,
      "STAR": 5217,
      "follows": 5218,
      "admir": 5219,
      "portrays": 5220,
      "murdered": 5221,
      "ATCH": 5222,
      "Sunset": 5223,
      "Such": 5224,
      "motor": 5225,
      "deserve": 5226,
      "listening": 5227,
      "experienced": 5228,
      "spirits": 5229,
      "Bern": 5230,
      "paint": 5231,
      "painfully": 5232,
      "allows": 5233,
      "transfer": 5234,
      "Except": 5235,
      "pathy": 5236,
      "Colonel": 5237,
      "successfully": 5238,
      "axy": 5239,
      "village": 5240,
      "Oscars": 5241,
      "confusing": 5242,
      "nonsense": 5243,
      "winner": 5244,
      "changing": 5245,
      "About": 5246,
      "Abbey": 5247,
      "REAT": 5248,
      "reminds": 5249,
      "spoiler": 5250,
      "yaji": 5251,
      "Wrong": 5252,
      "Chamberlains": 5253,
      "Nights": 5254,
      "jumped": 5255,
      "vivid": 5256,
      "largely": 5257,
      "OUT": 5258,
      "suffered": 5259,
      "advice": 5260,
      "necessarily": 5261,
      "occasional": 5262,
      "Schepisi": 5263,
      "losing": 5264,
      "pati": 5265,
      "sucked": 5266,
      "normal": 5267,
      "theaters": 5268,
      "Plus": 5269,
      "suspects": 5270,
      "Muslims": 5271,
      "constant": 5272,
      "remarkably": 5273,
      "sexuality": 5274,
      "embarrassed": 5275,
      "1930s": 5276,
      "festival": 5277,
      "Rozsa": 5278,
      "besides": 5279,
      "treasure": 5280,
      "amateurish": 5281,
      "contribut": 5282,
      "Wilhelm": 5283,
      "remotely": 5284,
      "collection": 5285,
      "reference": 5286,
      "Trav": 5287,
      "welcome": 5288,
      "Life": 5289,
      "lux": 5290,
      "trailer": 5291,
      "eccentric": 5292,
      "responsible": 5293,
      "Lamas": 5294,
      "gambl": 5295,
      "hackney": 5296,
      "initial": 5297,
      "Atlant": 5298,
      "Roman": 5299,
      "melodrama": 5300,
      "revealed": 5301,
      "guts": 5302,
      "soldiers": 5303,
      "magnific": 5304,
      "expert": 5305,
      "iverse": 5306,
      "dubbed": 5307,
      "spectacular": 5308,
      "suffers": 5309,
      "Technicolor": 5310,
      "appropriate": 5311,
      "Kirsten": 5312,
      "iyyaji": 5313,
      "relatively": 5314,
      "marvelous": 5315,
      "Tatsuhito": 5316,
      "sharp": 5317,
      "Chaplin": 5318,
      "Aussie": 5319,
      "Festival": 5320,
      "false": 5321,
      "frustr": 5322,
      "remains": 5323,
      "constructed": 5324,
      "precious": 5325,
      "philos": 5326,
      "perspective": 5327,
      "gratuitous": 5328,
      "Afghanistan": 5329,
      "3rd": 5330,
      "Broadway": 5331,
      "Cinem": 5332,
      "Caulfield": 5333,
      "Miklos": 5334,
      "Spielberg": 5335,
      "Apr": 5336,
      "Amy": 5337,
      "Award": 5338,
      "Apop": 5339,
      "Bes": 5340,
      "Bac": 5341,
      "Burn": 5342,
      "Brom": 5343,
      "Bolt": 5344,
      "Cy": 5345,
      "Call": 5346,
      "Cass": 5347,
      "Cey": 5348,
      "Clau": 5349,
      "Crest": 5350,
      "Cooper": 5351,
      "Daw": 5352,
      "Def": 5353,
      "Four": 5354,
      "Father": 5355,
      "GO": 5356,
      "Gar": 5357,
      "Gov": 5358,
      "Gross": 5359,
      "GREAT": 5360,
      "HU": 5361,
      "Hit": 5362,
      "Happ": 5363,
      "Hindi": 5364,
      "Im": 5365,
      "Judge": 5366,
      "Kel": 5367,
      "Kend": 5368,
      "Kane": 5369,
      "Kenn": 5370,
      "Kurt": 5371,
      "LI": 5372,
      "Lo": 5373,
      "Laz": 5374,
      "Lillian": 5375,
      "MS": 5376,
      "MY": 5377,
      "Mo": 5378,
      "Med": 5379,
      "Molly": 5380,
      "Mitch": 5381,
      "Maj": 5382,
      "Ocean": 5383,
      "Pre": 5384,
      "Person": 5385,
      "Power": 5386,
      "Que": 5387,
      "Ra": 5388,
      "Rory": 5389,
      "Roll": 5390,
      "SF": 5391,
      "Screw": 5392,
      "South": 5393,
      "Scrappy": 5394,
      "Tob": 5395,
      "Turn": 5396,
      "Tales": 5397,
      "UK": 5398,
      "Vir": 5399,
      "Whether": 5400,
      "Young": 5401,
      "YET": 5402,
      "ben": 5403,
      "bay": 5404,
      "bind": 5405,
      "bank": 5406,
      "cs": 5407,
      "cars": 5408,
      "dys": 5409,
      "fu": 5410,
      "furn": 5411,
      "fright": 5412,
      "fond": 5413,
      "faced": 5414,
      "gri": 5415,
      "gap": 5416,
      "gig": 5417,
      "had": 5418,
      "hun": 5419,
      "hap": 5420,
      "hid": 5421,
      "hors": 5422,
      "junk": 5423,
      "ku": 5424,
      "moun": 5425,
      "mock": 5426,
      "nam": 5427,
      "nip": 5428,
      "naked": 5429,
      "nostalg": 5430,
      "oke": 5431,
      "oons": 5432,
      "pit": 5433,
      "pity": 5434,
      "park": 5435,
      "ron": 5436,
      "rat": 5437,
      "rous": 5438,
      "rav": 5439,
      "rang": 5440,
      "sop": 5441,
      "send": 5442,
      "sake": 5443,
      "slim": 5444,
      "slaughter": 5445,
      "tom": 5446,
      "tur": 5447,
      "ture": 5448,
      "trem": 5449,
      "tense": 5450,
      "task": 5451,
      "uct": 5452,
      "uro": 5453,
      "vul": 5454,
      "via": 5455,
      "ws": 5456,
      "wan": 5457,
      "west": 5458,
      "wings": 5459,
      "yup": 5460,
      "inev": 5461,
      "inher": 5462,
      "inane": 5463,
      "initely": 5464,
      "infer": 5465,
      "inju": 5466,
      "incoherent": 5467,
      "influ": 5468,
      "erotic": 5469,
      "enem": 5470,
      "ency": 5471,
      "resur": 5472,
      "reput": 5473,
      "recover": 5474,
      "returns": 5475,
      "only": 5476,
      "onment": 5477,
      "stom": 5478,
      "stink": 5479,
      "staged": 5480,
      "strip": 5481,
      "ano": 5482,
      "aly": 5483,
      "esar": 5484,
      "arter": 5485,
      "arry": 5486,
      "arian": 5487,
      "orter": 5488,
      "thod": 5489,
      "thless": 5490,
      "thony": 5491,
      "threw": 5492,
      "lem": 5493,
      "leen": 5494,
      "itiz": 5495,
      "acle": 5496,
      "iche": 5497,
      "oved": 5498,
      "chases": 5499,
      "ieve": 5500,
      "omer": 5501,
      "Thank": 5502,
      "Through": 5503,
      "isa": 5504,
      "elic": 5505,
      "entry": 5506,
      "adays": 5507,
      "ayson": 5508,
      "lip": 5509,
      "oop": 5510,
      "oops": 5511,
      "owed": 5512,
      "asp": 5513,
      "assem": 5514,
      "image": 5515,
      "amor": 5516,
      "unwatchable": 5517,
      "unbear": 5518,
      "unrelated": 5519,
      "olan": 5520,
      "ollow": 5521,
      "deals": 5522,
      "oples": 5523,
      "shut": 5524,
      "shif": 5525,
      "shodd": 5526,
      "command": 5527,
      "embr": 5528,
      "employ": 5529,
      "plug": 5530,
      "sue": 5531,
      "irk": 5532,
      "irrit": 5533,
      "exists": 5534,
      "exotic": 5535,
      "agre": 5536,
      "bec": 5537,
      "rog": 5538,
      "trite": 5539,
      "fear": 5540,
      "conven": 5541,
      "convey": 5542,
      "ella": 5543,
      "ells": 5544,
      "poem": 5545,
      "iller": 5546,
      "forgiven": 5547,
      "worried": 5548,
      "neat": 5549,
      "timeless": 5550,
      "charged": 5551,
      "arded": 5552,
      "proud": 5553,
      "seek": 5554,
      "avale": 5555,
      "prost": 5556,
      "intage": 5557,
      "intens": 5558,
      "intended": 5559,
      "evening": 5560,
      "teens": 5561,
      "whis": 5562,
      "whip": 5563,
      "clos": 5564,
      "ares": 5565,
      "Anthony": 5566,
      "aku": 5567,
      "guest": 5568,
      "awk": 5569,
      "blance": 5570,
      "blows": 5571,
      "blockbuster": 5572,
      "obody": 5573,
      "observ": 5574,
      "wiz": 5575,
      "disasters": 5576,
      "notorious": 5577,
      "icked": 5578,
      "wells": 5579,
      "realm": 5580,
      "realistically": 5581,
      "brow": 5582,
      "Stett": 5583,
      "interpret": 5584,
      "Andrew": 5585,
      "ashiv": 5586,
      "beloved": 5587,
      "1930": 5588,
      "1912": 5589,
      "horrend": 5590,
      "ruthless": 5591,
      "performed": 5592,
      "talents": 5593,
      "talked": 5594,
      "achu": 5595,
      "ached": 5596,
      "surreal": 5597,
      "sons": 5598,
      "facts": 5599,
      "bitter": 5600,
      "tripe": 5601,
      "relent": 5602,
      "reluct": 5603,
      "THING": 5604,
      "doomed": 5605,
      "completed": 5606,
      "lights": 5607,
      "arren": 5608,
      "harder": 5609,
      "wonderfully": 5610,
      "commit": 5611,
      "committing": 5612,
      "Shame": 5613,
      "Shinju": 5614,
      "ignor": 5615,
      "selfish": 5616,
      "hyped": 5617,
      "subtitles": 5618,
      "cohol": 5619,
      "decision": 5620,
      "context": 5621,
      "dialogues": 5622,
      "Legend": 5623,
      "singer": 5624,
      "border": 5625,
      "mindless": 5626,
      "franchise": 5627,
      "ERE": 5628,
      "cares": 5629,
      "engaged": 5630,
      "adds": 5631,
      "halani": 5632,
      "definite": 5633,
      "Beg": 5634,
      "Beaut": 5635,
      "slave": 5636,
      "dramas": 5637,
      "speed": 5638,
      "breasts": 5639,
      "ological": 5640,
      "ograph": 5641,
      "Someone": 5642,
      "passing": 5643,
      "passion": 5644,
      "distribut": 5645,
      "meeting": 5646,
      "guessing": 5647,
      "Grimm": 5648,
      "Grayson": 5649,
      "Michelle": 5650,
      "Spain": 5651,
      "ugs": 5652,
      "exceptional": 5653,
      "fortune": 5654,
      "generation": 5655,
      "refuses": 5656,
      "admire": 5657,
      "contrast": 5658,
      "silver": 5659,
      "succeed": 5660,
      "behav": 5661,
      "ART": 5662,
      "Indians": 5663,
      "*****": 5664,
      "sadistic": 5665,
      "2007": 5666,
      "Martha": 5667,
      "strongly": 5668,
      "supported": 5669,
      "humorous": 5670,
      "football": 5671,
      "dealing": 5672,
      "justify": 5673,
      "frequ": 5674,
      "planets": 5675,
      "Street": 5676,
      "techni": 5677,
      "Blockbuster": 5678,
      "treats": 5679,
      "Perry": 5680,
      "Anyone": 5681,
      "numerous": 5682,
      "skip": 5683,
      "introduce": 5684,
      "suspenseful": 5685,
      "costs": 5686,
      "balls": 5687,
      "galaxy": 5688,
      "enchant": 5689,
      "stunts": 5690,
      "trained": 5691,
      "Superdome": 5692,
      "fires": 5693,
      "opinions": 5694,
      "flawless": 5695,
      "1990": 5696,
      "1997": 5697,
      "Horrible": 5698,
      "Watching": 5699,
      "harsh": 5700,
      "homeless": 5701,
      "oids": 5702,
      "dogs": 5703,
      "commentary": 5704,
      "villains": 5705,
      "North": 5706,
      "vironment": 5707,
      "drawing": 5708,
      "paying": 5709,
      "Bush": 5710,
      "dreams": 5711,
      "weekend": 5712,
      "ultimate": 5713,
      "families": 5714,
      "normally": 5715,
      "staying": 5716,
      "concerning": 5717,
      "afterwards": 5718,
      "Britain": 5719,
      "continued": 5720,
      "bbing": 5721,
      "1980": 5722,
      "satisfied": 5723,
      "Hammond": 5724,
      "mixed": 5725,
      "combine": 5726,
      "achieve": 5727,
      "achievement": 5728,
      "rolling": 5729,
      "stereotyp": 5730,
      "stereotypes": 5731,
      "nomination": 5732,
      "spots": 5733,
      "service": 5734,
      "1939": 5735,
      "window": 5736,
      "qualities": 5737,
      "burg": 5738,
      "burst": 5739,
      "Christmas": 5740,
      "primary": 5741,
      "Otherwise": 5742,
      "Wilson": 5743,
      "religion": 5744,
      "educ": 5745,
      "contempl": 5746,
      "Basra": 5747,
      "victims": 5748,
      "whenever": 5749,
      "LOVE": 5750,
      "wealthy": 5751,
      "Eva": 5752,
      "Evil": 5753,
      "drugs": 5754,
      "surrounding": 5755,
      "labor": 5756,
      "yeah": 5757,
      "Atlantic": 5758,
      "Melvyn": 5759,
      "strike": 5760,
      "intentional": 5761,
      "Foxx": 5762,
      "SUCK": 5763,
      "inspiring": 5764,
      "require": 5765,
      "translated": 5766,
      "intriguing": 5767,
      "samurai": 5768,
      "intentionally": 5769,
      "slapstick": 5770,
      "significant": 5771,
      "Wonderful": 5772,
      "ginia": 5773,
      "associated": 5774,
      "cynicism": 5775,
      "homosexuality": 5776,
      "MUCH": 5777,
      "glimpse": 5778,
      "sacri": 5779,
      "Bachchan": 5780,
      "category": 5781,
      "dancing": 5782,
      "Thomas": 5783,
      "adapted": 5784,
      "Ingrid": 5785,
      "controversial": 5786,
      "Cannavale": 5787,
      "Nihalani": 5788,
      "Watson": 5789,
      "martial": 5790,
      "graphics": 5791,
      "Shakespeare": 5792,
      "Amanda": 5793,
      "Bhaiyyaji": 5794,
      "Further": 5795,
      "Lugia": 5796,
      "duty": 5797,
      "wannabe": 5798,
      "reduced": 5799,
      "strictly": 5800,
      "policemen": 5801,
      "gambler": 5802,
      "hackneyed": 5803,
      "Atlantis": 5804,
      "April": 5805,
      "Apophis": 5806,
      "Bacall": 5807,
      "Ceylon": 5808,
      "Cresta": 5809,
      "Definitely": 5810,
      "Govind": 5811,
      "Hitler": 5812,
      "Kennedy": 5813,
      "Mitchell": 5814,
      "Toby": 5815,
      "Virginia": 5816,
      "YETI": 5817,
      "furniture": 5818,
      "inevit": 5819,
      "inferior": 5820,
      "enemies": 5821,
      "reputation": 5822,
      "Stettner": 5823,
      "horrendous": 5824,
      "Shinjuku": 5825,
      "')": 5826,
      "5th": 5827,
      "Aro": 5828,
      "Alive": 5829,
      "Amel": 5830,
      "BS": 5831,
      "Bir": 5832,
      "Bott": 5833,
      "BAG": 5834,
      "Baker": 5835,
      "Co": 5836,
      "Cut": 5837,
      "Cong": 5838,
      "Care": 5839,
      "Cash": 5840,
      "Cons": 5841,
      "Dil": 5842,
      "Dun": 5843,
      "Domin": 5844,
      "During": 5845,
      "Er": 5846,
      "Ely": 5847,
      "Fi": 5848,
      "Fer": 5849,
      "Fan": 5850,
      "Finch": 5851,
      "GE": 5852,
      "GI": 5853,
      "Gou": 5854,
      "Gas": 5855,
      "Gant": 5856,
      "Gum": 5857,
      "Gary": 5858,
      "Gos": 5859,
      "GER": 5860,
      "Hy": 5861,
      "Hal": 5862,
      "Had": 5863,
      "Honest": 5864,
      "Hunt": 5865,
      "Humph": 5866,
      "Jon": 5867,
      "Kor": 5868,
      "Kam": 5869,
      "KING": 5870,
      "Light": 5871,
      "Log": 5872,
      "Lisa": 5873,
      "ME": 5874,
      "Moo": 5875,
      "Mag": 5876,
      "Main": 5877,
      "Mall": 5878,
      "Mos": 5879,
      "Mumb": 5880,
      "Mered": 5881,
      "MGM": 5882,
      "Nar": 5883,
      "None": 5884,
      "National": 5885,
      "Norton": 5886,
      "Naval": 5887,
      "Nolan": 5888,
      "Old": 5889,
      "Ph": 5890,
      "Pal": 5891,
      "Pay": 5892,
      "Poo": 5893,
      "Pow": 5894,
      "Pul": 5895,
      "Phe": 5896,
      "Poll": 5897,
      "Poor": 5898,
      "Poss": 5899,
      "Private": 5900,
      "Pande": 5901,
      "Raid": 5902,
      "Sing": 5903,
      "Sound": 5904,
      "Scre": 5905,
      "Sult": 5906,
      "Stra": 5907,
      "Top": 5908,
      "Tiny": 5909,
      "Val": 5910,
      "Vel": 5911,
      "Viv": 5912,
      "Wal": 5913,
      "Washing": 5914,
      "Women": 5915,
      "WATCH": 5916,
      "aus": 5917,
      "ault": 5918,
      "bin": 5919,
      "bat": 5920,
      "bent": 5921,
      "bun": 5922,
      "bol": 5923,
      "bber": 5924,
      "bang": 5925,
      "bull": 5926,
      "boot": 5927,
      "bility": 5928,
      "cro": 5929,
      "cook": 5930,
      "cist": 5931,
      "cold": 5932,
      "code": 5933,
      "ek": 5934,
      "eat": 5935,
      "fed": 5936,
      "food": 5937,
      "fish": 5938,
      "fred": 5939,
      "fired": 5940,
      "faces": 5941,
      "flies": 5942,
      "gro": 5943,
      "gess": 5944,
      "gid": 5945,
      "gence": 5946,
      "games": 5947,
      "goof": 5948,
      "gripping": 5949,
      "hr": 5950,
      "hem": 5951,
      "hitting": 5952,
      "hund": 5953,
      "jack": 5954,
      "ki": 5955,
      "lone": 5956,
      "lish": 5957,
      "lud": 5958,
      "larg": 5959,
      "lazy": 5960,
      "nes": 5961,
      "nity": 5962,
      "numbers": 5963,
      "pard": 5964,
      "pile": 5965,
      "pian": 5966,
      "prior": 5967,
      "rol": 5968,
      "rors": 5969,
      "rott": 5970,
      "rics": 5971,
      "ses": 5972,
      "sand": 5973,
      "spr": 5974,
      "same": 5975,
      "sold": 5976,
      "sail": 5977,
      "skill": 5978,
      "skept": 5979,
      "soup": 5980,
      "tour": 5981,
      "uan": 5982,
      "ued": 5983,
      "upt": 5984,
      "ueless": 5985,
      "veter": 5986,
      "vintage": 5987,
      "won": 5988,
      "wack": 5989,
      "wives": 5990,
      "western": 5991,
      "intr": 5992,
      "infamous": 5993,
      "erie": 5994,
      "erry": 5995,
      "ende": 5996,
      "encour": 5997,
      "enstein": 5998,
      "environment": 5999,
      "recall": 6000,
      "reject": 6001,
      "inge": 6002,
      "stro": 6003,
      "stale": 6004,
      "stargate": 6005,
      "stiff": 6006,
      "stridge": 6007,
      "anish": 6008,
      "anitor": 6009,
      "alleg": 6010,
      "album": 6011,
      "alcohol": 6012,
      "eson": 6013,
      "arm": 6014,
      "armed": 6015,
      "org": 6016,
      "outhern": 6017,
      "thumbs": 6018,
      "thugs": 6019,
      "lyrics": 6020,
      "lein": 6021,
      "iling": 6022,
      "ilities": 6023,
      "item": 6024,
      "acation": 6025,
      "acqu": 6026,
      "acles": 6027,
      "seg": 6028,
      "oven": 6029,
      "chain": 6030,
      "chore": 6031,
      "chances": 6032,
      "Thanks": 6033,
      "isy": 6034,
      "iser": 6035,
      "isol": 6036,
      "entic": 6037,
      "ador": 6038,
      "adise": 6039,
      "adjust": 6040,
      "lift": 6041,
      "gham": 6042,
      "assu": 6043,
      "asingly": 6044,
      "evolution": 6045,
      "impris": 6046,
      "imha": 6047,
      "ama": 6048,
      "amond": 6049,
      "uns": 6050,
      "unconvincing": 6051,
      "universe": 6052,
      "unintentional": 6053,
      "rix": 6054,
      "rial": 6055,
      "ologue": 6056,
      "debt": 6057,
      "appl": 6058,
      "opp": 6059,
      "opted": 6060,
      "shape": 6061,
      "emph": 6062,
      "peoples": 6063,
      "pless": 6064,
      "placing": 6065,
      "plaus": 6066,
      "abb": 6067,
      "abo": 6068,
      "abrupt": 6069,
      "dia": 6070,
      "div": 6071,
      "dier": 6072,
      "dire": 6073,
      "vehic": 6074,
      "exter": 6075,
      "experiment": 6076,
      "scar": 6077,
      "beating": 6078,
      "term": 6079,
      "terfly": 6080,
      "usive": 6081,
      "ussy": 6082,
      "maint": 6083,
      "endo": 6084,
      "endous": 6085,
      "conom": 6086,
      "conscious": 6087,
      "eller": 6088,
      "ando": 6089,
      "ands": 6090,
      "andler": 6091,
      "poign": 6092,
      "illing": 6093,
      "illustr": 6094,
      "worn": 6095,
      "worry": 6096,
      "aine": 6097,
      "neigh": 6098,
      "prev": 6099,
      "preachy": 6100,
      "peril": 6101,
      "indie": 6102,
      "occup": 6103,
      "hears": 6104,
      "hearing": 6105,
      "charism": 6106,
      "quarter": 6107,
      "gey": 6108,
      "storytelling": 6109,
      "aven": 6110,
      "pti": 6111,
      "teeth": 6112,
      "cles": 6113,
      "clum": 6114,
      "clock": 6115,
      "clueless": 6116,
      "Anand": 6117,
      "Anna": 6118,
      "iven": 6119,
      "meat": 6120,
      "method": 6121,
      "aken": 6122,
      "spark": 6123,
      "spending": 6124,
      "grou": 6125,
      "aware": 6126,
      "blon": 6127,
      "oblig": 6128,
      "adequ": 6129,
      "nowadays": 6130,
      "lovable": 6131,
      "cringe": 6132,
      "wrapped": 6133,
      "dislike": 6134,
      "disgu": 6135,
      "display": 6136,
      "notes": 6137,
      "notch": 6138,
      "noticed": 6139,
      "string": 6140,
      "struck": 6141,
      "outcome": 6142,
      "outbreak": 6143,
      "everywhere": 6144,
      "overcome": 6145,
      "overrated": 6146,
      "interviews": 6147,
      "Chandler": 6148,
      "Along": 6149,
      "lessons": 6150,
      "asha": 6151,
      "195": 6152,
      "lower": 6153,
      "performing": 6154,
      "izier": 6155,
      "owned": 6156,
      "killers": 6157,
      "mont": 6158,
      "selling": 6159,
      "cheer": 6160,
      "Asian": 6161,
      "steals": 6162,
      "Joey": 6163,
      "buck": 6164,
      "buried": 6165,
      "buffs": 6166,
      "underrated": 6167,
      "produce": 6168,
      "position": 6169,
      "directorial": 6170,
      "Seas": 6171,
      "smo": 6172,
      "supp": 6173,
      "needle": 6174,
      "kinds": 6175,
      "providing": 6176,
      "provocative": 6177,
      "higher": 6178,
      "commun": 6179,
      "community": 6180,
      "farce": 6181,
      "leader": 6182,
      "learning": 6183,
      "subli": 6184,
      "subsequ": 6185,
      "worthwhile": 6186,
      "kidding": 6187,
      "decor": 6188,
      "decade": 6189,
      "restaur": 6190,
      "Leigh": 6191,
      "warn": 6192,
      "anna": 6193,
      "born": 6194,
      "sits": 6195,
      "ondell": 6196,
      "Sheen": 6197,
      "consists": 6198,
      "push": 6199,
      "pushing": 6200,
      "address": 6201,
      "wasting": 6202,
      "graphic": 6203,
      "otted": 6204,
      "keeping": 6205,
      "Unlike": 6206,
      "sidekick": 6207,
      "commended": 6208,
      "Beth": 6209,
      "stops": 6210,
      "join": 6211,
      "Dee": 6212,
      "detr": 6213,
      "emotionally": 6214,
      "missile": 6215,
      "yeti": 6216,
      "Grot": 6217,
      "Spanish": 6218,
      "schem": 6219,
      "stream": 6220,
      "Samuel": 6221,
      "attempted": 6222,
      "walked": 6223,
      "admitted": 6224,
      "silent": 6225,
      "promin": 6226,
      "ARE": 6227,
      "ARK": 6228,
      "Frances": 6229,
      "2008": 6230,
      "Mario": 6231,
      "basis": 6232,
      "morbid": 6233,
      "rapur": 6234,
      "Bergen": 6235,
      "haunting": 6236,
      "painting": 6237,
      "increasingly": 6238,
      "alloween": 6239,
      "stupidity": 6240,
      "complicated": 6241,
      "hopefully": 6242,
      "examples": 6243,
      "legs": 6244,
      "brothers": 6245,
      "spoken": 6246,
      "signals": 6247,
      "Blood": 6248,
      "Blondell": 6249,
      "importance": 6250,
      "identify": 6251,
      "confidence": 6252,
      "critical": 6253,
      "particip": 6254,
      "ikachu": 6255,
      "convince": 6256,
      "femin": 6257,
      "females": 6258,
      "figured": 6259,
      "mett": 6260,
      "metap": 6261,
      "Absolute": 6262,
      "stunt": 6263,
      "fourth": 6264,
      "cliff": 6265,
      "clips": 6266,
      "flawed": 6267,
      "homage": 6268,
      "marks": 6269,
      "existed": 6270,
      "majority": 6271,
      "Actor": 6272,
      "Germany": 6273,
      "Jaffa": 6274,
      "accents": 6275,
      "teenagers": 6276,
      "Nightmare": 6277,
      "jump": 6278,
      "jumping": 6279,
      "cruel": 6280,
      "cruise": 6281,
      "desperately": 6282,
      "explains": 6283,
      "explained": 6284,
      "IEF": 6285,
      "searching": 6286,
      "documentaries": 6287,
      "connect": 6288,
      "contained": 6289,
      "swear": 6290,
      "revealing": 6291,
      "advanced": 6292,
      "occasions": 6293,
      "symbol": 6294,
      "claims": 6295,
      "theatrical": 6296,
      "officers": 6297,
      "professor": 6298,
      "bothered": 6299,
      "burned": 6300,
      "kicking": 6301,
      "respond": 6302,
      "satisf": 6303,
      "Hammer": 6304,
      "Hammett": 6305,
      "Smita": 6306,
      "cartoons": 6307,
      "dinner": 6308,
      "achieved": 6309,
      "Irish": 6310,
      "Barry": 6311,
      "Goodman": 6312,
      "Tommy": 6313,
      "SEE": 6314,
      "boredom": 6315,
      "conversations": 6316,
      "1960": 6317,
      "Corner": 6318,
      "opportun": 6319,
      "Christian": 6320,
      "transp": 6321,
      "occurred": 6322,
      "drags": 6323,
      "dragged": 6324,
      "Harry": 6325,
      "terrorist": 6326,
      "strengths": 6327,
      "briefly": 6328,
      "college": 6329,
      "loaded": 6330,
      "Henstridge": 6331,
      "Prob": 6332,
      "Nevertheless": 6333,
      "baloney": 6334,
      "wedding": 6335,
      "guilt": 6336,
      "belongs": 6337,
      "Liang": 6338,
      "Looking": 6339,
      "resemblance": 6340,
      "trailers": 6341,
      "corruption": 6342,
      "protagonists": 6343,
      "jewel": 6344,
      "enzo": 6345,
      "separate": 6346,
      "department": 6347,
      "exploring": 6348,
      "exploration": 6349,
      "Frankenstein": 6350,
      "investigate": 6351,
      "hanging": 6352,
      "temper": 6353,
      "initially": 6354,
      "Seeing": 6355,
      "Devils": 6356,
      "hatred": 6357,
      "months": 6358,
      "Golden": 6359,
      "Maugham": 6360,
      "cardboard": 6361,
      "required": 6362,
      "revolves": 6363,
      "unfolds": 6364,
      "Julia": 6365,
      "opsis": 6366,
      "establishing": 6367,
      "drinking": 6368,
      "motivation": 6369,
      "repeatedly": 6370,
      "Kathleen": 6371,
      "iasm": 6372,
      "source": 6373,
      "torn": 6374,
      "atrocity": 6375,
      "throat": 6376,
      "scratch": 6377,
      "struggling": 6378,
      "doses": 6379,
      "fabulous": 6380,
      "obsessed": 6381,
      "phenomen": 6382,
      "courtroom": 6383,
      "youthful": 6384,
      "Spoilers": 6385,
      "Genie": 6386,
      "Soldier": 6387,
      "Triad": 6388,
      "tunes": 6389,
      "enthusiasm": 6390,
      "arrested": 6391,
      "shirt": 6392,
      "overwhelming": 6393,
      "functional": 6394,
      "synopsis": 6395,
      "refreshing": 6396,
      "legendary": 6397,
      "broadcast": 6398,
      "multiple": 6399,
      "Ryan": 6400,
      "Trek": 6401,
      "WWII": 6402,
      "ticket": 6403,
      "vaguely": 6404,
      "mansion": 6405,
      "praise": 6406,
      "credibility": 6407,
      "kidnapped": 6408,
      "formulaic": 6409,
      "freedom": 6410,
      "journalist": 6411,
      "Natasha": 6412,
      "cabin": 6413,
      "Brooks": 6414,
      "relevant": 6415,
      "Kendall": 6416,
      "Lois": 6417,
      "Queen": 6418,
      "Screwfly": 6419,
      "horses": 6420,
      "shoddy": 6421,
      "intensity": 6422,
      "awkward": 6423,
      "Begins": 6424,
      "stereotypical": 6425,
      "Amelie": 6426,
      "Humphrey": 6427,
      "Moore": 6428,
      "Malleson": 6429,
      "Mumbai": 6430,
      "Meredith": 6431,
      "Pooja": 6432,
      "Pandey": 6433,
      "Raiders": 6434,
      "Sultan": 6435,
      "Vivien": 6436,
      "Washington": 6437,
      "hundred": 6438,
      "larger": 6439,
      "rotten": 6440,
      "charismatic": 6441,
      "35": 6442,
      "40s": 6443,
      "75": 6444,
      "Au": 6445,
      "Aunt": 6446,
      "ACK": 6447,
      "Awards": 6448,
      "BR": 6449,
      "Bly": 6450,
      "Bart": 6451,
      "Bill": 6452,
      "Bian": 6453,
      "Blan": 6454,
      "BAD": 6455,
      "CI": 6456,
      "Cent": 6457,
      "Cast": 6458,
      "Che": 6459,
      "Camaz": 6460,
      "CON": 6461,
      "Capt": 6462,
      "Citiz": 6463,
      "CGI": 6464,
      "DAD": 6465,
      "Dante": 6466,
      "Dutch": 6467,
      "Dwells": 6468,
      "DARK": 6469,
      "Eyes": 6470,
      "Especially": 6471,
      "Fl": 6472,
      "Ful": 6473,
      "Fass": 6474,
      "Flet": 6475,
      "Free": 6476,
      "Final": 6477,
      "Future": 6478,
      "Flyn": 6479,
      "Fitz": 6480,
      "Fisher": 6481,
      "Gord": 6482,
      "Gra": 6483,
      "Given": 6484,
      "HS": 6485,
      "Hill": 6486,
      "Hour": 6487,
      "Halloween": 6488,
      "IF": 6489,
      "IO": 6490,
      "IP": 6491,
      "Jar": 6492,
      "Jane": 6493,
      "Ko": 6494,
      "Kat": 6495,
      "Know": 6496,
      "Knight": 6497,
      "Low": 6498,
      "Land": 6499,
      "Long": 6500,
      "Lake": 6501,
      "Mom": 6502,
      "Mas": 6503,
      "Mot": 6504,
      "MST": 6505,
      "Miles": 6506,
      "OJ": 6507,
      "OM": 6508,
      "OW": 6509,
      "Osa": 6510,
      "Po": 6511,
      "Pfe": 6512,
      "Pitt": 6513,
      "Pres": 6514,
      "Plan": 6515,
      "Phil": 6516,
      "PBS": 6517,
      "Pikachu": 6518,
      "QU": 6519,
      "RA": 6520,
      "Res": 6521,
      "Rad": 6522,
      "Ray": 6523,
      "Rem": 6524,
      "Reg": 6525,
      "Sim": 6526,
      "Spe": 6527,
      "Sum": 6528,
      "Seven": 6529,
      "Simply": 6530,
      "Solution": 6531,
      "Tem": 6532,
      "Tsu": 6533,
      "Take": 6534,
      "TER": 6535,
      "Ul": 6536,
      "Vish": 6537,
      "Vick": 6538,
      "Varg": 6539,
      "VHS": 6540,
      "Wind": 6541,
      "Were": 6542,
      "Word": 6543,
      "Warren": 6544,
      "Zh": 6545,
      "aa": 6546,
      "ait": 6547,
      "bone": 6548,
      "bast": 6549,
      "bore": 6550,
      "batt": 6551,
      "cig": 6552,
      "cellent": 6553,
      "cali": 6554,
      "candy": 6555,
      "cording": 6556,
      "db": 6557,
      "dish": 6558,
      "econom": 6559,
      "fir": 6560,
      "fist": 6561,
      "gor": 6562,
      "gree": 6563,
      "gimm": 6564,
      "hence": 6565,
      "hired": 6566,
      "ife": 6567,
      "ilet": 6568,
      "iently": 6569,
      "jail": 6570,
      "jury": 6571,
      "kins": 6572,
      "matt": 6573,
      "mode": 6574,
      "nations": 6575,
      "nude": 6576,
      "nails": 6577,
      "natives": 6578,
      "ocean": 6579,
      "poll": 6580,
      "pitch": 6581,
      "rop": 6582,
      "rail": 6583,
      "rank": 6584,
      "root": 6585,
      "ranks": 6586,
      "rows": 6587,
      "sed": 6588,
      "sive": 6589,
      "swell": 6590,
      "sadd": 6591,
      "sends": 6592,
      "sque": 6593,
      "sappy": 6594,
      "skills": 6595,
      "ta": 6596,
      "tanks": 6597,
      "tier": 6598,
      "ush": 6599,
      "uity": 6600,
      "uated": 6601,
      "voc": 6602,
      "ville": 6603,
      "vacation": 6604,
      "vizier": 6605,
      "zy": 6606,
      "infect": 6607,
      "inating": 6608,
      "incar": 6609,
      "inexpl": 6610,
      "incompet": 6611,
      "inlein": 6612,
      "erov": 6613,
      "encies": 6614,
      "reun": 6615,
      "rebel": 6616,
      "reward": 6617,
      "returned": 6618,
      "repair": 6619,
      "oning": 6620,
      "ingo": 6621,
      "ingen": 6622,
      "sto": 6623,
      "stone": 6624,
      "stum": 6625,
      "stated": 6626,
      "aled": 6627,
      "alty": 6628,
      "alike": 6629,
      "eday": 6630,
      "edgy": 6631,
      "oured": 6632,
      "thel": 6633,
      "thick": 6634,
      "those": 6635,
      "thentic": 6636,
      "lean": 6637,
      "leep": 6638,
      "leans": 6639,
      "leather": 6640,
      "itic": 6641,
      "itors": 6642,
      "ache": 6643,
      "access": 6644,
      "sea": 6645,
      "icy": 6646,
      "icrous": 6647,
      "ching": 6648,
      "chief": 6649,
      "chuck": 6650,
      "chasing": 6651,
      "Things": 6652,
      "Third": 6653,
      "isis": 6654,
      "isco": 6655,
      "eling": 6656,
      "elder": 6657,
      "elhead": 6658,
      "entit": 6659,
      "ads": 6660,
      "adul": 6661,
      "lian": 6662,
      "libr": 6663,
      "lips": 6664,
      "owder": 6665,
      "actic": 6666,
      "evo": 6667,
      "otz": 6668,
      "ette": 6669,
      "imit": 6670,
      "imdb": 6671,
      "ambig": 6672,
      "keen": 6673,
      "uninspired": 6674,
      "univers": 6675,
      "uncomfortable": 6676,
      "unintentionally": 6677,
      "olph": 6678,
      "oldest": 6679,
      "decess": 6680,
      "demand": 6681,
      "opath": 6682,
      "uloid": 6683,
      "shiny": 6684,
      "pec": 6685,
      "abor": 6686,
      "aband": 6687,
      "abdu": 6688,
      "ables": 6689,
      "irs": 6690,
      "divers": 6691,
      "diamond": 6692,
      "exas": 6693,
      "excru": 6694,
      "exceed": 6695,
      "exagger": 6696,
      "been": 6697,
      "bears": 6698,
      "bearing": 6699,
      "roy": 6700,
      "manu": 6701,
      "trade": 6702,
      "idently": 6703,
      "usch": 6704,
      "fears": 6705,
      "endless": 6706,
      "conqu": 6707,
      "confront": 6708,
      "ello": 6709,
      "ellar": 6710,
      "artic": 6711,
      "artists": 6712,
      "artific": 6713,
      "poetic": 6714,
      "illa": 6715,
      "ains": 6716,
      "prepar": 6717,
      "predecess": 6718,
      "getic": 6719,
      "heap": 6720,
      "ister": 6721,
      "ques": 6722,
      "quis": 6723,
      "quote": 6724,
      "ively": 6725,
      "pray": 6726,
      "seeking": 6727,
      "ptic": 6728,
      "authentic": 6729,
      "teams": 6730,
      "club": 6731,
      "cliche": 6732,
      "mech": 6733,
      "aka": 6734,
      "aky": 6735,
      "scenar": 6736,
      "spite": 6737,
      "spends": 6738,
      "spital": 6739,
      "gritty": 6740,
      "blond": 6741,
      "pleased": 6742,
      "mental": 6743,
      "mentally": 6744,
      "crying": 6745,
      "crisis": 6746,
      "wrinkle": 6747,
      "disgrace": 6748,
      "dismember": 6749,
      "stranger": 6750,
      "assy": 6751,
      "udo": 6752,
      "uding": 6753,
      "ciating": 6754,
      "directly": 6755,
      "outdated": 6756,
      "realizing": 6757,
      "bris": 6758,
      "Stu": 6759,
      "Starring": 6760,
      "flop": 6761,
      "flour": 6762,
      "partly": 6763,
      "interaction": 6764,
      "international": 6765,
      "internet": 6766,
      "Alfred": 6767,
      "merits": 6768,
      "betwe": 6769,
      "icted": 6770,
      "viewed": 6771,
      "angers": 6772,
      "angles": 6773,
      "web": 6774,
      "truck": 6775,
      "101": 6776,
      "mini": 6777,
      "minus": 6778,
      "1950": 6779,
      "Heaven": 6780,
      "Heinlein": 6781,
      "azed": 6782,
      "rush": 6783,
      "rushed": 6784,
      "rukh": 6785,
      "desp": 6786,
      "desired": 6787,
      "toss": 6788,
      "toilet": 6789,
      "ift": 6790,
      "noise": 6791,
      "athom": 6792,
      "athers": 6793,
      "---": 6794,
      "insulting": 6795,
      "scream": 6796,
      "happily": 6797,
      "reek": 6798,
      "phr": 6799,
      "phan": 6800,
      "Aside": 6801,
      "bitch": 6802,
      "stealing": 6803,
      "compar": 6804,
      "compli": 6805,
      "resolution": 6806,
      "relate": 6807,
      "relax": 6808,
      "THIEF": 6809,
      "doing": 6810,
      "ception": 6811,
      "Whatever": 6812,
      "helpless": 6813,
      "hardcore": 6814,
      "appealing": 6815,
      "carries": 6816,
      "Short": 6817,
      "ignore": 6818,
      "ignored": 6819,
      "explos": 6820,
      "afford": 6821,
      "coach": 6822,
      "decades": 6823,
      "handling": 6824,
      "visually": 6825,
      "visible": 6826,
      "visited": 6827,
      "cutting": 6828,
      "venture": 6829,
      "pressure": 6830,
      "borrows": 6831,
      "fron": 6832,
      "frag": 6833,
      "jobs": 6834,
      "reviewing": 6835,
      "Forget": 6836,
      "Shep": 6837,
      "topless": 6838,
      "olling": 6839,
      "solve": 6840,
      "adding": 6841,
      "Brown": 6842,
      "Brando": 6843,
      "Browder": 6844,
      "liners": 6845,
      "mainstream": 6846,
      "heading": 6847,
      "lacked": 6848,
      "Jackie": 6849,
      "definitive": 6850,
      "creativity": 6851,
      "covered": 6852,
      "Under": 6853,
      "Attack": 6854,
      "ANY": 6855,
      "Noon": 6856,
      "naive": 6857,
      "colours": 6858,
      "raiser": 6859,
      "dramat": 6860,
      "starred": 6861,
      "eleg": 6862,
      "elev": 6863,
      "elephant": 6864,
      "menace": 6865,
      "menacing": 6866,
      "imagery": 6867,
      "Deed": 6868,
      "detect": 6869,
      "corny": 6870,
      "corner": 6871,
      "NOTHING": 6872,
      "heroic": 6873,
      "superbly": 6874,
      "distinct": 6875,
      "Grant": 6876,
      "ugly": 6877,
      "schlock": 6878,
      "located": 6879,
      "suspic": 6880,
      "exceptions": 6881,
      "walks": 6882,
      "portraying": 6883,
      "storm": 6884,
      "contrary": 6885,
      "thrilling": 6886,
      "Franc": 6887,
      "failure": 6888,
      "downtown": 6889,
      "sadness": 6890,
      "2002": 6891,
      "desert": 6892,
      "morality": 6893,
      "uries": 6894,
      "spirited": 6895,
      "believably": 6896,
      "supposedly": 6897,
      "lands": 6898,
      "publicity": 6899,
      "transform": 6900,
      "surprising": 6901,
      "surprises": 6902,
      "Howard": 6903,
      "Excellent": 6904,
      "Scot": 6905,
      "broke": 6906,
      "signed": 6907,
      "typically": 6908,
      "namely": 6909,
      "fairy": 6910,
      "Charact": 6911,
      "holding": 6912,
      "sumpt": 6913,
      "Really": 6914,
      "Rebec": 6915,
      "Recommended": 6916,
      "cultures": 6917,
      "ficial": 6918,
      "hoped": 6919,
      "psycho": 6920,
      "Connor": 6921,
      "sky": 6922,
      "sket": 6923,
      "uttering": 6924,
      "introduces": 6925,
      "dialogs": 6926,
      "END": 6927,
      "deadly": 6928,
      "annoyed": 6929,
      "traitor": 6930,
      "precise": 6931,
      "heaven": 6932,
      "REAL": 6933,
      "spoiled": 6934,
      "musicals": 6935,
      "Clark": 6936,
      "Duke": 6937,
      "Dukes": 6938,
      "sleazy": 6939,
      "scores": 6940,
      "Drag": 6941,
      "jumps": 6942,
      "amongst": 6943,
      "appreciated": 6944,
      "crush": 6945,
      "descript": 6946,
      "draws": 6947,
      "drawback": 6948,
      "payoff": 6949,
      "acceptable": 6950,
      "gorehound": 6951,
      "advance": 6952,
      "MOST": 6953,
      "millenn": 6954,
      "sympathy": 6955,
      "memories": 6956,
      "clichéd": 6957,
      "Hellraiser": 6958,
      "judge": 6959,
      "beaten": 6960,
      "concert": 6961,
      "concerns": 6962,
      "earthqu": 6963,
      "Plato": 6964,
      "returning": 6965,
      "depiction": 6966,
      "profession": 6967,
      "repeat": 6968,
      "repeating": 6969,
      "mixture": 6970,
      "combination": 6971,
      "recording": 6972,
      "Hayter": 6973,
      "Music": 6974,
      "Patil": 6975,
      "knife": 6976,
      "males": 6977,
      "dropping": 6978,
      "beliefs": 6979,
      "masses": 6980,
      "massac": 6981,
      "qualifies": 6982,
      "twisted": 6983,
      "randomly": 6984,
      "Calv": 6985,
      "Corbin": 6986,
      "Sands": 6987,
      "matched": 6988,
      "steps": 6989,
      "riveting": 6990,
      "spiritual": 6991,
      "recognition": 6992,
      "culmin": 6993,
      "arrives": 6994,
      "occurs": 6995,
      "primarily": 6996,
      "According": 6997,
      "Monk": 6998,
      "Sadashiv": 6999,
      "dollar": 7000,
      "defend": 7001,
      "previously": 7002,
      "colorful": 7003,
      "references": 7004,
      "Amrapur": 7005,
      "consistent": 7006,
      "balance": 7007,
      "improved": 7008,
      "improvement": 7009,
      "survivors": 7010,
      "criticism": 7011,
      "criticisms": 7012,
      "extraordinary": 7013,
      "crafted": 7014,
      "Keith": 7015,
      "True": 7016,
      "dedicated": 7017,
      "gentle": 7018,
      "pseudo": 7019,
      "departure": 7020,
      "surrounded": 7021,
      "physical": 7022,
      "Burgess": 7023,
      "Yashraj": 7024,
      "celluloid": 7025,
      "gambling": 7026,
      "habits": 7027,
      "penet": 7028,
      "Redd": 7029,
      "Seriously": 7030,
      "calm": 7031,
      "operatic": 7032,
      "melodramatic": 7033,
      "Hugh": 7034,
      "Karl": 7035,
      "soldier": 7036,
      "individuals": 7037,
      "intrigued": 7038,
      "dominated": 7039,
      "facial": 7040,
      "garden": 7041,
      "CRY": 7042,
      "Oliver": 7043,
      "Vanishing": 7044,
      "hooked": 7045,
      "jerk": 7046,
      "loos": 7047,
      "atrocities": 7048,
      "chopped": 7049,
      "closer": 7050,
      "Roger": 7051,
      "Rogers": 7052,
      "mildly": 7053,
      "characteristics": 7054,
      "glasses": 7055,
      "warmth": 7056,
      "anticipation": 7057,
      "determined": 7058,
      "alternate": 7059,
      "circum": 7060,
      "criminals": 7061,
      "breathtaking": 7062,
      "Murder": 7063,
      "oriented": 7064,
      "grainy": 7065,
      "puzzled": 7066,
      "Lucile": 7067,
      "freaks": 7068,
      "SPOILER": 7069,
      "African": 7070,
      "Brien": 7071,
      "Brothers": 7072,
      "HAVE": 7073,
      "Harrison": 7074,
      "S2T": 7075,
      "Towelhead": 7076,
      "rabbits": 7077,
      "ingredients": 7078,
      "indulgent": 7079,
      "clunky": 7080,
      "weapons": 7081,
      "dozen": 7082,
      "imaginative": 7083,
      "guarantee": 7084,
      "outrageous": 7085,
      "Kudos": 7086,
      "Okay": 7087,
      "Sorry": 7088,
      "WAY": 7089,
      "advertising": 7090,
      "depressing": 7091,
      "emerges": 7092,
      "built": 7093,
      "luxury": 7094,
      "magnificent": 7095,
      "Cinema": 7096,
      "Besides": 7097,
      "Cassie": 7098,
      "Claudia": 7099,
      "Dawson": 7100,
      "Lazerov": 7101,
      "Majors": 7102,
      "Personally": 7103,
      "benef": 7104,
      "binder": 7105,
      "dysfunctional": 7106,
      "hidden": 7107,
      "mountain": 7108,
      "nostalgia": 7109,
      "vulner": 7110,
      "stomach": 7111,
      "irritating": 7112,
      "forgiveness": 7113,
      "prostitute": 7114,
      "behavior": 7115,
      "techniques": 7116,
      "Furthermore": 7117,
      "BAGDAD": 7118,
      "Dominion": 7119,
      "Hyde": 7120,
      "Naras": 7121,
      "Pollack": 7122,
      "Singh": 7123,
      "Strauss": 7124,
      "ludicrous": 7125,
      "piano": 7126,
      "veteran": 7127,
      "wacky": 7128,
      "alleged": 7129,
      "vehicle": 7130,
      "poignant": 7131,
      "neighbor": 7132,
      "groups": 7133,
      "blonde": 7134,
      "sublime": 7135,
      "Deepti": 7136,
      "prominent": 7137,
      "metaphor": 7138,
      "Absolutely": 7139,
      "Probably": 7140,
      "Blyth": 7141,
      "CIA": 7142,
      "Camazotz": 7143,
      "Citizen": 7144,
      "Fulci": 7145,
      "Fassbinder": 7146,
      "Fletcher": 7147,
      "Flynn": 7148,
      "Gordon": 7149,
      "Pfeiffer": 7150,
      "Remember": 7151,
      "Ulli": 7152,
      "Vishal": 7153,
      "Vicki": 7154,
      "Vargas": 7155,
      "bastard": 7156,
      "gimmick": 7157,
      "matters": 7158,
      "elderly": 7159,
      "library": 7160,
      "excruciating": 7161,
      "between": 7162,
      "Rebecca": 7163,
      "\";": 7164,
      "-)": 7165,
      "22": 7166,
      "4th": 7167,
      "85": 7168,
      "AF": 7169,
      "AK": 7170,
      "AV": 7171,
      "Aw": 7172,
      "Aby": 7173,
      "Audi": 7174,
      "BL": 7175,
      "Bal": 7176,
      "Bow": 7177,
      "Bible": 7178,
      "Bates": 7179,
      "Brid": 7180,
      "Bird": 7181,
      "BAT": 7182,
      "Baby": 7183,
      "Burt": 7184,
      "BIG": 7185,
      "BUT": 7186,
      "Cam": 7187,
      "Could": 7188,
      "Creat": 7189,
      "Come": 7190,
      "Cary": 7191,
      "CAN": 7192,
      "Crap": 7193,
      "Cont": 7194,
      "Cox": 7195,
      "Cec": 7196,
      "Check": 7197,
      "Camp": 7198,
      "Dir": 7199,
      "Dob": 7200,
      "Down": 7201,
      "Dull": 7202,
      "EX": 7203,
      "Ever": 7204,
      "Egy": 7205,
      "Eye": 7206,
      "Euro": 7207,
      "Fu": 7208,
      "Fam": 7209,
      "Fans": 7210,
      "Fair": 7211,
      "Follow": 7212,
      "Get": 7213,
      "Girl": 7214,
      "GET": 7215,
      "Glor": 7216,
      "Ho": 7217,
      "Hall": 7218,
      "Home": 7219,
      "Have": 7220,
      "Hung": 7221,
      "Hills": 7222,
      "Hogg": 7223,
      "Ish": 7224,
      "Ira": 7225,
      "Isl": 7226,
      "JJ": 7227,
      "JU": 7228,
      "Jose": 7229,
      "Jagger": 7230,
      "Les": 7231,
      "Lat": 7232,
      "Lad": 7233,
      "Let": 7234,
      "Live": 7235,
      "Liz": 7236,
      "Larry": 7237,
      "Min": 7238,
      "Moon": 7239,
      "NY": 7240,
      "Numbers": 7241,
      "OT": 7242,
      "Oz": 7243,
      "Our": 7244,
      "Off": 7245,
      "Pil": 7246,
      "Pur": 7247,
      "Pict": 7248,
      "Pho": 7249,
      "Psych": 7250,
      "RK": 7251,
      "Ren": 7252,
      "Rol": 7253,
      "Rand": 7254,
      "Rum": 7255,
      "Rod": 7256,
      "Round": 7257,
      "Rage": 7258,
      "Roth": 7259,
      "RAT": 7260,
      "Rai": 7261,
      "SI": 7262,
      "Sil": 7263,
      "Say": 7264,
      "Sally": 7265,
      "Sir": 7266,
      "Sever": 7267,
      "Sup": 7268,
      "Spoor": 7269,
      "Satur": 7270,
      "SRK": 7271,
      "Tak": 7272,
      "Today": 7273,
      "TIT": 7274,
      "Tony": 7275,
      "TION": 7276,
      "UL": 7277,
      "Vis": 7278,
      "Vart": 7279,
      "Whe": 7280,
      "WAS": 7281,
      "Xu": 7282,
      "Year": 7283,
      "Zhu": 7284,
      "Zero": 7285,
      "ais": 7286,
      "aire": 7287,
      "bie": 7288,
      "bite": 7289,
      "bold": 7290,
      "bust": 7291,
      "brid": 7292,
      "bench": 7293,
      "cable": 7294,
      "cake": 7295,
      "cash": 7296,
      "cased": 7297,
      "cism": 7298,
      "cried": 7299,
      "covers": 7300,
      "cries": 7301,
      "caval": 7302,
      "dh": 7303,
      "dj": 7304,
      "dess": 7305,
      "dell": 7306,
      "dare": 7307,
      "dash": 7308,
      "dazz": 7309,
      "ead": 7310,
      "eating": 7311,
      "effic": 7312,
      "echo": 7313,
      "fet": 7314,
      "fur": 7315,
      "fame": 7316,
      "gs": 7317,
      "goo": 7318,
      "ht": 7319,
      "harr": 7320,
      "hates": 7321,
      "hunt": 7322,
      "hiding": 7323,
      "ikes": 7324,
      "jet": 7325,
      "jaw": 7326,
      "jaded": 7327,
      "kne": 7328,
      "kiss": 7329,
      "lav": 7330,
      "loy": 7331,
      "laid": 7332,
      "lately": 7333,
      "mic": 7334,
      "mary": 7335,
      "mund": 7336,
      "nn": 7337,
      "nit": 7338,
      "nick": 7339,
      "nail": 7340,
      "nons": 7341,
      "nobody": 7342,
      "oes": 7343,
      "oom": 7344,
      "obe": 7345,
      "pom": 7346,
      "pant": 7347,
      "pies": 7348,
      "pover": 7349,
      "panic": 7350,
      "pals": 7351,
      "pages": 7352,
      "pays": 7353,
      "private": 7354,
      "rar": 7355,
      "rie": 7356,
      "ray": 7357,
      "rack": 7358,
      "rook": 7359,
      "ratic": 7360,
      "rural": 7361,
      "sin": 7362,
      "sen": 7363,
      "sill": 7364,
      "simp": 7365,
      "sword": 7366,
      "saves": 7367,
      "tag": 7368,
      "till": 7369,
      "tong": 7370,
      "tame": 7371,
      "tree": 7372,
      "taught": 7373,
      "tons": 7374,
      "tremors": 7375,
      "tiny": 7376,
      "tape": 7377,
      "vous": 7378,
      "vig": 7379,
      "voted": 7380,
      "wo": 7381,
      "wis": 7382,
      "wake": 7383,
      "wash": 7384,
      "wary": 7385,
      "wins": 7386,
      "wicked": 7387,
      "xen": 7388,
      "youn": 7389,
      "inform": 7390,
      "infant": 7391,
      "infel": 7392,
      "inflict": 7393,
      "inhabit": 7394,
      "invisible": 7395,
      "endid": 7396,
      "restr": 7397,
      "revers": 7398,
      "replace": 7399,
      "revel": 7400,
      "replic": 7401,
      "represents": 7402,
      "onse": 7403,
      "onically": 7404,
      "inger": 7405,
      "static": 7406,
      "stitch": 7407,
      "anity": 7408,
      "ancy": 7409,
      "alph": 7410,
      "alking": 7411,
      "esh": 7412,
      "esis": 7413,
      "arist": 7414,
      "arrog": 7415,
      "aters": 7416,
      "thy": 7417,
      "thal": 7418,
      "thri": 7419,
      "thir": 7420,
      "thru": 7421,
      "lection": 7422,
      "iled": 7423,
      "itre": 7424,
      "itan": 7425,
      "itut": 7426,
      "acies": 7427,
      "account": 7428,
      "accompan": 7429,
      "secre": 7430,
      "secut": 7431,
      "seats": 7432,
      "icit": 7433,
      "oves": 7434,
      "ovative": 7435,
      "choo": 7436,
      "chased": 7437,
      "choose": 7438,
      "chilling": 7439,
      "Ther": 7440,
      "elve": 7441,
      "advers": 7442,
      "adopted": 7443,
      "liking": 7444,
      "owes": 7445,
      "asies": 7446,
      "asures": 7447,
      "asleep": 7448,
      "otal": 7449,
      "otes": 7450,
      "otion": 7451,
      "ety": 7452,
      "eties": 7453,
      "etty": 7454,
      "improb": 7455,
      "filling": 7456,
      "filler": 7457,
      "fills": 7458,
      "unle": 7459,
      "undance": 7460,
      "unsuspect": 7461,
      "rig": 7462,
      "rier": 7463,
      "ripo": 7464,
      "river": 7465,
      "rival": 7466,
      "olong": 7467,
      "dean": 7468,
      "deman": 7469,
      "deck": 7470,
      "demented": 7471,
      "degree": 7472,
      "approved": 7473,
      "opra": 7474,
      "cture": 7475,
      "ulation": 7476,
      "ultra": 7477,
      "shi": 7478,
      "shel": 7479,
      "shine": 7480,
      "shark": 7481,
      "shatter": 7482,
      "shouting": 7483,
      "shorter": 7484,
      "comical": 7485,
      "composed": 7486,
      "emed": 7487,
      "ements": 7488,
      "util": 7489,
      "pled": 7490,
      "plat": 7491,
      "plac": 7492,
      "planned": 7493,
      "absor": 7494,
      "aboids": 7495,
      "abundance": 7496,
      "superi": 7497,
      "irr": 7498,
      "irony": 7499,
      "dise": 7500,
      "veget": 7501,
      "exer": 7502,
      "exor": 7503,
      "exquis": 7504,
      "agues": 7505,
      "aggy": 7506,
      "scale": 7507,
      "scope": 7508,
      "scored": 7509,
      "beach": 7510,
      "rod": 7511,
      "termin": 7512,
      "manip": 7513,
      "trau": 7514,
      "trave": 7515,
      "urbed": 7516,
      "esses": 7517,
      "users": 7518,
      "maj": 7519,
      "mares": 7520,
      "fee": 7521,
      "conn": 7522,
      "concent": 7523,
      "contest": 7524,
      "conscience": 7525,
      "antage": 7526,
      "antial": 7527,
      "ooding": 7528,
      "artsy": 7529,
      "aston": 7530,
      "poet": 7531,
      "ounces": 7532,
      "forgiving": 7533,
      "worm": 7534,
      "nest": 7535,
      "prevent": 7536,
      "previews": 7537,
      "preposter": 7538,
      "oused": 7539,
      "perm": 7540,
      "percent": 7541,
      "allment": 7542,
      "timed": 7543,
      "ooky": 7544,
      "ocaust": 7545,
      "pron": 7546,
      "proof": 7547,
      "prolong": 7548,
      "goal": 7549,
      "umbo": 7550,
      "seeks": 7551,
      "derang": 7552,
      "avo": 7553,
      "avy": 7554,
      "watches": 7555,
      "musc": 7556,
      "intro": 7557,
      "whining": 7558,
      "clue": 7559,
      "areas": 7560,
      "itecture": 7561,
      "Anim": 7562,
      "ivated": 7563,
      "ivals": 7564,
      "...\"": 7565,
      "mega": 7566,
      "guard": 7567,
      "spoof": 7568,
      "grav": 7569,
      "grues": 7570,
      "ineer": 7571,
      "awa": 7572,
      "showdown": 7573,
      "orted": 7574,
      "blend": 7575,
      "blank": 7576,
      "blanks": 7577,
      "bloss": 7578,
      "estic": 7579,
      "ideal": 7580,
      "object": 7581,
      "crud": 7582,
      "crash": 7583,
      "crude": 7584,
      "crimes": 7585,
      "wrap": 7586,
      "disco": 7587,
      "disliked": 7588,
      "disrespect": 7589,
      "disappeared": 7590,
      "notably": 7591,
      "strate": 7592,
      "straw": 7593,
      "assed": 7594,
      "assist": 7595,
      "assass": 7596,
      "assault": 7597,
      "udes": 7598,
      "cise": 7599,
      "twelve": 7600,
      "somebody": 7601,
      "greatly": 7602,
      "everyday": 7603,
      "everybody": 7604,
      "realities": 7605,
      "overkill": 7606,
      "overlooked": 7607,
      "brand": 7608,
      "brave": 7609,
      "Stan": 7610,
      "Storm": 7611,
      "makeup": 7612,
      "flo": 7613,
      "partners": 7614,
      "interior": 7615,
      "Chopra": 7616,
      "akest": 7617,
      "angels": 7618,
      "angered": 7619,
      "ilyn": 7620,
      "ashamed": 7621,
      "belt": 7622,
      "lifestyle": 7623,
      "weyes": 7624,
      "weakest": 7625,
      "minim": 7626,
      "Heard": 7627,
      "aze": 7628,
      "reads": 7629,
      "ensed": 7630,
      "ensible": 7631,
      "horny": 7632,
      "thew": 7633,
      "centre": 7634,
      "rule": 7635,
      "rude": 7636,
      "ruins": 7637,
      "attend": 7638,
      "attribut": 7639,
      "token": 7640,
      "ifying": 7641,
      "noir": 7642,
      "offering": 7643,
      "athan": 7644,
      "insist": 7645,
      "rights": 7646,
      "screaming": 7647,
      "imperson": 7648,
      "monk": 7649,
      "monkey": 7650,
      "monitor": 7651,
      "monologue": 7652,
      "sells": 7653,
      "boom": 7654,
      "ankar": 7655,
      "Asgard": 7656,
      "glor": 7657,
      "misleading": 7658,
      "Josh": 7659,
      "bubble": 7660,
      "compass": 7661,
      "screenwriter": 7662,
      "triumph": 7663,
      "resent": 7664,
      "resulting": 7665,
      "relating": 7666,
      "relations": 7667,
      "relatives": 7668,
      "posit": 7669,
      "teller": 7670,
      "Seinfel": 7671,
      "THAN": 7672,
      "smal": 7673,
      "orders": 7674,
      "needless": 7675,
      "worlds": 7676,
      "medical": 7677,
      "paras": 7678,
      "portion": 7679,
      "condition": 7680,
      "caring": 7681,
      "committed": 7682,
      "leaders": 7683,
      "pressed": 7684,
      "audio": 7685,
      "lasted": 7686,
      "reasonable": 7687,
      "classics": 7688,
      "ships": 7689,
      "explore": 7690,
      "courage": 7691,
      "decap": 7692,
      "persons": 7693,
      "contact": 7694,
      "handful": 7695,
      "sured": 7696,
      "Enter": 7697,
      "Enjoy": 7698,
      "capital": 7699,
      "minds": 7700,
      "minded": 7701,
      "frank": 7702,
      "frenz": 7703,
      "useful": 7704,
      "useless": 7705,
      "meanwhile": 7706,
      "tops": 7707,
      "Soon": 7708,
      "butterfly": 7709,
      "engage": 7710,
      "uller": 7711,
      "solution": 7712,
      "purist": 7713,
      "Brad": 7714,
      "countries": 7715,
      "devil": 7716,
      "devast": 7717,
      "devoid": 7718,
      "devoted": 7719,
      "heads": 7720,
      "aneously": 7721,
      "defined": 7722,
      "curse": 7723,
      "creature": 7724,
      "sexes": 7725,
      "sexually": 7726,
      "amazingly": 7727,
      "helping": 7728,
      "withstanding": 7729,
      "commendable": 7730,
      "raised": 7731,
      "hearts": 7732,
      "halfway": 7733,
      "nightmares": 7734,
      "buddies": 7735,
      "buddy": 7736,
      "marries": 7737,
      "imagined": 7738,
      "midst": 7739,
      "vixen": 7740,
      "ologist": 7741,
      "ographer": 7742,
      "Something": 7743,
      "Somehow": 7744,
      "shorts": 7745,
      "daughters": 7746,
      "magaz": 7747,
      "superficial": 7748,
      "distress": 7749,
      "disturbed": 7750,
      "Granted": 7751,
      "Graboids": 7752,
      "Spike": 7753,
      "cycle": 7754,
      "drives": 7755,
      "proport": 7756,
      "bands": 7757,
      "childish": 7758,
      "generate": 7759,
      "portrayals": 7760,
      "contrad": 7761,
      "ORS": 7762,
      "innovative": 7763,
      "promoted": 7764,
      "thrilled": 7765,
      "snob": 7766,
      "wishes": 7767,
      "wished": 7768,
      "2001": 7769,
      "2003": 7770,
      "Ark": 7771,
      "Art": 7772,
      "Armist": 7773,
      "Marilyn": 7774,
      "motives": 7775,
      "hokey": 7776,
      "hospital": 7777,
      "morning": 7778,
      "moronic": 7779,
      "rapid": 7780,
      "animal": 7781,
      "Berns": 7782,
      "predictably": 7783,
      "energetic": 7784,
      "purchase": 7785,
      "purposes": 7786,
      "architecture": 7787,
      "adventur": 7788,
      "cases": 7789,
      "planning": 7790,
      "transition": 7791,
      "legends": 7792,
      "broken": 7793,
      "paths": 7794,
      "signs": 7795,
      "signature": 7796,
      "rooms": 7797,
      "Woods": 7798,
      "technically": 7799,
      "credited": 7800,
      "Columb": 7801,
      "Columbo": 7802,
      "delivering": 7803,
      "iterate": 7804,
      "identity": 7805,
      "queen": 7806,
      "Charity": 7807,
      "tonight": 7808,
      "willed": 7809,
      "confir": 7810,
      "confess": 7811,
      "confusion": 7812,
      "darkness": 7813,
      "pleasantly": 7814,
      "ordered": 7815,
      "gangsters": 7816,
      "depending": 7817,
      "medium": 7818,
      "stunned": 7819,
      "aimed": 7820,
      "tortured": 7821,
      "mastery": 7822,
      "1994": 7823,
      "Horner": 7824,
      "harm": 7825,
      "someday": 7826,
      "existent": 7827,
      "equip": 7828,
      "sweep": 7829,
      "Actors": 7830,
      "Actually": 7831,
      "Actress": 7832,
      "virus": 7833,
      "Class": 7834,
      "Writer": 7835,
      "focused": 7836,
      "mistakes": 7837,
      "installment": 7838,
      "anagh": 7839,
      "discovery": 7840,
      "settings": 7841,
      "protect": 7842,
      "protective": 7843,
      "desperation": 7844,
      "explaining": 7845,
      "Jean": 7846,
      "throws": 7847,
      "catchy": 7848,
      "catches": 7849,
      "literal": 7850,
      "literature": 7851,
      "semi": 7852,
      "checking": 7853,
      "switch": 7854,
      "occasion": 7855,
      "horrifying": 7856,
      "Comp": 7857,
      "Comedy": 7858,
      "Schro": 7859,
      "ungle": 7860,
      "judged": 7861,
      "escapes": 7862,
      "immig": 7863,
      "continuing": 7864,
      "Manor": 7865,
      "pulp": 7866,
      "attacks": 7867,
      "officially": 7868,
      "USA": 7869,
      "burns": 7870,
      "burning": 7871,
      "rett": 7872,
      "uniforms": 7873,
      "grandson": 7874,
      "1987": 7875,
      "backgrounds": 7876,
      "countless": 7877,
      "records": 7878,
      "Daniell": 7879,
      "Better": 7880,
      "Betty": 7881,
      "accurately": 7882,
      "drops": 7883,
      "dropped": 7884,
      "embarrassment": 7885,
      "nominations": 7886,
      "vari": 7887,
      "reaches": 7888,
      "suitable": 7889,
      "expression": 7890,
      "rocket": 7891,
      "exploit": 7892,
      "troubled": 7893,
      "featured": 7894,
      "1968": 7895,
      "subtext": 7896,
      "Matrix": 7897,
      "Matthew": 7898,
      "status": 7899,
      "festivals": 7900,
      "posted": 7901,
      "brutally": 7902,
      "Christians": 7903,
      "effectively": 7904,
      "recognize": 7905,
      "recognized": 7906,
      "Rosc": 7907,
      "masoch": 7908,
      "zzy": 7909,
      "arrive": 7910,
      "arriving": 7911,
      "transc": 7912,
      "vengeance": 7913,
      "suggests": 7914,
      "Does": 7915,
      "Monro": 7916,
      "dolls": 7917,
      "loads": 7918,
      "WHI": 7919,
      "WHY": 7920,
      "WHAT": 7921,
      "biker": 7922,
      "crossing": 7923,
      "fascist": 7924,
      "deeds": 7925,
      "Stealth": 7926,
      "Stewart": 7927,
      "damage": 7928,
      "squad": 7929,
      "lized": 7930,
      "intrigue": 7931,
      "Johnsons": 7932,
      "psychologically": 7933,
      "Believe": 7934,
      "launch": 7935,
      "resembles": 7936,
      "Quite": 7937,
      "Truman": 7938,
      "governess": 7939,
      "golden": 7940,
      "hammer": 7941,
      "mmmm": 7942,
      "growing": 7943,
      "responsibility": 7944,
      "traveling": 7945,
      "Burke": 7946,
      "ROLL": 7947,
      "label": 7948,
      "bullet": 7949,
      "bombing": 7950,
      "birds": 7951,
      "Ashford": 7952,
      "Maupin": 7953,
      "idiot": 7954,
      "muted": 7955,
      "splendid": 7956,
      "inspiration": 7957,
      "remained": 7958,
      "seventh": 7959,
      "unfold": 7960,
      "printed": 7961,
      "highlights": 7962,
      "translation": 7963,
      "walls": 7964,
      "wounds": 7965,
      "thankfully": 7966,
      "debate": 7967,
      "heights": 7968,
      "proceedings": 7969,
      "spectacle": 7970,
      "Paradise": 7971,
      "hideous": 7972,
      "struggle": 7973,
      "boiler": 7974,
      "Bogey": 7975,
      "DuckTales": 7976,
      "fabric": 7977,
      "fooled": 7978,
      "machines": 7979,
      "spread": 7980,
      "option": 7981,
      "shoulder": 7982,
      "distracting": 7983,
      "obsession": 7984,
      "Interiors": 7985,
      "regarding": 7986,
      "Daily": 7987,
      "Daisy": 7988,
      "Haunted": 7989,
      "Hopefully": 7990,
      "Ricky": 7991,
      "Strange": 7992,
      "Upon": 7993,
      "Yeah": 7994,
      "rhyth": 7995,
      "accomplish": 7996,
      "extras": 7997,
      "miserable": 7998,
      "companion": 7999,
      "Shahrukh": 8000,
      "SPOILERS": 8001,
      "Eppes": 8002,
      "Levine": 8003,
      "wartime": 8004,
      "threatened": 8005,
      "performers": 8006,
      "excessive": 8007,
      "electric": 8008,
      "mathematic": 8009,
      "Aishwary": 8010,
      "Lorenzo": 8011,
      "Mexican": 8012,
      "Satya": 8013,
      "bonus": 8014,
      "bathroom": 8015,
      "ambitious": 8016,
      "maiden": 8017,
      "prejudices": 8018,
      "principal": 8019,
      "financial": 8020,
      "Bernard": 8021,
      "patients": 8022,
      "Travers": 8023,
      "philosophy": 8024,
      "Happened": 8025,
      "Kelada": 8026,
      "frightening": 8027,
      "grips": 8028,
      "hungry": 8029,
      "hapless": 8030,
      "nipple": 8031,
      "tremendous": 8032,
      "yuppie": 8033,
      "inherit": 8034,
      "assembly": 8035,
      "unbearable": 8036,
      "closing": 8037,
      "guests": 8038,
      "wizard": 8039,
      "Andrews": 8040,
      "reluctant": 8041,
      "Beauty": 8042,
      "distribution": 8043,
      "ARTET": 8044,
      "SUCKED": 8045,
      "inevitable": 8046,
      "Bottom": 8047,
      "Duncan": 8048,
      "Erwin": 8049,
      "Ferrell": 8050,
      "Gouald": 8051,
      "Gosling": 8052,
      "Honestly": 8053,
      "Mosque": 8054,
      "Pulp": 8055,
      "Possibly": 8056,
      "Screweyes": 8057,
      "Velankar": 8058,
      "skeptical": 8059,
      "uptight": 8060,
      "endearing": 8061,
      "encouraged": 8062,
      "segments": 8063,
      "isolated": 8064,
      "imprisoned": 8065,
      "emphas": 8066,
      "plausible": 8067,
      "aboard": 8068,
      "smoking": 8069,
      "subsequent": 8070,
      "restaurant": 8071,
      "detract": 8072,
      "phenomenon": 8073,
      "August": 8074,
      "Bianlian": 8075,
      "Lowery": 8076,
      "MST3": 8077,
      "QUARTET": 8078,
      "Temple": 8079,
      "entitled": 8080,
      "adulter": 8081,
      "ambiguous": 8082,
      "diversity": 8083,
      "artificial": 8084,
      "mechanic": 8085,
      "brisk": 8086,
      "despicable": 8087,
      "phrase": 8088,
      "compliment": 8089,
      "Francisco": 8090,
      "sketch": 8091,
      "description": 8092,
      "millennium": 8093,
      "Calvin": 8094,
      "Amrapurkar": 8095,
      "Karloff": 8096,
      "circumst": 8097,
      "Narasimha": 8098,
      "neighborhood": 8099,
      "Egypt": 8100,
      "Gloria": 8101,
      "Several": 8102,
      "Spoorloos": 8103,
      "Saturday": 8104,
      "TITAN": 8105,
      "Vartan": 8106,
      "cavalry": 8107,
      "djinn": 8108,
      "pomp": 8109,
      "poverty": 8110,
      "silliness": 8111,
      "youngest": 8112,
      "secrets": 8113,
      "improbable": 8114,
      "demanding": 8115,
      "exquisite": 8116,
      "trauma": 8117,
      "travesty": 8118,
      "preposterous": 8119,
      "deranged": 8120,
      "gruesome": 8121,
      "Seinfeld": 8122,
      "Armistead": 8123,
      "Bernsen": 8124,
      "Aishwarya": 8125,
      "23": 8126,
      "47": 8127,
      "95": 8128,
      "99": 8129,
      "Ace": 8130,
      "Apo": 8131,
      "Ass": 8132,
      "Abo": 8133,
      "ACT": 8134,
      "BI": 8135,
      "Bon": 8136,
      "Bab": 8137,
      "Band": 8138,
      "Book": 8139,
      "Bry": 8140,
      "Buse": 8141,
      "Boll": 8142,
      "Body": 8143,
      "BIN": 8144,
      "Buff": 8145,
      "Bride": 8146,
      "BAB": 8147,
      "CD": 8148,
      "CM": 8149,
      "Ca": 8150,
      "Cu": 8151,
      "Cat": 8152,
      "Cur": 8153,
      "Cour": 8154,
      "Certain": 8155,
      "Cue": 8156,
      "Cra": 8157,
      "CAR": 8158,
      "Cesar": 8159,
      "COM": 8160,
      "Creek": 8161,
      "DC": 8162,
      "DR": 8163,
      "Dash": 8164,
      "Dian": 8165,
      "Eat": 8166,
      "Eve": 8167,
      "Each": 8168,
      "Elect": 8169,
      "Eric": 8170,
      "Fin": 8171,
      "Fas": 8172,
      "Fort": 8173,
      "Field": 8174,
      "FIC": 8175,
      "Gy": 8176,
      "Gone": 8177,
      "Gover": 8178,
      "GOO": 8179,
      "HK": 8180,
      "Hel": 8181,
      "Hop": 8182,
      "Hur": 8183,
      "Hood": 8184,
      "Hart": 8185,
      "Hist": 8186,
      "Host": 8187,
      "HER": 8188,
      "HIM": 8189,
      "Hazz": 8190,
      "IQ": 8191,
      "ITH": 8192,
      "IER": 8193,
      "Imag": 8194,
      "Jay": 8195,
      "Job": 8196,
      "Ki": 8197,
      "Krist": 8198,
      "Kirk": 8199,
      "Killer": 8200,
      "Lak": 8201,
      "Lear": 8202,
      "Lud": 8203,
      "Los": 8204,
      "Later": 8205,
      "Liar": 8206,
      "Living": 8207,
      "Men": 8208,
      "Mill": 8209,
      "Mort": 8210,
      "Mark": 8211,
      "MIN": 8212,
      "MIS": 8213,
      "Mills": 8214,
      "Making": 8215,
      "NC": 8216,
      "NUM": 8217,
      "NUT": 8218,
      "NEVER": 8219,
      "Nurse": 8220,
      "OB": 8221,
      "OY": 8222,
      "Ot": 8223,
      "PD": 8224,
      "PG": 8225,
      "PR": 8226,
      "PS": 8227,
      "Pu": 8228,
      "Pv": 8229,
      "Pac": 8230,
      "Pot": 8231,
      "Penn": 8232,
      "Pax": 8233,
      "Phot": 8234,
      "PLE": 8235,
      "Pret": 8236,
      "PET": 8237,
      "Panagh": 8238,
      "Rent": 8239,
      "Run": 8240,
      "Rus": 8241,
      "Rhe": 8242,
      "Rating": 8243,
      "Rather": 8244,
      "Rings": 8245,
      "Renn": 8246,
      "Rudd": 8247,
      "Ringo": 8248,
      "SS": 8249,
      "Sk": 8250,
      "Sov": 8251,
      "Set": 8252,
      "Sri": 8253,
      "Ster": 8254,
      "Sur": 8255,
      "Sous": 8256,
      "Sher": 8257,
      "Side": 8258,
      "Sich": 8259,
      "Soul": 8260,
      "Sky": 8261,
      "Selle": 8262,
      "Sara": 8263,
      "Southern": 8264,
      "Tor": 8265,
      "Tam": 8266,
      "Tol": 8267,
      "Try": 8268,
      "TRE": 8269,
      "Texas": 8270,
      "Ut": 8271,
      "View": 8272,
      "Would": 8273,
      "Wiz": 8274,
      "WIN": 8275,
      "WAL": 8276,
      "Walter": 8277,
      "WITH": 8278,
      "Zane": 8279,
      "ae": 8280,
      "aired": 8281,
      "bot": 8282,
      "boun": 8283,
      "bars": 8284,
      "bos": 8285,
      "bby": 8286,
      "bbed": 8287,
      "bride": 8288,
      "bene": 8289,
      "cé": 8290,
      "cen": 8291,
      "cri": 8292,
      "cure": 8293,
      "cage": 8294,
      "cave": 8295,
      "caf": 8296,
      "ds": 8297,
      "dar": 8298,
      "dent": 8299,
      "dope": 8300,
      "daring": 8301,
      "dashing": 8302,
      "eur": 8303,
      "egr": 8304,
      "ease": 8305,
      "eager": 8306,
      "fever": 8307,
      "fod": 8308,
      "fade": 8309,
      "fated": 8310,
      "ffect": 8311,
      "fian": 8312,
      "fitting": 8313,
      "foul": 8314,
      "facing": 8315,
      "fades": 8316,
      "gn": 8317,
      "gate": 8318,
      "gather": 8319,
      "goose": 8320,
      "hh": 8321,
      "hs": 8322,
      "hall": 8323,
      "hick": 8324,
      "haz": 8325,
      "hunk": 8326,
      "hanger": 8327,
      "hung": 8328,
      "hills": 8329,
      "haust": 8330,
      "iable": 8331,
      "iere": 8332,
      "iating": 8333,
      "ihil": 8334,
      "jun": 8335,
      "jazz": 8336,
      "jungle": 8337,
      "kater": 8338,
      "kareena": 8339,
      "lap": 8340,
      "lace": 8341,
      "lake": 8342,
      "lays": 8343,
      "laces": 8344,
      "mim": 8345,
      "mers": 8346,
      "mate": 8347,
      "mpt": 8348,
      "mble": 8349,
      "marg": 8350,
      "mask": 8351,
      "muttering": 8352,
      "nie": 8353,
      "nel": 8354,
      "nap": 8355,
      "nause": 8356,
      "nuns": 8357,
      "odies": 8358,
      "pel": 8359,
      "poo": 8360,
      "piv": 8361,
      "pour": 8362,
      "pire": 8363,
      "pip": 8364,
      "plight": 8365,
      "pants": 8366,
      "pride": 8367,
      "pander": 8368,
      "rt": 8369,
      "roo": 8370,
      "ration": 8371,
      "rence": 8372,
      "rants": 8373,
      "racco": 8374,
      "si": 8375,
      "sis": 8376,
      "sne": 8377,
      "sard": 8378,
      "sang": 8379,
      "sigh": 8380,
      "sending": 8381,
      "sought": 8382,
      "sides": 8383,
      "sung": 8384,
      "savage": 8385,
      "soph": 8386,
      "slip": 8387,
      "sassy": 8388,
      "tac": 8389,
      "tie": 8390,
      "tab": 8391,
      "tman": 8392,
      "tid": 8393,
      "tall": 8394,
      "text": 8395,
      "taut": 8396,
      "tempt": 8397,
      "tones": 8398,
      "tax": 8399,
      "turb": 8400,
      "tied": 8401,
      "tube": 8402,
      "ua": 8403,
      "uendo": 8404,
      "va": 8405,
      "vag": 8406,
      "vial": 8407,
      "voting": 8408,
      "ww": 8409,
      "wy": 8410,
      "wig": 8411,
      "wine": 8412,
      "wore": 8413,
      "warr": 8414,
      "wrest": 8415,
      "wrist": 8416,
      "waves": 8417,
      "witty": 8418,
      "woven": 8419,
      "yu": 8420,
      "yester": 8421,
      "ñuel": 8422,
      "inj": 8423,
      "iner": 8424,
      "inous": 8425,
      "intim": 8426,
      "inser": 8427,
      "infin": 8428,
      "incent": 8429,
      "inction": 8430,
      "inconsist": 8431,
      "incompreh": 8432,
      "erun": 8433,
      "erud": 8434,
      "errors": 8435,
      "enthr": 8436,
      "envel": 8437,
      "enorm": 8438,
      "encompass": 8439,
      "reh": 8440,
      "rev": 8441,
      "react": 8442,
      "reform": 8443,
      "reacted": 8444,
      "repet": 8445,
      "relies": 8446,
      "represented": 8447,
      "replacing": 8448,
      "reception": 8449,
      "ingu": 8450,
      "inglish": 8451,
      "ston": 8452,
      "stic": 8453,
      "stam": 8454,
      "stating": 8455,
      "stair": 8456,
      "states": 8457,
      "anx": 8458,
      "anal": 8459,
      "anori": 8460,
      "alle": 8461,
      "alli": 8462,
      "alot": 8463,
      "albe": 8464,
      "aloof": 8465,
      "arcs": 8466,
      "ora": 8467,
      "oria": 8468,
      "eder": 8469,
      "eding": 8470,
      "ata": 8471,
      "atable": 8472,
      "atical": 8473,
      "thed": 8474,
      "thread": 8475,
      "these": 8476,
      "thumb": 8477,
      "lee": 8478,
      "ilia": 8479,
      "illeg": 8480,
      "acious": 8481,
      "acclaimed": 8482,
      "seated": 8483,
      "sevent": 8484,
      "secur": 8485,
      "icing": 8486,
      "ician": 8487,
      "ications": 8488,
      "ovan": 8489,
      "chor": 8490,
      "chat": 8491,
      "chunk": 8492,
      "Thus": 8493,
      "isma": 8494,
      "adopt": 8495,
      "aying": 8496,
      "ionary": 8497,
      "liar": 8498,
      "ooth": 8499,
      "oooo": 8500,
      "ghdad": 8501,
      "owing": 8502,
      "asi": 8503,
      "asher": 8504,
      "asset": 8505,
      "assured": 8506,
      "evident": 8507,
      "evidently": 8508,
      "Theod": 8509,
      "Theater": 8510,
      "ima": 8511,
      "imony": 8512,
      "amy": 8513,
      "amour": 8514,
      "ample": 8515,
      "amused": 8516,
      "uneven": 8517,
      "unoriginal": 8518,
      "uncertain": 8519,
      "unfair": 8520,
      "unsett": 8521,
      "unrav": 8522,
      "unsatisfied": 8523,
      "unaware": 8524,
      "unbelievably": 8525,
      "riz": 8526,
      "ola": 8527,
      "olf": 8528,
      "ols": 8529,
      "olitan": 8530,
      "defe": 8531,
      "delet": 8532,
      "defeat": 8533,
      "degrad": 8534,
      "apy": 8535,
      "apolog": 8536,
      "oped": 8537,
      "opened": 8538,
      "ersburg": 8539,
      "ctions": 8540,
      "ulty": 8541,
      "sha": 8542,
      "shy": 8543,
      "shit": 8544,
      "shell": 8545,
      "shall": 8546,
      "shred": 8547,
      "sharing": 8548,
      "shines": 8549,
      "shaky": 8550,
      "compo": 8551,
      "peak": 8552,
      "plod": 8553,
      "plastic": 8554,
      "abbe": 8555,
      "abulous": 8556,
      "suffic": 8557,
      "ira": 8558,
      "irrelevant": 8559,
      "dilem": 8560,
      "exit": 8561,
      "exposed": 8562,
      "exchange": 8563,
      "expose": 8564,
      "exhaust": 8565,
      "aga": 8566,
      "agement": 8567,
      "aggress": 8568,
      "scow": 8569,
      "scant": 8570,
      "scatter": 8571,
      "scape": 8572,
      "territ": 8573,
      "manager": 8574,
      "trace": 8575,
      "trapped": 8576,
      "ura": 8577,
      "usions": 8578,
      "ussing": 8579,
      "masters": 8580,
      "endur": 8581,
      "confin": 8582,
      "construct": 8583,
      "andering": 8584,
      "arting": 8585,
      "asted": 8586,
      "astly": 8587,
      "poke": 8588,
      "posh": 8589,
      "poison": 8590,
      "illness": 8591,
      "ainsaw": 8592,
      "preced": 8593,
      "ouses": 8594,
      "indic": 8595,
      "timer": 8596,
      "timing": 8597,
      "acking": 8598,
      "acknow": 8599,
      "therapy": 8600,
      "atched": 8601,
      "ocent": 8602,
      "ffle": 8603,
      "ffel": 8604,
      "charge": 8605,
      "charisma": 8606,
      "quir": 8607,
      "quib": 8608,
      "quasi": 8609,
      "fulfilled": 8610,
      "goodness": 8611,
      "igner": 8612,
      "gee": 8613,
      "goss": 8614,
      "ume": 8615,
      "ummy": 8616,
      "prospect": 8617,
      "proclaimed": 8618,
      "mug": 8619,
      "into": 8620,
      "intoler": 8621,
      "integr": 8622,
      "clues": 8623,
      "cluding": 8624,
      "inks": 8625,
      "iveness": 8626,
      "...'": 8627,
      "...(": 8628,
      "aki": 8629,
      "akening": 8630,
      "guards": 8631,
      "spun": 8632,
      "spell": 8633,
      "spont": 8634,
      "spelled": 8635,
      "spotted": 8636,
      "spooky": 8637,
      "ears": 8638,
      "grim": 8639,
      "grave": 8640,
      "grabs": 8641,
      "granted": 8642,
      "grande": 8643,
      "grasp": 8644,
      "awakening": 8645,
      "Whilst": 8646,
      "bless": 8647,
      "bluff": 8648,
      "blockb": 8649,
      "blew": 8650,
      "obtain": 8651,
      "observe": 8652,
      "ishes": 8653,
      "ishly": 8654,
      "orementioned": 8655,
      "wipe": 8656,
      "wiped": 8657,
      "cram": 8658,
      "craw": 8659,
      "disci": 8660,
      "dispos": 8661,
      "discer": 8662,
      "disappears": 8663,
      "notion": 8664,
      "notwithstanding": 8665,
      "Indeed": 8666,
      "serving": 8667,
      "cip": 8668,
      "cient": 8669,
      "directs": 8670,
      "outright": 8671,
      "outfit": 8672,
      "applied": 8673,
      "drum": 8674,
      "overdone": 8675,
      "overbearing": 8676,
      "brick": 8677,
      "brooding": 8678,
      "Sting": 8679,
      "Stone": 8680,
      "Stick": 8681,
      "Stella": 8682,
      "duo": 8683,
      "dust": 8684,
      "dude": 8685,
      "duffel": 8686,
      "anyon": 8687,
      "fled": 8688,
      "flav": 8689,
      "flame": 8690,
      "flown": 8691,
      "flair": 8692,
      "flames": 8693,
      "flesh": 8694,
      "interact": 8695,
      "intertw": 8696,
      "interrupt": 8697,
      "interiors": 8698,
      "Chan": 8699,
      "Chuck": 8700,
      "Channel": 8701,
      "Chronic": 8702,
      "Chainsaw": 8703,
      "Alan": 8704,
      "Altman": 8705,
      "upset": 8706,
      "uplif": 8707,
      "merit": 8708,
      "viewings": 8709,
      "angel": 8710,
      "nevertheless": 8711,
      "ashi": 8712,
      "pointing": 8713,
      "pointed": 8714,
      "creation": 8715,
      "lifeboat": 8716,
      "10th": 8717,
      "mins": 8718,
      "190": 8719,
      "readers": 8720,
      "ensical": 8721,
      "ensions": 8722,
      "their": 8723,
      "rubber": 8724,
      "despair": 8725,
      "designer": 8726,
      "atted": 8727,
      "setup": 8728,
      "cannon": 8729,
      "cancell": 8730,
      "cancel": 8731,
      "ustri": 8732,
      "usters": 8733,
      "letter": 8734,
      "believes": 8735,
      "nose": 8736,
      "tales": 8737,
      "offended": 8738,
      "genies": 8739,
      "inson": 8740,
      "insults": 8741,
      "insanity": 8742,
      "ultaneously": 8743,
      "screens": 8744,
      "castic": 8745,
      "pretensions": 8746,
      "gots": 8747,
      "happiness": 8748,
      "aircraft": 8749,
      "mons": 8750,
      "monsters": 8751,
      "surpass": 8752,
      "romp": 8753,
      "startling": 8754,
      "ensemble": 8755,
      "iley": 8756,
      "cheated": 8757,
      "goings": 8758,
      "gles": 8759,
      "gloss": 8760,
      "glorious": 8761,
      "glamor": 8762,
      "glamour": 8763,
      "biting": 8764,
      "hubby": 8765,
      "auto": 8766,
      "auteur": 8767,
      "misplaced": 8768,
      "bukh": 8769,
      "comput": 8770,
      "trivial": 8771,
      "resol": 8772,
      "resist": 8773,
      "residents": 8774,
      "underworld": 8775,
      "underlying": 8776,
      "understood": 8777,
      "longest": 8778,
      "endings": 8779,
      "begun": 8780,
      "Sea": 8781,
      "THER": 8782,
      "smashes": 8783,
      "smells": 8784,
      "smooth": 8785,
      "thoughtful": 8786,
      "lighter": 8787,
      "whoever": 8788,
      "Whatsit": 8789,
      "writes": 8790,
      "proving": 8791,
      "highest": 8792,
      "paramet": 8793,
      "porting": 8794,
      "carrier": 8795,
      "woods": 8796,
      "commits": 8797,
      "Shetty": 8798,
      "Shaggy": 8799,
      "hyper": 8800,
      "hybrid": 8801,
      "suburban": 8802,
      "classes": 8803,
      "explod": 8804,
      "aforementioned": 8805,
      "coast": 8806,
      "versus": 8807,
      "decis": 8808,
      "cinct": 8809,
      "persona": 8810,
      "contempt": 8811,
      "visions": 8812,
      "visiting": 8813,
      "Enric": 8814,
      "Leo": 8815,
      "Leading": 8816,
      "warlord": 8817,
      "warrior": 8818,
      "president": 8819,
      "couch": 8820,
      "framed": 8821,
      "secondary": 8822,
      "boyish": 8823,
      "engagement": 8824,
      "solving": 8825,
      "steady": 8826,
      "addict": 8827,
      "whats": 8828,
      "20th": 8829,
      "messed": 8830,
      "originality": 8831,
      "camps": 8832,
      "camping": 8833,
      "volcan": 8834,
      "Bron": 8835,
      "Brief": 8836,
      "counts": 8837,
      "liner": 8838,
      "headed": 8839,
      "headache": 8840,
      "isticated": 8841,
      "cinemas": 8842,
      "Godfather": 8843,
      "possibility": 8844,
      "differently": 8845,
      "definition": 8846,
      "perfection": 8847,
      "creatures": 8848,
      "Univers": 8849,
      "understands": 8850,
      "formal": 8851,
      "Beat": 8852,
      "Beast": 8853,
      "colour": 8854,
      "raises": 8855,
      "ridden": 8856,
      "folk": 8857,
      "slice": 8858,
      "slapped": 8859,
      "slopp": 8860,
      "slasher": 8861,
      "heartfelt": 8862,
      "heartbreaking": 8863,
      "nights": 8864,
      "nightmare": 8865,
      "polished": 8866,
      "specul": 8867,
      "staring": 8868,
      "tenor": 8869,
      "styles": 8870,
      "stylized": 8871,
      "STO": 8872,
      "fights": 8873,
      "joins": 8874,
      "joined": 8875,
      "detached": 8876,
      "fallen": 8877,
      "involves": 8878,
      "Thats": 8879,
      "heroine": 8880,
      "Together": 8881,
      "maggots": 8882,
      "supernatural": 8883,
      "distingu": 8884,
      "guessed": 8885,
      "Grade": 8886,
      "Grave": 8887,
      "Spir": 8888,
      "pops": 8889,
      "popped": 8890,
      "drif": 8891,
      "drivel": 8892,
      "schol": 8893,
      "props": 8894,
      "suspension": 8895,
      "fantasies": 8896,
      "jects": 8897,
      "generic": 8898,
      "generous": 8899,
      "dictionary": 8900,
      "moon": 8901,
      "simultaneously": 8902,
      "storms": 8903,
      "contract": 8904,
      "controlling": 8905,
      "murderer": 8906,
      "ORT": 8907,
      "Robson": 8908,
      "innuendo": 8909,
      "promo": 8910,
      "prompt": 8911,
      "promises": 8912,
      "promoting": 8913,
      "thrillers": 8914,
      "ARD": 8915,
      "France": 8916,
      "failing": 8917,
      "Army": 8918,
      "Ardh": 8919,
      "Marcel": 8920,
      "motel": 8921,
      "motions": 8922,
      "grounds": 8923,
      "stronger": 8924,
      "deserving": 8925,
      "Luke": 8926,
      "Lucas": 8927,
      "deny": 8928,
      "hoeven": 8929,
      "lists": 8930,
      "listed": 8931,
      "SGC": 8932,
      "closest": 8933,
      "closely": 8934,
      "haired": 8935,
      "pains": 8936,
      "News": 8937,
      "eyeball": 8938,
      "Warbur": 8939,
      "pursu": 8940,
      "purchased": 8941,
      "wherein": 8942,
      "examination": 8943,
      "McEl": 8944,
      "casm": 8945,
      "casual": 8946,
      "loser": 8947,
      "transformation": 8948,
      "captors": 8949,
      "Donovan": 8950,
      "developing": 8951,
      "Scots": 8952,
      "brothel": 8953,
      "spoke": 8954,
      "eternal": 8955,
      "deaths": 8956,
      "Streets": 8957,
      "Maywe": 8958,
      "satir": 8959,
      "satire": 8960,
      "Color": 8961,
      "lected": 8962,
      "fairness": 8963,
      "darker": 8964,
      "summary": 8965,
      "Real": 8966,
      "Reed": 8967,
      "psychopath": 8968,
      "destiny": 8969,
      "figures": 8970,
      "pleasing": 8971,
      "hotel": 8972,
      "Prince": 8973,
      "oddly": 8974,
      "ification": 8975,
      "talky": 8976,
      "cheaper": 8977,
      "Absurd": 8978,
      "novels": 8979,
      "training": 8980,
      "meaningless": 8981,
      "REALL": 8982,
      "tortures": 8983,
      "torturing": 8984,
      "sticks": 8985,
      "ghostly": 8986,
      "masterful": 8987,
      "1941": 8988,
      "1944": 8989,
      "1993": 8990,
      "1995": 8991,
      "1996": 8992,
      "Hero": 8993,
      "ITY": 8994,
      "faults": 8995,
      "gerald": 8996,
      "picks": 8997,
      "picky": 8998,
      "swept": 8999,
      "discussing": 9000,
      "ridiculously": 9001,
      "villainous": 9002,
      "Gerald": 9003,
      "Clint": 9004,
      "Orleans": 9005,
      "Written": 9006,
      "instinct": 9007,
      "teenager": 9008,
      "Polish": 9009,
      "narrator": 9010,
      "premiere": 9011,
      "protest": 9012,
      "crucial": 9013,
      "Jeff": 9014,
      "miles": 9015,
      "tracks": 9016,
      "testimony": 9017,
      "Yorker": 9018,
      "literary": 9019,
      "accepting": 9020,
      "accepted": 9021,
      "walker": 9022,
      "Buchan": 9023,
      "Buaku": 9024,
      "Bukater": 9025,
      "Buñuel": 9026,
      "swing": 9027,
      "advise": 9028,
      "advantage": 9029,
      "1970": 9030,
      "1972": 9031,
      "1970s": 9032,
      "Comic": 9033,
      "LEAG": 9034,
      "MOH": 9035,
      "millions": 9036,
      "patri": 9037,
      "rampant": 9038,
      "weakness": 9039,
      "locales": 9040,
      "convinced": 9041,
      "judg": 9042,
      "immune": 9043,
      "magician": 9044,
      "complained": 9045,
      "complaints": 9046,
      "Plath": 9047,
      "hoodlum": 9048,
      "ibilities": 9049,
      "pulps": 9050,
      "depicts": 9051,
      "similarly": 9052,
      "similarities": 9053,
      "USO": 9054,
      "retired": 9055,
      "retarded": 9056,
      "receives": 9057,
      "receiving": 9058,
      "uniform": 9059,
      "1988": 9060,
      "destroying": 9061,
      "Alexa": 9062,
      "Hamm": 9063,
      "Small": 9064,
      "diner": 9065,
      "nonetheless": 9066,
      "persu": 9067,
      "incident": 9068,
      "incidents": 9069,
      "combined": 9070,
      "counters": 9071,
      "Kramer": 9072,
      "Krabb": 9073,
      "hateful": 9074,
      "knives": 9075,
      "pulling": 9076,
      "attract": 9077,
      "attraction": 9078,
      "attracted": 9079,
      "politically": 9080,
      "stereotype": 9081,
      "stereotyped": 9082,
      "Barnes": 9083,
      "dynam": 9084,
      "reached": 9085,
      "expressed": 9086,
      "brains": 9087,
      "describes": 9088,
      "Jessica": 9089,
      "Megan": 9090,
      "sinks": 9091,
      "sinkable": 9092,
      "qualify": 9093,
      "answers": 9094,
      "gained": 9095,
      "hairdo": 9096,
      "matches": 9097,
      "chemical": 9098,
      "approx": 9099,
      "brutality": 9100,
      "biography": 9101,
      "trees": 9102,
      "arrived": 9103,
      "mannerisms": 9104,
      "primitive": 9105,
      "projects": 9106,
      "photograph": 9107,
      "delighted": 9108,
      "sleeping": 9109,
      "Doctor": 9110,
      "LAPD": 9111,
      "SOAP": 9112,
      "SOLD": 9113,
      "SOME": 9114,
      "terrorists": 9115,
      "practice": 9116,
      "ordinarily": 9117,
      "colleagues": 9118,
      "Madison": 9119,
      "fatal": 9120,
      "unders": 9121,
      "consistently": 9122,
      "favourites": 9123,
      "Lauren": 9124,
      "Stephan": 9125,
      "rano": 9126,
      "square": 9127,
      "senses": 9128,
      "sensible": 9129,
      "sensational": 9130,
      "unexpectedly": 9131,
      "designed": 9132,
      "surviving": 9133,
      "survivor": 9134,
      "survived": 9135,
      "cleverly": 9136,
      "LOW": 9137,
      "immediate": 9138,
      "sporting": 9139,
      "provoke": 9140,
      "Keusch": 9141,
      "loosely": 9142,
      "dignity": 9143,
      "investigation": 9144,
      "investigating": 9145,
      "Burton": 9146,
      "Zombies": 9147,
      "basement": 9148,
      "juice": 9149,
      "package": 9150,
      "tempor": 9151,
      "reports": 9152,
      "shares": 9153,
      "conventional": 9154,
      "teaches": 9155,
      "teachers": 9156,
      "caly": 9157,
      "calcul": 9158,
      "rumor": 9159,
      "rumors": 9160,
      "thousands": 9161,
      "operas": 9162,
      "tricked": 9163,
      "grader": 9164,
      "insightful": 9165,
      "affects": 9166,
      "currently": 9167,
      "****************": 9168,
      "marketing": 9169,
      "structure": 9170,
      "structured": 9171,
      "fascinated": 9172,
      "Backula": 9173,
      "Budd": 9174,
      "Culver": 9175,
      "collabor": 9176,
      "fateful": 9177,
      "layman": 9178,
      "splitting": 9179,
      "chicks": 9180,
      "substantial": 9181,
      "accidentally": 9182,
      "witnesses": 9183,
      "Farscape": 9184,
      "Louis": 9185,
      "Parker": 9186,
      "Parkersburg": 9187,
      "Rama": 9188,
      "Terrible": 9189,
      "bags": 9190,
      "wounded": 9191,
      "proceeds": 9192,
      "correctness": 9193,
      "significance": 9194,
      "Kathy": 9195,
      "Lords": 9196,
      "Olivia": 9197,
      "Rukh": 9198,
      "Sykes": 9199,
      "System": 9200,
      "cowboy": 9201,
      "miracle": 9202,
      "throats": 9203,
      "ampire": 9204,
      "priestesses": 9205,
      "closet": 9206,
      "Technically": 9207,
      "appropriately": 9208,
      "Lovett": 9209,
      "URN": 9210,
      "flip": 9211,
      "grossing": 9212,
      "mobile": 9213,
      "machine": 9214,
      "punct": 9215,
      "salv": 9216,
      "spreading": 9217,
      "ensue": 9218,
      "organization": 9219,
      "productions": 9220,
      "anticipated": 9221,
      "deterior": 9222,
      "virtually": 9223,
      "circus": 9224,
      "bizarrely": 9225,
      "Spoiler": 9226,
      "fifteen": 9227,
      "hints": 9228,
      "logic": 9229,
      "nineties": 9230,
      "punches": 9231,
      "rainy": 9232,
      "seduce": 9233,
      "tolerant": 9234,
      "enthusi": 9235,
      "accomplished": 9236,
      "peaceful": 9237,
      "disgusting": 9238,
      "screwball": 9239,
      "miserably": 9240,
      "puzzle": 9241,
      "collective": 9242,
      "reflects": 9243,
      "Adventure": 9244,
      "Adventists": 9245,
      "challenging": 9246,
      "challenged": 9247,
      "demonstrate": 9248,
      "demonstrates": 9249,
      "Baghdad": 9250,
      "IDS": 9251,
      "Level": 9252,
      "RDA": 9253,
      "S2RD": 9254,
      "custom": 9255,
      "custody": 9256,
      "dumped": 9257,
      "nuts": 9258,
      "puppy": 9259,
      "ingredient": 9260,
      "lifetime": 9261,
      "expensive": 9262,
      "brushed": 9263,
      "weapon": 9264,
      "dozens": 9265,
      "possessed": 9266,
      "mathematical": 9267,
      "Damien": 9268,
      "Mexico": 9269,
      "Makepeace": 9270,
      "Verhoeven": 9271,
      "finger": 9272,
      "gags": 9273,
      "ruler": 9274,
      "sarcasm": 9275,
      "infuri": 9276,
      "techno": 9277,
      "hysterical": 9278,
      "Bernie": 9279,
      "transferred": 9280,
      "Romanian": 9281,
      "Romania": 9282,
      "Burning": 9283,
      "Bromwell": 9284,
      "Bromfield": 9285,
      "Cylon": 9286,
      "Callar": 9287,
      "GOD": 9288,
      "HUGE": 9289,
      "soprano": 9290,
      "resurgence": 9291,
      "agreed": 9292,
      "akuza": 9293,
      "interpreted": 9294,
      "relentless": 9295,
      "ignorant": 9296,
      "succeeds": 9297,
      "enchanting": 9298,
      "education": 9299,
      "requires": 9300,
      "sacrific": 9301,
      "Carey": 9302,
      "Consider": 9303,
      "Fanny": 9304,
      "Gummer": 9305,
      "Kamins": 9306,
      "Logand": 9307,
      "Powell": 9308,
      "Valerie": 9309,
      "goofy": 9310,
      "spring": 9311,
      "sailor": 9312,
      "stroke": 9313,
      "alcoholic": 9314,
      "debts": 9315,
      "divor": 9316,
      "maintains": 9317,
      "disguised": 9318,
      "1951": 9319,
      "admittedly": 9320,
      "paintings": 9321,
      "cruelty": 9322,
      "satisfaction": 9323,
      "jewelry": 9324,
      "hundreds": 9325,
      "Bartlett": 9326,
      "Blanc": 9327,
      "Century": 9328,
      "Flash": 9329,
      "Fitzgerald": 9330,
      "Masanori": 9331,
      "Motel": 9332,
      "Philip": 9333,
      "Radio": 9334,
      "Raymond": 9335,
      "Regard": 9336,
      "Simmons": 9337,
      "Seventh": 9338,
      "Zhou": 9339,
      "battles": 9340,
      "cigaret": 9341,
      "caliber": 9342,
      "roots": 9343,
      "incarnation": 9344,
      "inexplicable": 9345,
      "rewarding": 9346,
      "abandoned": 9347,
      "abducted": 9348,
      "manufact": 9349,
      "predecessor": 9350,
      "Stuart": 9351,
      "miniature": 9352,
      "tossed": 9353,
      "comparable": 9354,
      "fragile": 9355,
      "Sheppard": 9356,
      "dramatized": 9357,
      "elegant": 9358,
      "Scotty": 9359,
      "gorehounds": 9360,
      "earthquake": 9361,
      "culminates": 9362,
      "benefit": 9363,
      "excruciatingly": 9364,
      "Awful": 9365,
      "Abydos": 9366,
      "Audience": 9367,
      "BLUE": 9368,
      "Bridget": 9369,
      "BATMAN": 9370,
      "Family": 9371,
      "Ishq": 9372,
      "Iraq": 9373,
      "Island": 9374,
      "JUST": 9375,
      "OffOn": 9376,
      "Picture": 9377,
      "Renying": 9378,
      "Roland": 9379,
      "Rounders": 9380,
      "Supporting": 9381,
      "Takashi": 9382,
      "dazzling": 9383,
      "fetched": 9384,
      "lavish": 9385,
      "mundane": 9386,
      "nonsensical": 9387,
      "revelation": 9388,
      "alpha": 9389,
      "aristoc": 9390,
      "arrogance": 9391,
      "accompanied": 9392,
[...]
